{
  "version": "1.0",
  "truncation": null,
  "padding": null,
  "added_tokens": [
    {
      "id": 0,
      "content": "<|endoftext|>",
      "single_word": false,
      "lstrip": false,
      "rstrip": false,
      "normalized": false,
      "special": true
    },
    {
      "id": 1,
      "content": "<|eos|>",
      "single_word": false,
      "lstrip": false,
      "rstrip": false,
      "normalized": false,
      "special": true
    }
  ],
  "normalizer": null,
  "pre_tokenizer": {
    "type": "ByteLevel",
    "add_prefix_space": false,
    "trim_offsets": true,
    "use_regex": true
  },
  "post_processor": null,
  "decoder": {
    "type": "ByteLevel",
    "add_prefix_space": true,
    "trim_offsets": true,
    "use_regex": true
  },
  "model": {
    "type": "BPE",
    "dropout": null,
    "unk_token": null,
    "continuing_subword_prefix": null,
    "end_of_word_suffix": null,
    "fuse_unk": false,
    "byte_fallback": false,
    "ignore_merges": false,
    "vocab": {
      "<|endoftext|>": 0,
      "<|eos|>": 1,
      "!": 2,
      "\"": 3,
      "#": 4,
      "$": 5,
      "%": 6,
      "&": 7,
      "'": 8,
      "(": 9,
      ")": 10,
      "*": 11,
      "+": 12,
      ",": 13,
      "-": 14,
      ".": 15,
      "/": 16,
      "0": 17,
      "1": 18,
      "2": 19,
      "3": 20,
      "4": 21,
      "5": 22,
      "6": 23,
      "7": 24,
      "8": 25,
      "9": 26,
      ":": 27,
      ";": 28,
      "<": 29,
      "=": 30,
      ">": 31,
      "?": 32,
      "@": 33,
      "A": 34,
      "B": 35,
      "C": 36,
      "D": 37,
      "E": 38,
      "F": 39,
      "G": 40,
      "H": 41,
      "I": 42,
      "J": 43,
      "K": 44,
      "L": 45,
      "M": 46,
      "N": 47,
      "O": 48,
      "P": 49,
      "Q": 50,
      "R": 51,
      "S": 52,
      "T": 53,
      "U": 54,
      "V": 55,
      "W": 56,
      "X": 57,
      "Y": 58,
      "Z": 59,
      "[": 60,
      "\\": 61,
      "]": 62,
      "^": 63,
      "_": 64,
      "`": 65,
      "a": 66,
      "b": 67,
      "c": 68,
      "d": 69,
      "e": 70,
      "f": 71,
      "g": 72,
      "h": 73,
      "i": 74,
      "j": 75,
      "k": 76,
      "l": 77,
      "m": 78,
      "n": 79,
      "o": 80,
      "p": 81,
      "q": 82,
      "r": 83,
      "s": 84,
      "t": 85,
      "u": 86,
      "v": 87,
      "w": 88,
      "x": 89,
      "y": 90,
      "z": 91,
      "{": 92,
      "|": 93,
      "}": 94,
      "~": 95,
      "¡": 96,
      "¢": 97,
      "£": 98,
      "¤": 99,
      "¥": 100,
      "¦": 101,
      "§": 102,
      "¨": 103,
      "©": 104,
      "ª": 105,
      "«": 106,
      "¬": 107,
      "®": 108,
      "¯": 109,
      "°": 110,
      "±": 111,
      "³": 112,
      "´": 113,
      "¸": 114,
      "º": 115,
      "»": 116,
      "¼": 117,
      "½": 118,
      "Â": 119,
      "Ã": 120,
      "Ä": 121,
      "Å": 122,
      "Ê": 123,
      "á": 124,
      "â": 125,
      "Ċ": 126,
      "Ġ": 127,
      "Ģ": 128,
      "ģ": 129,
      "Ĥ": 130,
      "Ħ": 131,
      "ħ": 132,
      "Ī": 133,
      "ī": 134,
      "Ĭ": 135,
      "ĭ": 136,
      "į": 137,
      "İ": 138,
      "ı": 139,
      "Ĳ": 140,
      "ĳ": 141,
      "Ĵ": 142,
      "ĵ": 143,
      "ĸ": 144,
      "ĺ": 145,
      "Ļ": 146,
      "ļ": 147,
      "ľ": 148,
      "ŀ": 149,
      "ł": 150,
      "Ń": 151,
      "Ġt": 152,
      "he": 153,
      "Ġa": 154,
      "in": 155,
      "Ġthe": 156,
      "Ġw": 157,
      "re": 158,
      "Ġo": 159,
      "Ġs": 160,
      "nd": 161,
      "ed": 162,
      "er": 163,
      "ou": 164,
      "ha": 165,
      "Ġb": 166,
      "en": 167,
      "on": 168,
      "Ġm": 169,
      "it": 170,
      "is": 171,
      "Ġc": 172,
      "Ġf": 173,
      "ing": 174,
      "or": 175,
      "Ġto": 176,
      "ll": 177,
      "Ġof": 178,
      "ar": 179,
      "an": 180,
      "Ġd": 181,
      "as": 182,
      "es": 183,
      "Ġand": 184,
      "Ġh": 185,
      "Ġp": 186,
      "Ġin": 187,
      "at": 188,
      "Ġhe": 189,
      "Ġl": 190,
      "ĠI": 191,
      "om": 192,
      "Ġha": 193,
      "ic": 194,
      "hat": 195,
      "Ġg": 196,
      "Ġn": 197,
      "et": 198,
      "ow": 199,
      "ot": 200,
      "ut": 201,
      "le": 202,
      "id": 203,
      "st": 204,
      "im": 205,
      "ve": 206,
      "Ġy": 207,
      "Ġwas": 208,
      "ly": 209,
      "ent": 210,
      "gh": 211,
      "al": 212,
      "Ġbe": 213,
      "ac": 214,
      "Ġe": 215,
      "ld": 216,
      "Ġyou": 217,
      "Ġon": 218,
      "ay": 219,
      "Ġthat": 220,
      "se": 221,
      "Ġth": 222,
      "Ġ\"": 223,
      "ĠT": 224,
      "ĠS": 225,
      "ur": 226,
      "ion": 227,
      "ad": 228,
      "ro": 229,
      "Ġu": 230,
      "Ġst": 231,
      "Ġre": 232,
      "Ġhis": 233,
      "ĠM": 234,
      "Ġit": 235,
      "ver": 236,
      "ir": 237,
      "ith": 238,
      "Ġhad": 239,
      "ĠH": 240,
      "--": 241,
      "ght": 242,
      "ri": 243,
      "Ġfor": 244,
      "am": 245,
      "'s": 246,
      "ĠC": 247,
      "ec": 248,
      "the": 249,
      "oo": 250,
      "ere": 251,
      "Ġwith": 252,
      "Ġas": 253,
      "Ġan": 254,
      "ĠB": 255,
      "Ġat": 256,
      "ĠA": 257,
      "ill": 258,
      "Ġwh": 259,
      "and": 260,
      "ke": 261,
      "ter": 262,
      "ce": 263,
      "il": 264,
      ".\"": 265,
      "if": 266,
      "Ġhim": 267,
      "ain": 268,
      "ĠW": 269,
      "Ġme": 270,
      "ould": 271,
      "th": 272,
      "ĠThe": 273,
      "ĠD": 274,
      "'t": 275,
      "Ġk": 276,
      "all": 277,
      "pp": 278,
      "to": 279,
      "rom": 280,
      "ight": 281,
      "ess": 282,
      "Ġher": 283,
      "Ġnot": 284,
      "Ġsa": 285,
      "un": 286,
      "ew": 287,
      "ag": 288,
      "ted": 289,
      "Ġse": 290,
      "ch": 291,
      "Ġdo": 292,
      "ore": 293,
      "us": 294,
      "Ġis": 295,
      "ked": 296,
      ",\"": 297,
      "ell": 298,
      "ĠP": 299,
      "ol": 300,
      "ome": 301,
      "ĠHe": 302,
      "ive": 303,
      "Ġmy": 304,
      "Ġr": 305,
      "out": 306,
      "one": 307,
      "her": 308,
      "Ġup": 309,
      "ers": 310,
      "Ġout": 311,
      "ack": 312,
      "el": 313,
      "The": 314,
      "ear": 315,
      "ant": 316,
      "qu": 317,
      "Ġfrom": 318,
      "ĠF": 319,
      "ard": 320,
      "Ġsh": 321,
      "red": 322,
      "ice": 323,
      "ab": 324,
      "Ġkn": 325,
      "est": 326,
      "Ġor": 327,
      "ig": 328,
      "ect": 329,
      "Ġman": 330,
      "?\"": 331,
      "lo": 332,
      "ĠN": 333,
      "em": 334,
      "ation": 335,
      "Ġhave": 336,
      "rou": 337,
      "Ġthis": 338,
      "ame": 339,
      "Ġshe": 340,
      "own": 341,
      "ust": 342,
      "ul": 343,
      "Ġwhe": 344,
      "ĠL": 345,
      "Ġsaid": 346,
      "our": 347,
      "ep": 348,
      "ra": 349,
      "Ġwere": 350,
      "ss": 351,
      "Ġj": 352,
      "Ġ--": 353,
      "Ġwe": 354,
      "Ġsu": 355,
      "Ġby": 356,
      "ind": 357,
      "ck": 358,
      "ct": 359,
      "ous": 360,
      "ĠR": 361,
      "Ġone": 362,
      "art": 363,
      "Ġex": 364,
      "ĠG": 365,
      "um": 366,
      "od": 367,
      "Ġcon": 368,
      "Ġbut": 369,
      "Ġab": 370,
      "ie": 371,
      "of": 372,
      "Ġbeen": 373,
      "ĠO": 374,
      "Ġall": 375,
      "ĠJ": 376,
      "ate": 377,
      "Ġv": 378,
      "ood": 379,
      "ime": 380,
      "Ġwho": 381,
      "ĠE": 382,
      "nt": 383,
      "ich": 384,
      "ak": 385,
      "Ġyour": 386,
      "hed": 387,
      "ist": 388,
      "ap": 389,
      "Ġle": 390,
      "Ġso": 391,
      "iv": 392,
      "ide": 393,
      "Ġro": 394,
      "ry": 395,
      "ge": 396,
      "Ġal": 397,
      "ace": 398,
      "ĠY": 399,
      "ine": 400,
      "Ġany": 401,
      "way": 402,
      "ook": 403,
      "han": 404,
      "urn": 405,
      "ong": 406,
      "ost": 407,
      "ort": 408,
      "ast": 409,
      "Ġpl": 410,
      "Ġwould": 411,
      "Ġdid": 412,
      "very": 413,
      "lf": 414,
      "Ġsp": 415,
      "hing": 416,
      "Ġ1": 417,
      "Ġno": 418,
      "are": 419,
      "ered": 420,
      "ound": 421,
      "ff": 422,
      "Ġwor": 423,
      "âģ": 424,
      "âģł": 425,
      "ure": 426,
      "ake": 427,
      "Ġde": 428,
      "Ġthere": 429,
      "Ġthey": 430,
      "ru": 431,
      "ick": 432,
      "Ġinto": 433,
      "pl": 434,
      "Ġtw": 435,
      "Ġoff": 436,
      "ond": 437,
      "Ġgo": 438,
      "end": 439,
      "Ġthem": 440,
      "Ġag": 441,
      "ther": 442,
      "op": 443,
      "ven": 444,
      "âģł--": 445,
      "Ġabout": 446,
      "ĠSt": 447,
      "Ġli": 448,
      "Ġknow": 449,
      "ment": 450,
      "Ġcom": 451,
      "ity": 452,
      "fter": 453,
      "Ġ.": 454,
      "ne": 455,
      "ade": 456,
      "Ġpo": 457,
      "Ġhand": 458,
      "ies": 459,
      "Ġwhich": 460,
      "Ġwhen": 461,
      "au": 462,
      "Ġwill": 463,
      "itt": 464,
      "ber": 465,
      "ull": 466,
      "Ġne": 467,
      "Ġcould": 468,
      "Ġcan": 469,
      "Ġqu": 470,
      "Ġover": 471,
      "Ġif": 472,
      "Ġare": 473,
      "ĠMr": 474,
      "Ġget": 475,
      "ite": 476,
      "his": 477,
      "Ġwhat": 478,
      "ĠIt": 479,
      "!\"": 480,
      "ree": 481,
      "Ġpro": 482,
      "man": 483,
      "ail": 484,
      "Ġtime": 485,
      "ran": 486,
      "Ġback": 487,
      "ile": 488,
      "Ġus": 489,
      "00": 490,
      "pt": 491,
      "etect": 492,
      "ire": 493,
      "ally": 494,
      "for": 495,
      "Ġdown": 496,
      "Ġar": 497,
      "self": 498,
      "led": 499,
      "act": 500,
      "fore": 501,
      "sp": 502,
      "ink": 503,
      "Ġbl": 504,
      "oll": 505,
      "per": 506,
      "cc": 507,
      "Ġtoo": 508,
      "able": 509,
      "be": 510,
      "ough": 511,
      "ence": 512,
      "Ġpre": 513,
      "Ġun": 514,
      "ied": 515,
      "Ġother": 516,
      "ved": 517,
      "other": 518,
      "ud": 519,
      "Ġad": 520,
      "ated": 521,
      "right": 522,
      "ft": 523,
      "Ġafter": 524,
      "ark": 525,
      "'ll": 526,
      "Ġgot": 527,
      "ass": 528,
      "ĠK": 529,
      "ob": 530,
      "Ġwent": 531,
      "ng": 532,
      "ĠShe": 533,
      "ody": 534,
      "Ġtwo": 535,
      "ty": 536,
      "age": 537,
      "He": 538,
      "orn": 539,
      "old": 540,
      "Ġdoor": 541,
      "Ġtr": 542,
      "Ġsome": 543,
      "Ġen": 544,
      "Ġagain": 545,
      "ove": 546,
      "ress": 547,
      "nder": 548,
      "Ġey": 549,
      "Ġcl": 550,
      "Ġday": 551,
      "pped": 552,
      "Ġpr": 553,
      "Ġlike": 554,
      "ife": 555,
      "Ġthen": 556,
      "Ġnow": 557,
      "ory": 558,
      "der": 559,
      "Ġcame": 560,
      "Ġcar": 561,
      "ble": 562,
      "ase": 563,
      "ĠIn": 564,
      "Ġdis": 565,
      "ious": 566,
      "Ġmore": 567,
      "Ġtheir": 568,
      "ary": 569,
      "ose": 570,
      "ance": 571,
      "rough": 572,
      "wn": 573,
      "har": 574,
      "ue": 575,
      "Ġcr": 576,
      "tain": 577,
      "etective": 578,
      "Ġsm": 579,
      "ittle": 580,
      "Ġsee": 581,
      "ouse": 582,
      "os": 583,
      "Ġbefore": 584,
      "You": 585,
      "ict": 586,
      "ip": 587,
      "that": 588,
      "ened": 589,
      "Ġtold": 590,
      "olice": 591,
      "was": 592,
      "ath": 593,
      "Ġroom": 594,
      "urned": 595,
      "Ġ'": 596,
      "ach": 597,
      "Ġam": 598,
      "hen": 599,
      "irl": 600,
      "Ġsc": 601,
      "Ġonly": 602,
      "Ġjust": 603,
      "irst": 604,
      "Ġmen": 605,
      "int": 606,
      "oney": 607,
      "ĠYou": 608,
      "imp": 609,
      "Ġgr": 610,
      "Ġmade": 611,
      "Ġwhere": 612,
      "round": 613,
      "thing": 614,
      "Ġ$": 615,
      "we": 616,
      "..": 617,
      "ount": 618,
      "Ġsl": 619,
      "Ġbr": 620,
      "ward": 621,
      "Ġface": 622,
      "ions": 623,
      "Ġeyes": 624,
      "reet": 625,
      "Ġlittle": 626,
      "ont": 627,
      "iz": 628,
      "Ġapp": 629,
      "bl": 630,
      "av": 631,
      "ried": 632,
      "ave": 633,
      "ph": 634,
      "had": 635,
      "Ġway": 636,
      "Ġfound": 637,
      "gg": 638,
      "Ġbo": 639,
      "Ġyear": 640,
      "ater": 641,
      "Ġhead": 642,
      "ĠWe": 643,
      "ĠBut": 644,
      "ster": 645,
      "Ġhere": 646,
      "Ġunder": 647,
      "Ġthan": 648,
      "Ġhow": 649,
      "Ġdon": 650,
      "Ġthrough": 651,
      "iss": 652,
      "Ġright": 653,
      "Ġasked": 654,
      "ought": 655,
      "Ġtell": 656,
      "aw": 657,
      "oc": 658,
      "Ġgirl": 659,
      "air": 660,
      "reat": 661,
      "ild": 662,
      "ness": 663,
      "Ġch": 664,
      "ings": 665,
      "ĠV": 666,
      "Ġmur": 667,
      "Ġhas": 668,
      "wh": 669,
      "Ġwom": 670,
      "sh": 671,
      "Ġlet": 672,
      "âĸ": 673,
      "ared": 674,
      "ĠAnd": 675,
      "Ġdidn": 676,
      "Ġop": 677,
      "ial": 678,
      "Ġfe": 679,
      "Ġfirst": 680,
      "az": 681,
      "ned": 682,
      "Ġke": 683,
      "ily": 684,
      "Ġnew": 685,
      "Ġaway": 686,
      "cl": 687,
      "Ġevery": 688,
      "son": 689,
      "Ġgu": 690,
      "Ġleft": 691,
      "ks": 692,
      "It": 693,
      "Ġsay": 694,
      "Ġfl": 695,
      "ful": 696,
      "king": 697,
      "Ġnight": 698,
      "you": 699,
      "Ġthink": 700,
      "Ġlook": 701,
      "ish": 702,
      "Ġhouse": 703,
      "up": 704,
      "ton": 705,
      "Ġdes": 706,
      "Ġcall": 707,
      "te": 708,
      "ĠMrs": 709,
      "Ġour": 710,
      "Ġpolice": 711,
      "og": 712,
      "ooked": 713,
      "Ġwr": 714,
      "Ġrem": 715,
      "ced": 716,
      "Ġpart": 717,
      "Ġmake": 718,
      "ang": 719,
      "'m": 720,
      "ison": 721,
      "with": 722,
      "Ġbec": 723,
      "Ġatt": 724,
      "ctor": 725,
      "uch": 726,
      "here": 727,
      "Ġbet": 728,
      "Ġput": 729,
      "'ve": 730,
      "Ġwant": 731,
      "Ġgoing": 732,
      "hes": 733,
      "Ġmoney": 734,
      "Ġold": 735,
      "omet": 736,
      "ork": 737,
      "erson": 738,
      "ĠNew": 739,
      "Ġhome": 740,
      "ord": 741,
      "Ġgood": 742,
      "Ġint": 743,
      "oth": 744,
      "ER": 745,
      "Ġgl": 746,
      "ps": 747,
      "ĠCh": 748,
      "aid": 749,
      "ey": 750,
      "Ġeven": 751,
      "Ġcome": 752,
      "Ġper": 753,
      "Ġkill": 754,
      "less": 755,
      "ident": 756,
      "Ġ2": 757,
      "ee": 758,
      "Ġrep": 759,
      "Ġknew": 760,
      "Ġtook": 761,
      "ia": 762,
      "ting": 763,
      "Ġvery": 764,
      "ather": 765,
      "Ġsec": 766,
      "ving": 767,
      "Ġlong": 768,
      "day": 769,
      "Ġcour": 770,
      "'d": 771,
      "und": 772,
      "ix": 773,
      "Ġent": 774,
      "Ġfr": 775,
      "Ġyears": 776,
      "ars": 777,
      "Ġlooked": 778,
      "owed": 779,
      "Ġ-": 780,
      "get": 781,
      "Ġwoman": 782,
      "by": 783,
      "Ġaround": 784,
      "ched": 785,
      "so": 786,
      "Ġcha": 787,
      "med": 788,
      "co": 789,
      "ives": 790,
      "Ġclo": 791,
      "riend": 792,
      "ĠU": 793,
      "Ġsaw": 794,
      "ret": 795,
      "omething": 796,
      "sw": 797,
      "Ġret": 798,
      "Ġbel": 799,
      "'re": 800,
      "Ġshould": 801,
      "ise": 802,
      "ait": 803,
      "âĢ": 804,
      "Ġits": 805,
      "aking": 806,
      "ank": 807,
      "Ġown": 808,
      "Ġwhile": 809,
      "ash": 810,
      "igh": 811,
      "Ġtal": 812,
      "ĠHis": 813,
      "ĠThey": 814,
      "Ġseem": 815,
      "ause": 816,
      "atch": 817,
      "ling": 818,
      "ĠMy": 819,
      "ters": 820,
      "Ġnothing": 821,
      "ped": 822,
      "mer": 823,
      "iness": 824,
      "Ġsw": 825,
      "oot": 826,
      "ner": 827,
      "Ġfew": 828,
      "Ġlight": 829,
      "Ġturned": 830,
      "side": 831,
      "den": 832,
      "ning": 833,
      "hy": 834,
      "Ġgun": 835,
      "ĠNo": 836,
      "Ġmight": 837,
      "RE": 838,
      "Ġlast": 839,
      "Ġche": 840,
      "Ġthought": 841,
      "ens": 842,
      "Ġacc": 843,
      "ĠSp": 844,
      "ĠDetective": 845,
      "âĸł": 846,
      "Ġac": 847,
      "Ġmin": 848,
      "Ġwork": 849,
      "ows": 850,
      "Ġtake": 851,
      "Ġhimself": 852,
      "ĠThere": 853,
      "Ġnever": 854,
      "ever": 855,
      "Ġte": 856,
      "Ġfind": 857,
      "ady": 858,
      "ition": 859,
      "ney": 860,
      "But": 861,
      "What": 862,
      "de": 863,
      "ĠThat": 864,
      "Ġanything": 865,
      "Ġmuch": 866,
      "ross": 867,
      "ged": 868,
      "ical": 869,
      "Ġthree": 870,
      "Ġunt": 871,
      "not": 872,
      "Ġwithout": 873,
      "ool": 874,
      "ement": 875,
      "Ġ(": 876,
      "oice": 877,
      "ex": 878,
      "ief": 879,
      "erv": 880,
      "Ġbody": 881,
      "Ġco": 882,
      "Ġimp": 883,
      "ian": 884,
      "Ġcou": 885,
      "No": 886,
      "Ġupon": 887,
      "gan": 888,
      "Ġmust": 889,
      "Ġmay": 890,
      "Ġcase": 891,
      "ĠThen": 892,
      "Ġrec": 893,
      "Ġhour": 894,
      "Ġcont": 895,
      "Ġbig": 896,
      "ple": 897,
      "In": 898,
      "ept": 899,
      "Ġexp": 900,
      "ible": 901,
      "Ġinst": 902,
      "And": 903,
      "ny": 904,
      "Ġuntil": 905,
      "Ġfriend": 906,
      ".,": 907,
      "That": 908,
      "ained": 909,
      "li": 910,
      "ger": 911,
      "Ġsat": 912,
      "ors": 913,
      "Ġanother": 914,
      "Ġhands": 915,
      "Ġwell": 916,
      "We": 917,
      "pe": 918,
      "Ġbu": 919,
      "Ġplace": 920,
      "Ġbus": 921,
      "ĠIf": 922,
      "Ġact": 923,
      "Ġcle": 924,
      "any": 925,
      "Ġname": 926,
      "iff": 927,
      "IN": 928,
      "Ġcare": 929,
      "me": 930,
      "mit": 931,
      "ons": 932,
      "Ġ3": 933,
      "ign": 934,
      "ock": 935,
      "Ġsomething": 936,
      "ired": 937,
      "but": 938,
      "ub": 939,
      "Ġfoll": 940,
      "orning": 941,
      "Ġminut": 942,
      "rue": 943,
      "Ġlife": 944,
      "aut": 945,
      "ON": 946,
      "Ġchan": 947,
      "Ġsent": 948,
      "body": 949,
      "app": 950,
      "artment": 951,
      "sent": 952,
      "Ġdec": 953,
      "Ġdays": 954,
      "Ġstill": 955,
      "lock": 956,
      "Ġadd": 957,
      "Ġpay": 958,
      "enty": 959,
      "ley": 960,
      "Ġbeing": 961,
      "Ġmost": 962,
      "Ġheard": 963,
      "most": 964,
      "les": 965,
      "him": 966,
      "Ġsha": 967,
      "Ġem": 968,
      "Ġword": 969,
      "Ġthese": 970,
      "pr": 971,
      "oment": 972,
      "oy": 973,
      "rew": 974,
      "atter": 975,
      "Ġmurder": 976,
      "onth": 977,
      "Ġquest": 978,
      "ult": 979,
      "uff": 980,
      "Ġhar": 981,
      "Ġgive": 982,
      "ished": 983,
      "Ġconf": 984,
      "Ġfar": 985,
      "ĠThis": 986,
      "Ġtri": 987,
      "ĠTh": 988,
      "att": 989,
      "Ġhel": 990,
      "ully": 991,
      "loor": 992,
      "sed": 993,
      "uth": 994,
      "owing": 995,
      "Ġdark": 996,
      "bed": 997,
      "ating": 998,
      "Ġenough": 999,
      "Ġside": 1000,
      "aken": 1001,
      "Ġbook": 1002,
      "Ġsend": 1003,
      "Â«": 1004,
      "ĠBr": 1005,
      "Ġopen": 1006,
      "Ġinv": 1007,
      "AN": 1008,
      "Ġstory": 1009,
      "Ġwind": 1010,
      "Ġfact": 1011,
      "ĠYork": 1012,
      "my": 1013,
      "Ġvoice": 1014,
      "anc": 1015,
      "Ġdead": 1016,
      "Ġpe": 1017,
      "Ġseen": 1018,
      "ual": 1019,
      "form": 1020,
      "fe": 1021,
      "hind": 1022,
      "Ġmet": 1023,
      "Ġend": 1024,
      "Ġagainst": 1025,
      "no": 1026,
      "Â»": 1027,
      "ek": 1028,
      "io": 1029,
      "Ġass": 1030,
      "Ġev": 1031,
      "Ġhalf": 1032,
      "Ġoffice": 1033,
      "kn": 1034,
      "Ġwait": 1035,
      "Ġpass": 1036,
      "Ġansw": 1037,
      "Ġnear": 1038,
      "men": 1039,
      "Ġfin": 1040,
      "Ġyoung": 1041,
      "imes": 1042,
      "anted": 1043,
      "ung": 1044,
      "Ġmorning": 1045,
      "Ġperson": 1046,
      "iam": 1047,
      "ott": 1048,
      "Ġim": 1049,
      "Ġmoment": 1050,
      "ib": 1051,
      "ĠCl": 1052,
      "Ġhapp": 1053,
      "ĠAt": 1054,
      "Ġlater": 1055,
      "Ġthing": 1056,
      "Ġcalled": 1057,
      "Ġset": 1058,
      "usp": 1059,
      "Ġtry": 1060,
      "its": 1061,
      "She": 1062,
      "ween": 1063,
      "Ġdeath": 1064,
      "Ġchar": 1065,
      "ĠStreet": 1066,
      "Ġmo": 1067,
      "Ġdep": 1068,
      "St": 1069,
      "Ġever": 1070,
      "ĠJo": 1071,
      "Ġcomp": 1072,
      "Ġfell": 1073,
      "Ġshot": 1074,
      "Ġwal": 1075,
      "Ġboy": 1076,
      "Ġread": 1077,
      "aught": 1078,
      "ertain": 1079,
      "Ġob": 1080,
      "Ġste": 1081,
      "ans": 1082,
      "arted": 1083,
      "iet": 1084,
      "ured": 1085,
      "Ġgreat": 1086,
      "Ġsame": 1087,
      "ised": 1088,
      "Ġonce": 1089,
      "Ġind": 1090,
      "Ġwife": 1091,
      "xt": 1092,
      "Ġstand": 1093,
      "off": 1094,
      "over": 1095,
      "Ġear": 1096,
      "row": 1097,
      "Ġthose": 1098,
      "There": 1099,
      "Ġkeep": 1100,
      "Ġarm": 1101,
      "used": 1102,
      "Mr": 1103,
      "uck": 1104,
      "aced": 1105,
      "Ġcourse": 1106,
      "Ġres": 1107,
      "Ġseemed": 1108,
      "Ġmonth": 1109,
      "Ġgave": 1110,
      "ĠDo": 1111,
      "hn": 1112,
      "ued": 1113,
      "Ġdro": 1114,
      "Ġhold": 1115,
      "EN": 1116,
      "Ġi": 1117,
      "Ġel": 1118,
      "ago": 1119,
      "Ġfloor": 1120,
      "Ġ;": 1121,
      "Ġbehind": 1122,
      "ways": 1123,
      "spect": 1124,
      "imin": 1125,
      "ited": 1126,
      "Ġeas": 1127,
      "Ġlear": 1128,
      "AR": 1129,
      "ected": 1130,
      "ient": 1131,
      "head": 1132,
      "ense": 1133,
      "ined": 1134,
      "ren": 1135,
      "ousand": 1136,
      "outh": 1137,
      "com": 1138,
      "Ġfeet": 1139,
      "Ġph": 1140,
      "idence": 1141,
      "Ġmany": 1142,
      "from": 1143,
      "rought": 1144,
      "room": 1145,
      "Ġfront": 1146,
      "Ġbecause": 1147,
      "Ġgiv": 1148,
      "ention": 1149,
      "Ġjob": 1150,
      "aper": 1151,
      "Ġtoward": 1152,
      "Ġsuch": 1153,
      "Ġstood": 1154,
      "Ġsur": 1155,
      "undred": 1156,
      "uring": 1157,
      "ho": 1158,
      "Ġcur": 1159,
      "ular": 1160,
      "Ġposs": 1161,
      "ĠBl": 1162,
      "Ġblack": 1163,
      "Ġdri": 1164,
      "Ġ:": 1165,
      "ete": 1166,
      "Ġoffic": 1167,
      "Ġsmall": 1168,
      "Ġstreet": 1169,
      "Ġreal": 1170,
      "Ġfing": 1171,
      "Ġprison": 1172,
      "ached": 1173,
      "road": 1174,
      "Yes": 1175,
      "ves": 1176,
      "ded": 1177,
      "Ġbusiness": 1178,
      "ĠWill": 1179,
      "ĠFran": 1180,
      "sc": 1181,
      "ither": 1182,
      "Ġmar": 1183,
      "Ġneed": 1184,
      "This": 1185,
      "ins": 1186,
      "rest": 1187,
      "Ġplay": 1188,
      "Ġbetween": 1189,
      "Ġsusp": 1190,
      "ax": 1191,
      "ived": 1192,
      "Ġbre": 1193,
      "ĠSpade": 1194,
      "ople": 1195,
      "Ġquick": 1196,
      "du": 1197,
      "Ġsupp": 1198,
      "Ġgone": 1199,
      "Ġsure": 1200,
      "Ġbed": 1201,
      "Ġminutes": 1202,
      "Ġeach": 1203,
      "Ġrun": 1204,
      "land": 1205,
      "erest": 1206,
      "Ġbelie": 1207,
      "Ġcount": 1208,
      "ates": 1209,
      "ĠMyster": 1210,
      "Ġhelp": 1211,
      "ations": 1212,
      "Ġdet": 1213,
      "Ġmind": 1214,
      "Ġ19": 1215,
      "Ġinc": 1216,
      "Ġcrime": 1217,
      "ized": 1218,
      "fully": 1219,
      "Ġthings": 1220,
      "ably": 1221,
      "ately": 1222,
      "Ġdist": 1223,
      "Ġtaken": 1224,
      "Ġap": 1225,
      "enc": 1226,
      "Ġfree": 1227,
      "Ġalong": 1228,
      "do": 1229,
      "br": 1230,
      "Ġdetective": 1231,
      "ower": 1232,
      "ene": 1233,
      "Ġquestion": 1234,
      "âĢ¢": 1235,
      "ĠWhen": 1236,
      "Ġchair": 1237,
      "Ġdire": 1238,
      "icago": 1239,
      "amp": 1240,
      "Ġdr": 1241,
      "Â¬": 1242,
      "ts": 1243,
      "wo": 1244,
      "Ġalmost": 1245,
      "Ġwanted": 1246,
      "Ġtele": 1247,
      "ham": 1248,
      "Ġkilled": 1249,
      "ane": 1250,
      "Ġdisc": 1251,
      "agaz": 1252,
      "Ġ!": 1253,
      "ĠDe": 1254,
      "TH": 1255,
      "Ġple": 1256,
      "ĠLe": 1257,
      "ually": 1258,
      "Ġhard": 1259,
      "ird": 1260,
      "Ġroad": 1261,
      "ying": 1262,
      "Ġdone": 1263,
      "Ġtra": 1264,
      "ents": 1265,
      "Ġmurd": 1266,
      "Ġnext": 1267,
      "airs": 1268,
      "Ġaut": 1269,
      "Ġrest": 1270,
      "Ġsil": 1271,
      "Ġfour": 1272,
      "cept": 1273,
      "Ġbegan": 1274,
      "etectives": 1275,
      "Ġ4": 1276,
      "Ġstr": 1277,
      "ĠMc": 1278,
      "umber": 1279,
      "mitted": 1280,
      "Ġten": 1281,
      "Ġfull": 1282,
      "ason": 1283,
      "000": 1284,
      "Ġter": 1285,
      "oke": 1286,
      "Ġbrought": 1287,
      "ince": 1288,
      "Ġheld": 1289,
      "Ġhair": 1290,
      "ided": 1291,
      "overed": 1292,
      "ug": 1293,
      "als": 1294,
      "ream": 1295,
      "eck": 1296,
      "umb": 1297,
      "ĠMysteries": 1298,
      "Ġsle": 1299,
      "lect": 1300,
      "ES": 1301,
      "Ġsecond": 1302,
      "ĠHer": 1303,
      "Ġdel": 1304,
      "How": 1305,
      "raw": 1306,
      "Ġsn": 1307,
      "elt": 1308,
      "Then": 1309,
      "Ġboth": 1310,
      "Ġdoll": 1311,
      "tr": 1312,
      "were": 1313,
      "Ġcompl": 1314,
      "cle": 1315,
      "ĠMiss": 1316,
      "Ġhundred": 1317,
      "Ġwasn": 1318,
      "Ġreg": 1319,
      "ier": 1320,
      "Ġfive": 1321,
      "agazine": 1322,
      "ĠCar": 1323,
      "inc": 1324,
      "Ġ*": 1325,
      "Ġsto": 1326,
      "eared": 1327,
      "iled": 1328,
      "Ġ5": 1329,
      "Ġtrain": 1330,
      "Ġsk": 1331,
      "REE": 1332,
      "Ġalways": 1333,
      "Ġwatch": 1334,
      "Ġstep": 1335,
      "gether": 1336,
      "con": 1337,
      "pon": 1338,
      "Ġlaw": 1339,
      "Ġpos": 1340,
      "ities": 1341,
      "formation": 1342,
      "Ġfam": 1343,
      "Ġalso": 1344,
      "Ġknown": 1345,
      "Ġsub": 1346,
      "cket": 1347,
      "Ġacross": 1348,
      "Ġexpl": 1349,
      "ĠChicago": 1350,
      "Ġthousand": 1351,
      "ering": 1352,
      "Ġcor": 1353,
      "Ġturn": 1354,
      "Ġinterest": 1355,
      "Ġprom": 1356,
      "let": 1357,
      "this": 1358,
      "Ġclose": 1359,
      "orney": 1360,
      "Ġused": 1361,
      "eed": 1362,
      "Ġshort": 1363,
      "Ġmyself": 1364,
      "TI": 1365,
      "ah": 1366,
      "ines": 1367,
      "icked": 1368,
      "Ġpeople": 1369,
      "band": 1370,
      "Ġuse": 1371,
      "aring": 1372,
      "Ġhigh": 1373,
      "OR": 1374,
      "Ġord": 1375,
      "ember": 1376,
      "Ġpocket": 1377,
      "Ġdoes": 1378,
      "ific": 1379,
      "stand": 1380,
      "True": 1381,
      "Ġinter": 1382,
      "ute": 1383,
      "have": 1384,
      "Ġcomm": 1385,
      "Ġeff": 1386,
      "ession": 1387,
      "Ġtwenty": 1388,
      "Well": 1389,
      "oun": 1390,
      "ĠAl": 1391,
      "Ġadv": 1392,
      "ently": 1393,
      "Ġrece": 1394,
      "Ġsoon": 1395,
      "Ġmatter": 1396,
      "Ġfig": 1397,
      "Ġocc": 1398,
      "Ġlau": 1399,
      "Ġpur": 1400,
      "otel": 1401,
      "Ġrel": 1402,
      "ĠOn": 1403,
      "dd": 1404,
      "Ġcity": 1405,
      "Ġtalk": 1406,
      "inued": 1407,
      "ience": 1408,
      "Ġpu": 1409,
      "ĠJohn": 1410,
      "Ġran": 1411,
      "If": 1412,
      "would": 1413,
      "Ġtable": 1414,
      "Ġlead": 1415,
      "Ġbank": 1416,
      "Ġlar": 1417,
      "vers": 1418,
      "veral": 1419,
      "They": 1420,
      "Ġwindow": 1421,
      "Ġhus": 1422,
      "ĠFor": 1423,
      "Ġbetter": 1424,
      "about": 1425,
      "Ġpost": 1426,
      "Ġsix": 1427,
      "OU": 1428,
      "Ġwhy": 1429,
      "Ġcorn": 1430,
      "Ġwond": 1431,
      "Ġcertain": 1432,
      "ĠMar": 1433,
      "Ġblood": 1434,
      "she": 1435,
      "wor": 1436,
      "ures": 1437,
      "Ġsud": 1438,
      "ction": 1439,
      "ale": 1440,
      "ury": 1441,
      "Ġcouldn": 1442,
      "esc": 1443,
      "Ġpoint": 1444,
      "Ġopened": 1445,
      "Ġmean": 1446,
      "aged": 1447,
      "which": 1448,
      "where": 1449,
      "Ġwon": 1450,
      "Ġloc": 1451,
      "Ġhours": 1452,
      "Ġwhite": 1453,
      "Ġconv": 1454,
      "Ġref": 1455,
      "estig": 1456,
      "Ġreturned": 1457,
      "Ġser": 1458,
      "Ġstarted": 1459,
      "denly": 1460,
      "Ġhur": 1461,
      "iving": 1462,
      "Ġautom": 1463,
      "been": 1464,
      "Ġgiven": 1465,
      "Ġthough": 1466,
      "riv": 1467,
      "unt": 1468,
      "Ġvis": 1469,
      "ister": 1470,
      "Ġhop": 1471,
      "hod": 1472,
      "gr": 1473,
      "ĠCo": 1474,
      "Ġdou": 1475,
      "Ġlooking": 1476,
      "âĸ¡": 1477,
      "When": 1478,
      "Ġmail": 1479,
      "light": 1480,
      "erk": 1481,
      "Ġdollars": 1482,
      "ead": 1483,
      "ĠSch": 1484,
      "uc": 1485,
      "ize": 1486,
      "ĠEng": 1487,
      "ĠDept": 1488,
      "ĠDoctor": 1489,
      "Ġrob": 1490,
      "ilding": 1491,
      "TE": 1492,
      "pro": 1493,
      "Th": 1494,
      "Ġsound": 1495,
      "ern": 1496,
      "haps": 1497,
      "Ġcap": 1498,
      "aster": 1499,
      "fort": 1500,
      "Ġorder": 1501,
      "phone": 1502,
      "velo": 1503,
      "Ġstopped": 1504,
      "arm": 1505,
      "irty": 1506,
      "ĠWhat": 1507,
      "Ġdiff": 1508,
      "clock": 1509,
      "Ġbit": 1510,
      "oss": 1511,
      "Ġtried": 1512,
      "cr": 1513,
      "hand": 1514,
      "who": 1515,
      "Ġwall": 1516,
      "ĠAs": 1517,
      "roo": 1518,
      "Ġelse": 1519,
      "fl": 1520,
      "vel": 1521,
      "now": 1522,
      "As": 1523,
      "Ġlist": 1524,
      "Ġyet": 1525,
      "ĠAr": 1526,
      "Ġlay": 1527,
      "loy": 1528,
      "omp": 1529,
      "Ġcons": 1530,
      "Ġinformation": 1531,
      "Ġaddress": 1532,
      "ener": 1533,
      "Ġrepl": 1534,
      "Ġtogether": 1535,
      "Ġshow": 1536,
      "arr": 1537,
      "noon": 1538,
      "alth": 1539,
      "Ġweek": 1540,
      "AL": 1541,
      "inted": 1542,
      "ĠSo": 1543,
      "Ġkind": 1544,
      "Ġbro": 1545,
      "Ġseveral": 1546,
      "Ġbeaut": 1547,
      "ĠPr": 1548,
      "Ġreturn": 1549,
      "Ġchance": 1550,
      "ken": 1551,
      "isf": 1552,
      "ĠWh": 1553,
      "Ġpret": 1554,
      "gin": 1555,
      "Ġaff": 1556,
      "ecess": 1557,
      "Ġfire": 1558,
      "riff": 1559,
      "ection": 1560,
      "Ġstart": 1561,
      "Ġlot": 1562,
      "reed": 1563,
      "Ġworld": 1564,
      "Ġwords": 1565,
      "IC": 1566,
      "your": 1567,
      "iously": 1568,
      "Ġcrimin": 1569,
      "Do": 1570,
      "Ġcol": 1571,
      "ushed": 1572,
      "raight": 1573,
      "Ġwalked": 1574,
      "ler": 1575,
      "Ġmot": 1576,
      "Ġdetectives": 1577,
      "Ġpict": 1578,
      "ified": 1579,
      "Ġpast": 1580,
      "ĠGr": 1581,
      "At": 1582,
      "Not": 1583,
      "Ġbes": 1584,
      "rem": 1585,
      "Ġfeel": 1586,
      "Ġtrou": 1587,
      "Ġfore": 1588,
      "Ġins": 1589,
      "ĠQ": 1590,
      "Ġred": 1591,
      "itting": 1592,
      "Ġsecret": 1593,
      "night": 1594,
      "Ġletter": 1595,
      "Ġdem": 1596,
      "Ġexper": 1597,
      "Ġ10": 1598,
      "Ġexc": 1599,
      "oft": 1600,
      "Ġsir": 1601,
      "ĠCO": 1602,
      "they": 1603,
      "ush": 1604,
      "rill": 1605,
      "Ġarrest": 1606,
      "iec": 1607,
      "Ġdef": 1608,
      "lor": 1609,
      "ĠState": 1610,
      "Ġreached": 1611,
      "Ġsear": 1612,
      "Ġcorner": 1613,
      "ĠSan": 1614,
      "Ġstran": 1615,
      "Ġreason": 1616,
      "eks": 1617,
      "onds": 1618,
      "Ġbelieve": 1619,
      "rite": 1620,
      "Ġfelt": 1621,
      "gu": 1622,
      "when": 1623,
      "ĠBe": 1624,
      "Ġnod": 1625,
      "Ġtrying": 1626,
      "ploy": 1627,
      "Ġbest": 1628,
      "go": 1629,
      "Ġothers": 1630,
      "Ġfriends": 1631,
      "Ġlove": 1632,
      "Ġ6": 1633,
      "ames": 1634,
      "Ġpull": 1635,
      "ments": 1636,
      "Ġpresent": 1637,
      "read": 1638,
      "Ġago": 1639,
      "Ġhusband": 1640,
      "how": 1641,
      "ric": 1642,
      "res": 1643,
      "Ġmouth": 1644,
      "ones": 1645,
      "orr": 1646,
      "ets": 1647,
      "ĠAll": 1648,
      "Ġplan": 1649,
      "On": 1650,
      "there": 1651,
      "ĠBill": 1652,
      "Ġhappened": 1653,
      "Ġapartment": 1654,
      "Ġlow": 1655,
      "apers": 1656,
      "Ġeasy": 1657,
      "raph": 1658,
      "Ġevidence": 1659,
      "can": 1660,
      "rit": 1661,
      "Ġide": 1662,
      "ĠAn": 1663,
      "akes": 1664,
      "Ġident": 1665,
      "Ġchild": 1666,
      "Ġhear": 1667,
      "arent": 1668,
      "Ġprof": 1669,
      "ĠFREE": 1670,
      "Ġbull": 1671,
      "Ġmyster": 1672,
      "Ġwouldn": 1673,
      "Ġed": 1674,
      "Don": 1675,
      "ĠMan": 1676,
      "ards": 1677,
      "Ġsqu": 1678,
      "Ġfif": 1679,
      "ants": 1680,
      "arn": 1681,
      "ically": 1682,
      "Ġafternoon": 1683,
      "50": 1684,
      "ield": 1685,
      "Ġsince": 1686,
      "medi": 1687,
      "sec": 1688,
      "Ġnor": 1689,
      "vi": 1690,
      "ST": 1691,
      "ruck": 1692,
      "Ġlo": 1693,
      "aving": 1694,
      "Ġmonths": 1695,
      "ery": 1696,
      "ĠCity": 1697,
      "Ġopp": 1698,
      "like": 1699,
      "vol": 1700,
      "sel": 1701,
      "gl": 1702,
      "Ġ,": 1703,
      "ative": 1704,
      "ccess": 1705,
      "My": 1706,
      "isted": 1707,
      "ains": 1708,
      "ears": 1709,
      "Ġclear": 1710,
      "Ġcoll": 1711,
      "atur": 1712,
      "Ġhaving": 1713,
      "Ġfollowed": 1714,
      "--\"": 1715,
      "Ġmus": 1716,
      "Ġless": 1717,
      "Now": 1718,
      "Ġaw": 1719,
      "Ġsimp": 1720,
      "ĠWith": 1721,
      "Ġtrial": 1722,
      "cri": 1723,
      "Ġmaking": 1724,
      "Ġcig": 1725,
      "ĠHow": 1726,
      "Ġwomen": 1727,
      "Ġinvestig": 1728,
      "Ġri": 1729,
      "Ġtown": 1730,
      "Ġhat": 1731,
      "Ġspe": 1732,
      "Ġquickly": 1733,
      "Ġlarge": 1734,
      "Ġstud": 1735,
      "blic": 1736,
      "Ġdetail": 1737,
      "iles": 1738,
      "Ġgetting": 1739,
      "Ġcheck": 1740,
      "aint": 1741,
      "Ġexam": 1742,
      "reen": 1743,
      "Ġserv": 1744,
      "Ġfoot": 1745,
      "ĠOne": 1746,
      "Ġpassed": 1747,
      "ject": 1748,
      "Ġcir": 1749,
      "Ġdress": 1750,
      "Ġkept": 1751,
      "Ġmem": 1752,
      "ended": 1753,
      "Ġreplied": 1754,
      "LE": 1755,
      "Why": 1756,
      "time": 1757,
      "Ġbad": 1758,
      "owly": 1759,
      "Ġdoctor": 1760,
      "ĠHar": 1761,
      "ĠJack": 1762,
      "Ġcut": 1763,
      "achine": 1764,
      "Ġheav": 1765,
      "Ġho": 1766,
      "Ġsol": 1767,
      "ai": 1768,
      "ille": 1769,
      "Ġsign": 1770,
      "Ġval": 1771,
      "spector": 1772,
      "Ġsort": 1773,
      "Ġpaper": 1774,
      "Ġfather": 1775,
      "ĠNow": 1776,
      "ased": 1777,
      "ested": 1778,
      "Ġ?\"": 1779,
      "iful": 1780,
      "said": 1781,
      "Ġalone": 1782,
      "Ġtelephone": 1783,
      "Ġtoday": 1784,
      "ms": 1785,
      "ital": 1786,
      "ecial": 1787,
      "Ġanswer": 1788,
      "ecessary": 1789,
      "bt": 1790,
      "bably": 1791,
      "cis": 1792,
      "Ġfur": 1793,
      "arters": 1794,
      "ales": 1795,
      "Ġcoming": 1796,
      "Ġbur": 1797,
      "Ġfellow": 1798,
      "iver": 1799,
      "Ġheart": 1800,
      "Ġduring": 1801,
      "Ġstraight": 1802,
      "cha": 1803,
      "ination": 1804,
      "Ġinside": 1805,
      "eal": 1806,
      "amed": 1807,
      "erer": 1808,
      "Ġclot": 1809,
      "rict": 1810,
      "them": 1811,
      "Ġquiet": 1812,
      "Ġdisapp": 1813,
      "ING": 1814,
      "All": 1815,
      "pted": 1816,
      "ready": 1817,
      "oned": 1818,
      "ator": 1819,
      "ĠEx": 1820,
      "Ġcoat": 1821,
      "ashed": 1822,
      "Ġleave": 1823,
      "II": 1824,
      "Ġâĸł": 1825,
      "ump": 1826,
      "Ġmeet": 1827,
      "back": 1828,
      "atched": 1829,
      "Ġcountry": 1830,
      "ĠNot": 1831,
      "Ġlips": 1832,
      "Ġbecame": 1833,
      "ĠUn": 1834,
      "Ġcomplete": 1835,
      "Ġwit": 1836,
      "Ġsuddenly": 1837,
      "Ġevening": 1838,
      "Ġentered": 1839,
      "ser": 1840,
      "Ġdesk": 1841,
      "Ġband": 1842,
      "Ġwithin": 1843,
      "Ġlearned": 1844,
      "Ġphot": 1845,
      ".'": 1846,
      "ii": 1847,
      "Ġmiss": 1848,
      "ening": 1849,
      "ald": 1850,
      "aces": 1851,
      "Ġnodded": 1852,
      "ĠBur": 1853,
      "Ġ7": 1854,
      "ett": 1855,
      "venue": 1856,
      "Ġbar": 1857,
      "ert": 1858,
      "ortun": 1859,
      "Oh": 1860,
      "ony": 1861,
      "ĠCap": 1862,
      "ester": 1863,
      "ĠSend": 1864,
      "illed": 1865,
      "anded": 1866,
      "could": 1867,
      "rec": 1868,
      "ories": 1869,
      "obile": 1870,
      "escap": 1871,
      "Ġpar": 1872,
      "Ġshook": 1873,
      "Ġext": 1874,
      "osed": 1875,
      "ored": 1876,
      "Ġmove": 1877,
      "atic": 1878,
      "ĠRo": 1879,
      "Ġtruth": 1880,
      "ĠMagazine": 1881,
      "Ġ192": 1882,
      "Ġhall": 1883,
      "bert": 1884,
      "house": 1885,
      "Ġexcept": 1886,
      "teen": 1887,
      "Ġcourt": 1888,
      "For": 1889,
      "ution": 1890,
      "str": 1891,
      "Ġeye": 1892,
      "AT": 1893,
      "aim": 1894,
      "Ġtest": 1895,
      "Ġhotel": 1896,
      "Ġleg": 1897,
      "Ġleast": 1898,
      "Ġanswered": 1899,
      "Ġtou": 1900,
      "ature": 1901,
      "antly": 1902,
      "ips": 1903,
      "bo": 1904,
      "Ġsafe": 1905,
      "Ġcoupon": 1906,
      "Mrs": 1907,
      "che": 1908,
      "enn": 1909,
      "Ġcop": 1910,
      "OO": 1911,
      "sol": 1912,
      "arant": 1913,
      "Ġforward": 1914,
      "Ġbeside": 1915,
      "Ġwhole": 1916,
      "ides": 1917,
      "Ġeither": 1918,
      "Ġwonder": 1919,
      "ino": 1920,
      "Ġcaught": 1921,
      "ĠPer": 1922,
      "igan": 1923,
      "Ġidea": 1924,
      "10": 1925,
      "ipped": 1926,
      "some": 1927,
      "Ġfinger": 1928,
      "ining": 1929,
      "Ġwhis": 1930,
      "Ġpossible": 1931,
      "With": 1932,
      "su": 1933,
      "will": 1934,
      "Ġshad": 1935,
      "Ġsoft": 1936,
      "Ġpat": 1937,
      "Ġpaid": 1938,
      "Ġbrother": 1939,
      "IS": 1940,
      "Ġdeep": 1941,
      "Ġguess": 1942,
      "Ġarri": 1943,
      "Ġmethod": 1944,
      "Ġfat": 1945,
      "Ġnumber": 1946,
      "Ġprot": 1947,
      "Ġdescri": 1948,
      "Ġstore": 1949,
      "OW": 1950,
      "ĠPh": 1951,
      "Ġ8": 1952,
      "Ġtimes": 1953,
      "ingly": 1954,
      "more": 1955,
      "Ġbott": 1956,
      "rie": 1957,
      "ike": 1958,
      "els": 1959,
      "bery": 1960,
      "oint": 1961,
      "lease": 1962,
      "IL": 1963,
      "what": 1964,
      "orted": 1965,
      "Ġemploy": 1966,
      "Ġimmedi": 1967,
      "cer": 1968,
      "Ġcash": 1969,
      "Ġdoing": 1970,
      "So": 1971,
      "Ġshoot": 1972,
      "Ġcost": 1973,
      "pping": 1974,
      "Ġoffer": 1975,
      "Ġwaiting": 1976,
      "eor": 1977,
      "Ġglass": 1978,
      "ĠBlack": 1979,
      "ring": 1980,
      "Ġwater": 1981,
      "Ġcold": 1982,
      "Ġpage": 1983,
      "unk": 1984,
      "Ġra": 1985,
      "rugg": 1986,
      "vent": 1987,
      "into": 1988,
      "Ġeight": 1989,
      "Ġwhom": 1990,
      "though": 1991,
      "Ġabove": 1992,
      "Ġyourself": 1993,
      "Ġspoke": 1994,
      "Ġentire": 1995,
      "ases": 1996,
      "Ġhadn": 1997,
      "ĠCan": 1998,
      "ĠOr": 1999,
      "Ġquite": 2000,
      "rid": 2001,
      "Ġeng": 2002,
      "ten": 2003,
      "Ġeverything": 2004,
      ",'": 2005,
      ".--": 2006,
      "Ġliving": 2007,
      "Ġele": 2008,
      "Ġcouple": 2009,
      "Ġ|": 2010,
      "eth": 2011,
      "itc": 2012,
      "Ġoutside": 2013,
      "ghed": 2014,
      "Ġground": 2015,
      "ages": 2016,
      "Ġrather": 2017,
      "ĠJust": 2018,
      "Ġbox": 2019,
      "Ġline": 2020,
      "Ġcent": 2021,
      "Ġcond": 2022,
      "Ġappeared": 2023,
      "Ġnewsp": 2024,
      "well": 2025,
      "Ġill": 2026,
      "Ġmid": 2027,
      "Ġ!\"": 2028,
      "Ġmother": 2029,
      "key": 2030,
      "ĠDon": 2031,
      "again": 2032,
      "Ġsugg": 2033,
      "Ġsurpr": 2034,
      "Ġfingers": 2035,
      "Ġdirect": 2036,
      "Ġfigure": 2037,
      "Ġspot": 2038,
      "meric": 2039,
      "ging": 2040,
      "iece": 2041,
      "ues": 2042,
      "Ġgang": 2043,
      "Ġprep": 2044,
      "down": 2045,
      "anced": 2046,
      "quarters": 2047,
      "Ġsight": 2048,
      "Ġbreak": 2049,
      "Ġbuilding": 2050,
      "Ġmoved": 2051,
      "just": 2052,
      "Ġair": 2053,
      "aret": 2054,
      "Ġunderstand": 2055,
      "Ġtaking": 2056,
      "Ġsearch": 2057,
      "CH": 2058,
      "Ġcell": 2059,
      "iding": 2060,
      "ational": 2061,
      "ĠLou": 2062,
      "Ġdecided": 2063,
      "five": 2064,
      "Ġfall": 2065,
      "ift": 2066,
      "Ġpartic": 2067,
      "Ġfollowing": 2068,
      "Ġmachine": 2069,
      "Ġask": 2070,
      "Ġvi": 2071,
      "Ġwhose": 2072,
      "AY": 2073,
      "Ġpen": 2074,
      "aused": 2075,
      "Ġtalking": 2076,
      "Ġstanding": 2077,
      "By": 2078,
      "bers": 2079,
      "Ġstay": 2080,
      "ĠPro": 2081,
      "empt": 2082,
      "Ġbring": 2083,
      "Ġsatisf": 2084,
      "ĠTo": 2085,
      "ceed": 2086,
      "Ġsuccess": 2087,
      "ictim": 2088,
      "Ġfear": 2089,
      "ask": 2090,
      "ilt": 2091,
      "fra": 2092,
      "ility": 2093,
      "ively": 2094,
      "rying": 2095,
      "acked": 2096,
      "Ġclosed": 2097,
      "aled": 2098,
      "sy": 2099,
      "VE": 2100,
      "fect": 2101,
      "Ġir": 2102,
      "Ġled": 2103,
      "ices": 2104,
      "âģł--\"": 2105,
      "udge": 2106,
      "Ġkey": 2107,
      "ances": 2108,
      "Ġfail": 2109,
      "ills": 2110,
      "Ġshowed": 2111,
      "IT": 2112,
      "ville": 2113,
      "zz": 2114,
      "uty": 2115,
      "Ġpretty": 2116,
      "Ġpicked": 2117,
      "Ġreally": 2118,
      "Ġ9": 2119,
      "umped": 2120,
      "Ġable": 2121,
      "aff": 2122,
      "sm": 2123,
      "Ġsy": 2124,
      "Ġslowly": 2125,
      "azing": 2126,
      "Ġwrit": 2127,
      "iar": 2128,
      "aned": 2129,
      "Ġlearn": 2130,
      "two": 2131,
      "Ġet": 2132,
      "inn": 2133,
      "Ġ12": 2134,
      "Ġconsid": 2135,
      "Ġpicture": 2136,
      "30": 2137,
      "iced": 2138,
      "Ġsleep": 2139,
      "oner": 2140,
      "ising": 2141,
      "ĠCor": 2142,
      "ager": 2143,
      "Ġblue": 2144,
      "after": 2145,
      "dle": 2146,
      "Ġoper": 2147,
      "ĠMay": 2148,
      "Ġdropped": 2149,
      "Ġfre": 2150,
      "ĠIs": 2151,
      "Ġform": 2152,
      "tained": 2153,
      "Ġdiffere": 2154,
      "ces": 2155,
      "Ġblock": 2156,
      "Ġhum": 2157,
      "Ġnerv": 2158,
      "rave": 2159,
      "ounty": 2160,
      "clud": 2161,
      "Ġwrite": 2162,
      "fraid": 2163,
      "isto": 2164,
      "atement": 2165,
      "quest": 2166,
      "Ġchief": 2167,
      "ste": 2168,
      "ously": 2169,
      "itten": 2170,
      "know": 2171,
      "Ġpower": 2172,
      "Ġappear": 2173,
      "Ġescap": 2174,
      "omew": 2175,
      "adio": 2176,
      "ĠAvenue": 2177,
      "Ġart": 2178,
      "Ġcharge": 2179,
      "Ġtrouble": 2180,
      "Ġdraw": 2181,
      "Ġrevol": 2182,
      "ĠPolice": 2183,
      "Ġimport": 2184,
      "Ġdoubt": 2185,
      "Who": 2186,
      "resent": 2187,
      "orm": 2188,
      "stairs": 2189,
      "ĠSh": 2190,
      "through": 2191,
      "away": 2192,
      "cted": 2193,
      "ker": 2194,
      "Ġnews": 2195,
      "apped": 2196,
      "ĠSm": 2197,
      "then": 2198,
      "ĠJim": 2199,
      "Ġprobably": 2200,
      "ograph": 2201,
      "Ġsuspic": 2202,
      "fer": 2203,
      "torney": 2204,
      "entle": 2205,
      "ĠChar": 2206,
      "Ġwitness": 2207,
      "harp": 2208,
      "aughter": 2209,
      "Ġpulled": 2210,
      "Ġheavy": 2211,
      "HE": 2212,
      "cked": 2213,
      "min": 2214,
      "ray": 2215,
      "His": 2216,
      "Ġcarried": 2217,
      "ĠFrank": 2218,
      "ara": 2219,
      "ĠCol": 2220,
      "ĠBo": 2221,
      "ĠWrite": 2222,
      "Ġwrong": 2223,
      "ze": 2224,
      "Ġobl": 2225,
      "ĠAfter": 2226,
      "ĠGod": 2227,
      "come": 2228,
      "Ġstation": 2229,
      "Ġattention": 2230,
      "hys": 2231,
      "ints": 2232,
      "Ġhowever": 2233,
      "Ġstrong": 2234,
      "sing": 2235,
      "Ġmess": 2236,
      "Ġthr": 2237,
      "ffic": 2238,
      "....": 2239,
      "Ġwhether": 2240,
      "raft": 2241,
      "did": 2242,
      "Ġcroo": 2243,
      "step": 2244,
      "Ġsmiled": 2245,
      "Ġcirc": 2246,
      "Ġgray": 2247,
      "Ġlaughed": 2248,
      "Ġimmediately": 2249,
      "oe": 2250,
      "under": 2251,
      "Ġtop": 2252,
      "ĠWest": 2253,
      "Ġreport": 2254,
      "aded": 2255,
      "oose": 2256,
      "Ġgas": 2257,
      "ĠStory": 2258,
      "Ġarms": 2259,
      "fit": 2260,
      "iling": 2261,
      "une": 2262,
      "Ġvictim": 2263,
      "Ġtall": 2264,
      "ĠBig": 2265,
      "rug": 2266,
      "while": 2267,
      "ĠWilliam": 2268,
      "Ġfamily": 2269,
      "Ġready": 2270,
      "their": 2271,
      "Ġexact": 2272,
      "Ġdev": 2273,
      "clo": 2274,
      "Ġdied": 2275,
      "Ġcontinued": 2276,
      "ĠFrancis": 2277,
      "Ġreceived": 2278,
      "Ġpublic": 2279,
      "ges": 2280,
      "ĠWhy": 2281,
      "Ġalready": 2282,
      "car": 2283,
      "rap": 2284,
      "Ġexplained": 2285,
      "tered": 2286,
      "Ġ_": 2287,
      "rank": 2288,
      "Ġrecord": 2289,
      "Dept": 2290,
      "cour": 2291,
      "look": 2292,
      "yp": 2293,
      "ledge": 2294,
      "Ġresult": 2295,
      "Ġautomobile": 2296,
      "Ġcriminal": 2297,
      "set": 2298,
      "Ġwin": 2299,
      "Ġwear": 2300,
      "ĠMary": 2301,
      "ĠBu": 2302,
      "Ġplaced": 2303,
      "Ġstepped": 2304,
      "Ġsteps": 2305,
      "Ġest": 2306,
      "eng": 2307,
      "roat": 2308,
      "ĠPat": 2309,
      "anger": 2310,
      "Le": 2311,
      "miss": 2312,
      "ists": 2313,
      "Did": 2314,
      "Ġcross": 2315,
      "ashing": 2316,
      "irt": 2317,
      "pper": 2318,
      "bling": 2319,
      "Be": 2320,
      "mp": 2321,
      "ellow": 2322,
      "Ġring": 2323,
      "Ġminute": 2324,
      "alm": 2325,
      "ĠColl": 2326,
      "ency": 2327,
      "Ġmurderer": 2328,
      "Cont": 2329,
      "Ġskin": 2330,
      "Ġvisit": 2331,
      "zen": 2332,
      "Ġwar": 2333,
      "ĠMart": 2334,
      "ĠCaptain": 2335,
      "20": 2336,
      "mur": 2337,
      "ngel": 2338,
      "Ġtran": 2339,
      "Ġdeal": 2340,
      "Ġpract": 2341,
      "istol": 2342,
      "aker": 2343,
      "ches": 2344,
      "nce": 2345,
      "Ġtrue": 2346,
      "Ġworked": 2347,
      "Ġexpress": 2348,
      "Send": 2349,
      "Ġcab": 2350,
      "Ġgold": 2351,
      "oved": 2352,
      "Ġstop": 2353,
      "Ġarrived": 2354,
      "ume": 2355,
      "Ġgrin": 2356,
      "ĠVan": 2357,
      "ogn": 2358,
      "Ġclothes": 2359,
      "Where": 2360,
      "Ġafraid": 2361,
      "ĠEd": 2362,
      "Ġletters": 2363,
      "Ġinstru": 2364,
      "*.": 2365,
      "roll": 2366,
      "ustom": 2367,
      "Ġtelling": 2368,
      "Ġdrove": 2369,
      "Ġahead": 2370,
      "Ġmark": 2371,
      "Ġconn": 2372,
      "Ġremember": 2373,
      "lectric": 2374,
      "Ġkid": 2375,
      "Ġleaving": 2376,
      "Ġsmile": 2377,
      "aining": 2378,
      "ĠGu": 2379,
      "ĠYour": 2380,
      "Ġstrange": 2381,
      "selves": 2382,
      "AS": 2383,
      "pos": 2384,
      "inson": 2385,
      "Ġgener": 2386,
      "ilty": 2387,
      "Ġsitting": 2388,
      "asc": 2389,
      "Ġperhaps": 2390,
      "Ġindic": 2391,
      "Just": 2392,
      "fact": 2393,
      "made": 2394,
      "ĠSu": 2395,
      "ify": 2396,
      "Ġmist": 2397,
      "Ġjail": 2398,
      "Ġfinally": 2399,
      "Ġoblig": 2400,
      "Ġmeant": 2401,
      "Ġnote": 2402,
      "Ġscene": 2403,
      "Ġbrown": 2404,
      "Ġposition": 2405,
      "ddress": 2406,
      "One": 2407,
      "Ġdam": 2408,
      "Ġsaying": 2409,
      "Ġrobbery": 2410,
      "Ġpick": 2411,
      "Ġthirty": 2412,
      "Ġresp": 2413,
      "ĠAmeric": 2414,
      "Ġweeks": 2415,
      "After": 2416,
      "erm": 2417,
      "Ġphys": 2418,
      "ĠTr": 2419,
      "oud": 2420,
      "Ġmod": 2421,
      "Ġfast": 2422,
      "Ġappro": 2423,
      "ĠAttorney": 2424,
      "ĠFrancisco": 2425,
      "Ġthin": 2426,
      "ĠOh": 2427,
      "arently": 2428,
      "bur": 2429,
      "ov": 2430,
      "Ġsit": 2431,
      "Ġneck": 2432,
      "Ġann": 2433,
      "alled": 2434,
      "ĠEvery": 2435,
      "ption": 2436,
      "Ġquestions": 2437,
      "uthor": 2438,
      "bs": 2439,
      "Ġfurn": 2440,
      "Ġhun": 2441,
      "Ġbecome": 2442,
      "aimed": 2443,
      "bor": 2444,
      "Ġdiam": 2445,
      "Ġpriv": 2446,
      "Ġstatement": 2447,
      "ĠCon": 2448,
      "ĠDr": 2449,
      "bing": 2450,
      "Ġpapers": 2451,
      "Ġbell": 2452,
      "ching": 2453,
      "weet": 2454,
      "Ġshall": 2455,
      "Ġhope": 2456,
      "ĠGeor": 2457,
      "Ġworth": 2458,
      "Ġopportun": 2459,
      "RI": 2460,
      "To": 2461,
      "dy": 2462,
      "found": 2463,
      "Ġwide": 2464,
      "itions": 2465,
      "Ġfight": 2466,
      "Ġpack": 2467,
      "Ġstuff": 2468,
      "vert": 2469,
      "Ġround": 2470,
      "Ġprove": 2471,
      "Ġpress": 2472,
      "Ġdetails": 2473,
      "every": 2474,
      "lish": 2475,
      "Ġsharp": 2476,
      "Ġfun": 2477,
      "Ġlif": 2478,
      "Ġlie": 2479,
      "Ġrear": 2480,
      "ĠCom": 2481,
      "Ġworking": 2482,
      "ental": 2483,
      "rodu": 2484,
      "ĠCal": 2485,
      "Ġbelow": 2486,
      "overn": 2487,
      "Ġeffort": 2488,
      "Ġcigaret": 2489,
      "ĠLouis": 2490,
      "Ġcried": 2491,
      "Ġlost": 2492,
      "Ġhang": 2493,
      "ĠMur": 2494,
      "ĠBroad": 2495,
      "Ġbeautiful": 2496,
      "noc": 2497,
      "Ġ^": 2498,
      "Ġlived": 2499,
      "OM": 2500,
      "ees": 2501,
      "yer": 2502,
      "asy": 2503,
      "rol": 2504,
      "Ġattorney": 2505,
      "ĠBrown": 2506,
      "Ġcolor": 2507,
      "mm": 2508,
      "ĠTom": 2509,
      "ineer": 2510,
      "ĠChief": 2511,
      "Ġearly": 2512,
      "Ġbullet": 2513,
      "Ġfurther": 2514,
      "use": 2515,
      "Ġcre": 2516,
      "Ġhor": 2517,
      "Ġmeans": 2518,
      "ewel": 2519,
      "Ġjury": 2520,
      "ancy": 2521,
      "Bl": 2522,
      "ially": 2523,
      "Ġton": 2524,
      "Ġbegin": 2525,
      "An": 2526,
      "vo": 2527,
      "ĠX": 2528,
      "only": 2529,
      "Ġpri": 2530,
      "Ġmurdered": 2531,
      "ĠQu": 2532,
      "Ġmill": 2533,
      "Ġnecessary": 2534,
      "awn": 2535,
      "face": 2536,
      "Ġpistol": 2537,
      "Ġisn": 2538,
      "known": 2539,
      "Ġcompan": 2540,
      "Ġrunning": 2541,
      "rief": 2542,
      "AD": 2543,
      "Detective": 2544,
      "rible": 2545,
      "ĠFree": 2546,
      "igned": 2547,
      "Ġplain": 2548,
      "action": 2549,
      "door": 2550,
      "THE": 2551,
      "AM": 2552,
      "yn": 2553,
      "has": 2554,
      "ats": 2555,
      "ĠPl": 2556,
      "Ġexcl": 2557,
      "Ġ25": 2558,
      "ror": 2559,
      "Ġson": 2560,
      "Ġlive": 2561,
      "rel": 2562,
      "Ġinqu": 2563,
      "ĠCounty": 2564,
      "ĠWell": 2565,
      "world": 2566,
      "cher": 2567,
      "kin": 2568,
      "ĠÂ": 2569,
      "Ġfine": 2570,
      "Ġlate": 2571,
      "ĠDep": 2572,
      "Ġpres": 2573,
      "Ġsays": 2574,
      "Ġshoulder": 2575,
      "Ġtalked": 2576,
      "Ġofficers": 2577,
      "Ġmystery": 2578,
      "New": 2579,
      "Will": 2580,
      "ram": 2581,
      "ĠMa": 2582,
      "Ġcrow": 2583,
      "Ġsuppose": 2584,
      "Ġprice": 2585,
      "19": 2586,
      "ote": 2587,
      "Ġstick": 2588,
      "Ġspecial": 2589,
      "Ġknows": 2590,
      "iot": 2591,
      "Ġroll": 2592,
      "Ġsmo": 2593,
      "Ġguard": 2594,
      "even": 2595,
      "part": 2596,
      "oman": 2597,
      "ĠBy": 2598,
      "Ġ18": 2599,
      "got": 2600,
      "Ġsing": 2601,
      "Ġland": 2602,
      "Ġthick": 2603,
      "chool": 2604,
      "ude": 2605,
      "Ġprisoner": 2606,
      "Here": 2607,
      "sit": 2608,
      "irm": 2609,
      "sha": 2610,
      "Ġhell": 2611,
      "Ġthroat": 2612,
      "ĠAngel": 2613,
      "solute": 2614,
      "Ch": 2615,
      "acing": 2616,
      "Ġthird": 2617,
      "istrict": 2618,
      "Ġslight": 2619,
      "ĠâĢ¢": 2620,
      "Ġain": 2621,
      "before": 2622,
      "Ġeffect": 2623,
      "Ġsomew": 2624,
      "ality": 2625,
      "Ġthreat": 2626,
      "Ġpleas": 2627,
      "Continued": 2628,
      "Ġmention": 2629,
      "Ġfool": 2630,
      "ĠRed": 2631,
      "ials": 2632,
      "ishing": 2633,
      "Ġlying": 2634,
      "Ġreve": 2635,
      "ĠCour": 2636,
      "ocked": 2637,
      "ught": 2638,
      "Ġfired": 2639,
      "ĠChe": 2640,
      "Wh": 2641,
      "dis": 2642,
      "val": 2643,
      "Ġstri": 2644,
      "rawn": 2645,
      "Ġcoun": 2646,
      "Ġdiscovered": 2647,
      "velop": 2648,
      "cy": 2649,
      "umbled": 2650,
      "Ġordered": 2651,
      "Ġetc": 2652,
      "ĠBroadway": 2653,
      "bled": 2654,
      "ium": 2655,
      "sl": 2656,
      "iny": 2657,
      "Ġfair": 2658,
      "ĠZ": 2659,
      "Ġgar": 2660,
      "Ġamong": 2661,
      "cons": 2662,
      "Ġherself": 2663,
      "ford": 2664,
      "Ġadmitted": 2665,
      "Ġoften": 2666,
      "...": 2667,
      "Ġdemanded": 2668,
      "^^": 2669,
      "gain": 2670,
      "Ġden": 2671,
      "Ġagreed": 2672,
      "Ġlaugh": 2673,
      "Is": 2674,
      "Ġhon": 2675,
      "irger": 2676,
      "Ġconst": 2677,
      "avor": 2678,
      "new": 2679,
      "idly": 2680,
      "Ġsell": 2681,
      "Ġrepe": 2682,
      "Ġhaven": 2683,
      "Ġglad": 2684,
      "Ġinches": 2685,
      "100": 2686,
      "pose": 2687,
      "Ġ&": 2688,
      "asked": 2689,
      "idden": 2690,
      "never": 2691,
      "Ġguilty": 2692,
      "Ġaccount": 2693,
      "came": 2694,
      "Ġjo": 2695,
      "ĠRe": 2696,
      "Ġsold": 2697,
      "Ġempt": 2698,
      "Ġoccup": 2699,
      "AC": 2700,
      "ract": 2701,
      "Ġknife": 2702,
      "hood": 2703,
      "lt": 2704,
      "Ġdanger": 2705,
      "formed": 2706,
      "Ġgiving": 2707,
      "iber": 2708,
      "par": 2709,
      "alk": 2710,
      "ĠBook": 2711,
      "Ġclean": 2712,
      "gun": 2713,
      "lar": 2714,
      "Ġ?": 2715,
      "Ġbag": 2716,
      "Ġanybody": 2717,
      "Ġnearly": 2718,
      "Ġsuspect": 2719,
      "inary": 2720,
      "Ġgame": 2721,
      "Ġang": 2722,
      "Ġproper": 2723,
      "Ġrecogn": 2724,
      "ompany": 2725,
      "Ġpol": 2726,
      "ics": 2727,
      "ardigan": 2728,
      "Ġcover": 2729,
      "Ġholding": 2730,
      "Ġsimple": 2731,
      "Ġrevolver": 2732,
      "Ġequ": 2733,
      "Ġdrew": 2734,
      "Ġcomfort": 2735,
      "TER": 2736,
      "place": 2737,
      "Ġknowledge": 2738,
      "Ġsilence": 2739,
      "AG": 2740,
      "Al": 2741,
      "Ġpain": 2742,
      "ounds": 2743,
      "spital": 2744,
      "hard": 2745,
      "Ġdepartment": 2746,
      "fr": 2747,
      "Ġmine": 2748,
      "ĠAny": 2749,
      "acks": 2750,
      "Ġcommitted": 2751,
      "ship": 2752,
      "Ġwritten": 2753,
      "Ġperfect": 2754,
      "Ġfacts": 2755,
      "Ġboys": 2756,
      "Ġauthor": 2757,
      "itor": 2758,
      "aylor": 2759,
      "rove": 2760,
      "Ġeasily": 2761,
      "Ġimportant": 2762,
      "ĠÂ»": 2763,
      "Ġwire": 2764,
      "Ġstairs": 2765,
      "Ġsheriff": 2766,
      "rance": 2767,
      "iety": 2768,
      "ED": 2769,
      "essed": 2770,
      "Ġbelieved": 2771,
      "Ġmed": 2772,
      "ĠAd": 2773,
      "Ġdoesn": 2774,
      "Ġdifferent": 2775,
      "vious": 2776,
      "Ġwood": 2777,
      "reg": 2778,
      "Ġmagazine": 2779,
      "arrow": 2780,
      "stem": 2781,
      "ĠSc": 2782,
      "uss": 2783,
      "Ġshoulders": 2784,
      "orrow": 2785,
      "Ġsave": 2786,
      "ault": 2787,
      "lton": 2788,
      "itch": 2789,
      "Ġnatur": 2790,
      "Ġbeat": 2791,
      "ils": 2792,
      "olog": 2793,
      "aranteed": 2794,
      "Ġtax": 2795,
      "Ġsens": 2796,
      "ician": 2797,
      "ĠMont": 2798,
      "rix": 2799,
      "Ġgrow": 2800,
      "Ġfinished": 2801,
      "Ġparticular": 2802,
      "rep": 2803,
      "Ġsal": 2804,
      "Ġgentle": 2805,
      "Ġ11": 2806,
      "Ġmarried": 2807,
      ".-": 2808,
      "yond": 2809,
      "ecause": 2810,
      "rang": 2811,
      "ptly": 2812,
      "ĠInspector": 2813,
      "Ġthinking": 2814,
      "Ġmaybe": 2815,
      "LL": 2816,
      "money": 2817,
      "work": 2818,
      "Ġinnoc": 2819,
      "see": 2820,
      "akley": 2821,
      "Ġwaited": 2822,
      "25": 2823,
      "bre": 2824,
      "lin": 2825,
      "ument": 2826,
      "ĠKell": 2827,
      "should": 2828,
      "Ġphone": 2829,
      "enu": 2830,
      "orough": 2831,
      "ĠSome": 2832,
      "ĠCr": 2833,
      "ĠOff": 2834,
      "Ġdisco": 2835,
      "Ġacqu": 2836,
      "ibly": 2837,
      "Cl": 2838,
      "ugg": 2839,
      "Ġdrug": 2840,
      "utter": 2841,
      "Ġstruck": 2842,
      "Ġhurried": 2843,
      "Ġspeak": 2844,
      "Let": 2845,
      "Name": 2846,
      "law": 2847,
      "ĠDick": 2848,
      "Ġmanner": 2849,
      "ĠNor": 2850,
      "geant": 2851,
      "Ġdecl": 2852,
      "Ġcompany": 2853,
      "itchen": 2854,
      "Ġexactly": 2855,
      "pered": 2856,
      "athe": 2857,
      "Ġhesit": 2858,
      "olly": 2859,
      "ĠEngineer": 2860,
      "Ġwonderful": 2861,
      "aven": 2862,
      "Ġmakes": 2863,
      "keep": 2864,
      "Ġspent": 2865,
      "Ġpointed": 2866,
      "Ġguy": 2867,
      "15": 2868,
      "Ġought": 2869,
      "arry": 2870,
      "Ġpair": 2871,
      "Ġattempt": 2872,
      "Ġcarefully": 2873,
      "Ġinterested": 2874,
      "Ġnewspaper": 2875,
      "Get": 2876,
      "eff": 2877,
      "iant": 2878,
      "ron": 2879,
      "than": 2880,
      "Ġtrick": 2881,
      "Ġprivate": 2882,
      "reng": 2883,
      "Ġanyone": 2884,
      "ope": 2885,
      "Ġconvict": 2886,
      "Ġbroken": 2887,
      "Ġseven": 2888,
      "ĠLos": 2889,
      "Ġspare": 2890,
      "Ġoffered": 2891,
      "Ġflat": 2892,
      "Ġexperience": 2893,
      "ĠAngeles": 2894,
      "Ġtre": 2895,
      "Ġyouth": 2896,
      "ays": 2897,
      "Ġseat": 2898,
      "Ġbroke": 2899,
      "bit": 2900,
      "bro": 2901,
      "urs": 2902,
      "ĠEast": 2903,
      "versation": 2904,
      "Ġpiece": 2905,
      "ustr": 2906,
      "Ġplease": 2907,
      "ĠSchool": 2908,
      "60": 2909,
      "oes": 2910,
      "isk": 2911,
      "ander": 2912,
      "umst": 2913,
      "Ġopportunity": 2914,
      "inner": 2915,
      "Ġcat": 2916,
      "inger": 2917,
      "Ġbreath": 2918,
      "Ġservice": 2919,
      "RO": 2920,
      "iter": 2921,
      "icul": 2922,
      "Ġgreen": 2923,
      "Ġnose": 2924,
      "Ġneeded": 2925,
      "Ġraised": 2926,
      "ĠGeorge": 2927,
      "af": 2928,
      "rect": 2929,
      "Ġblo": 2930,
      "Ġcases": 2931,
      "ann": 2932,
      "ĠMad": 2933,
      "Ġneigh": 2934,
      "Ġsimply": 2935,
      "Ġage": 2936,
      "Ġwatched": 2937,
      "Ġmaster": 2938,
      "Ġpushed": 2939,
      "add": 2940,
      "ĠYOU": 2941,
      "ĠInst": 2942,
      "rench": 2943,
      "ev": 2944,
      "usiness": 2945,
      "ĠFrom": 2946,
      "Ġ15": 2947,
      "cles": 2948,
      "Ġhit": 2949,
      "Ġluck": 2950,
      "Ġpoor": 2951,
      "Ġassist": 2952,
      "Ġtouch": 2953,
      "Ġcigarette": 2954,
      "solutely": 2955,
      "Your": 2956,
      "home": 2957,
      "Ġ\\": 2958,
      "ries": 2959,
      "Ġdrink": 2960,
      "Ġfifty": 2961,
      "ior": 2962,
      "ĠÂ«": 2963,
      "rey": 2964,
      "itive": 2965,
      "Ġhung": 2966,
      "Ġyellow": 2967,
      "Ġstories": 2968,
      "ĠMoney": 2969,
      "Ġrap": 2970,
      "aby": 2971,
      "ixed": 2972,
      "âĢĬ": 2973,
      "AP": 2974,
      "Ġmere": 2975,
      "Ġnone": 2976,
      "elve": 2977,
      "Ġpoison": 2978,
      "Ġsomeone": 2979,
      "Ġregard": 2980,
      "ounced": 2981,
      "oon": 2982,
      "wood": 2983,
      "Ġtrust": 2984,
      "Ab": 2985,
      "ls": 2986,
      "ming": 2987,
      "Ġfit": 2988,
      "Ġnamed": 2989,
      "Ġbeyond": 2990,
      "ples": 2991,
      "Ġtrail": 2992,
      "Ġcovered": 2993,
      "idge": 2994,
      "Ġru": 2995,
      "Ġsuit": 2996,
      "ressed": 2997,
      "Ġfeeling": 2998,
      "Ġtonight": 2999,
      "Ġwish": 3000,
      "Ġmiles": 3001,
      "ision": 3002,
      "Ġinclud": 3003,
      "ĠPa": 3004,
      "ending": 3005,
      "Ġclim": 3006,
      "bel": 3007,
      "friend": 3008,
      "rist": 3009,
      "inct": 3010,
      "ety": 3011,
      "ston": 3012,
      "Ġitself": 3013,
      "Ġrail": 3014,
      "eless": 3015,
      "que": 3016,
      "Ġinvestigation": 3017,
      "Ġshooting": 3018,
      "Ġhuman": 3019,
      "Ġescape": 3020,
      "ky": 3021,
      "pri": 3022,
      "Ġfright": 3023,
      "uten": 3024,
      "ĠSam": 3025,
      "Ġdozen": 3026,
      "ounded": 3027,
      "Ġdoorway": 3028,
      "Ġapparently": 3029,
      "Ġstudy": 3030,
      "jo": 3031,
      "Ġver": 3032,
      "Ġtill": 3033,
      "Ġbene": 3034,
      "Ġsuper": 3035,
      "Ġarrested": 3036,
      "Ġshut": 3037,
      "Ġamazing": 3038,
      "Ġremained": 3039,
      "Ġdirection": 3040,
      "atives": 3041,
      "urch": 3042,
      "rial": 3043,
      "ĠOld": 3044,
      "attle": 3045,
      "Ġtrans": 3046,
      "enuine": 3047,
      "City": 3048,
      "Ġtight": 3049,
      "enced": 3050,
      "Ġdaughter": 3051,
      "asion": 3052,
      "sey": 3053,
      "ĠHood": 3054,
      "ĠPe": 3055,
      "Ġvar": 3056,
      "ivid": 3057,
      "Ġinstant": 3058,
      "Ġbuy": 3059,
      "Ġpersons": 3060,
      "otten": 3061,
      "een": 3062,
      "ele": 3063,
      "Ġkitchen": 3064,
      "Ġexpect": 3065,
      "ĠClark": 3066,
      "May": 3067,
      "hold": 3068,
      "zy": 3069,
      "resp": 3070,
      "Ġund": 3071,
      "Ġstate": 3072,
      "ĠBirger": 3073,
      "Ġnoticed": 3074,
      "Ġlocked": 3075,
      "Ġbottle": 3076,
      "ĠOhio": 3077,
      "iforn": 3078,
      "ĠNe": 3079,
      "Ġdarkness": 3080,
      "police": 3081,
      "went": 3082,
      "ĠIN": 3083,
      "uniot": 3084,
      "Ġsoc": 3085,
      "Ġscream": 3086,
      "oci": 3087,
      "Ġteeth": 3088,
      "ĠJoe": 3089,
      "ossible": 3090,
      "Ġdisappeared": 3091,
      "Ġphotograph": 3092,
      "Ġwa": 3093,
      "ĠHall": 3094,
      "Ġflash": 3095,
      "Ġearn": 3096,
      "ascin": 3097,
      "first": 3098,
      "ma": 3099,
      "omen": 3100,
      "uttered": 3101,
      "ĠTaylor": 3102,
      "ĠHere": 3103,
      "ĠLet": 3104,
      "urning": 3105,
      "Ġlights": 3106,
      "ENT": 3107,
      "ĠSmith": 3108,
      "Ġobligation": 3109,
      "Ġtem": 3110,
      "ĠTell": 3111,
      "ĠMail": 3112,
      "olen": 3113,
      "Ġadded": 3114,
      "fin": 3115,
      "Ġbroad": 3116,
      "ĠSe": 3117,
      "ioned": 3118,
      "emb": 3119,
      "Ġremark": 3120,
      "Ġaction": 3121,
      "Ġdriver": 3122,
      "Doctor": 3123,
      "Ġconsider": 3124,
      "Ġhealth": 3125,
      "Ġthrew": 3126,
      "ĠDistrict": 3127,
      "Ġ20": 3128,
      "case": 3129,
      "Ġfilled": 3130,
      "Ġhot": 3131,
      "echan": 3132,
      "aine": 3133,
      "ĠGovern": 3134,
      "Ġwatching": 3135,
      "airo": 3136,
      "Ġmissing": 3137,
      "Ġsingle": 3138,
      "ifornia": 3139,
      "wenty": 3140,
      "enth": 3141,
      "cell": 3142,
      "ĠWho": 3143,
      "ctions": 3144,
      "oseph": 3145,
      "Ġ30": 3146,
      "Ġcertainly": 3147,
      "ĠSchick": 3148,
      "turned": 3149,
      "ĠTwo": 3150,
      "Ġrequ": 3151,
      "Ġrang": 3152,
      "ĠJones": 3153,
      "Ġofficer": 3154,
      "Ġfifteen": 3155,
      "Ġempty": 3156,
      "ding": 3157,
      "oupon": 3158,
      "Ġbrief": 3159,
      "Ġrub": 3160,
      "Ġthemselves": 3161,
      "Ġdeterm": 3162,
      "Ġentirely": 3163,
      "SS": 3164,
      "Ġfavor": 3165,
      "stood": 3166,
      "Ġstock": 3167,
      "rif": 3168,
      "Ġsuff": 3169,
      "Ġintrodu": 3170,
      "Ġedge": 3171,
      "Sh": 3172,
      "mon": 3173,
      "years": 3174,
      "Ġschool": 3175,
      "Ġcry": 3176,
      "esp": 3177,
      "Ġgri": 3178,
      "Ġnine": 3179,
      "Ġthorough": 3180,
      "ĠCairo": 3181,
      "elle": 3182,
      "ĠEl": 3183,
      "Ġtraining": 3184,
      "Ġsuggested": 3185,
      "Ġrepeated": 3186,
      "lie": 3187,
      "ania": 3188,
      "Ġpers": 3189,
      "tern": 3190,
      "agged": 3191,
      "chief": 3192,
      "Ġcannot": 3193,
      "Ġprodu": 3194,
      "eyes": 3195,
      "âĸłâĸł": 3196,
      "Ġsatisfied": 3197,
      "utenant": 3198,
      "acter": 3199,
      "Ġforty": 3200,
      "three": 3201,
      "thought": 3202,
      "Ġcomes": 3203,
      "Jo": 3204,
      "lan": 3205,
      "lson": 3206,
      "woman": 3207,
      "eral": 3208,
      "aching": 3209,
      "Ġshop": 3210,
      "Ġkilling": 3211,
      "Ġlonger": 3212,
      "âĢ¦": 3213,
      "Ġfamous": 3214,
      "Ġcircumst": 3215,
      "long": 3216,
      "Ġsister": 3217,
      "Ġformer": 3218,
      "ecul": 3219,
      "unch": 3220,
      "Ġdrive": 3221,
      "rt": 3222,
      "Ġtrem": 3223,
      "Ġmer": 3224,
      "Ġjumped": 3225,
      "Ġparty": 3226,
      "Ġcapt": 3227,
      "12": 3228,
      "cent": 3229,
      "looked": 3230,
      "icide": 3231,
      "Ġstared": 3232,
      "ĠMac": 3233,
      "ĠAm": 3234,
      "ĠDel": 3235,
      "Ġvan": 3236,
      "Ġ14": 3237,
      "âģłâĢ¦": 3238,
      "Ġguns": 3239,
      "Ġorders": 3240,
      "Ġcopy": 3241,
      "Miss": 3242,
      "joy": 3243,
      "uation": 3244,
      "Ġbonds": 3245,
      "ĠIll": 3246,
      "ĠGet": 3247,
      "Ġclub": 3248,
      "Ġgirls": 3249,
      "upon": 3250,
      "Ġconfession": 3251,
      "Ġlawyer": 3252,
      "Every": 3253,
      "four": 3254,
      "ye": 3255,
      "Ġmain": 3256,
      "ĠStates": 3257,
      "Ġprofession": 3258,
      "rixey": 3259,
      "Mc": 3260,
      "bet": 3261,
      "ators": 3262,
      "ĠInd": 3263,
      "Ġweap": 3264,
      "ĠJackson": 3265,
      "LY": 3266,
      "Ġ<": 3267,
      "Ġwild": 3268,
      "Ġdream": 3269,
      "seem": 3270,
      "agn": 3271,
      "Ġconversation": 3272,
      "Ġdesper": 3273,
      "Ġturning": 3274,
      "looking": 3275,
      "eur": 3276,
      "year": 3277,
      "ĠOf": 3278,
      "Ġclerk": 3279,
      "Ġchest": 3280,
      "Ġwindows": 3281,
      "Ġthousands": 3282,
      "Ġbeauty": 3283,
      "view": 3284,
      "Ġwriting": 3285,
      "Ġ/": 3286,
      "orry": 3287,
      "Ġdi": 3288,
      "ĠSheriff": 3289,
      "Ġsomebody": 3290,
      "Ġcars": 3291,
      "rength": 3292,
      "Ġsize": 3293,
      "Ġbird": 3294,
      "itz": 3295,
      "Ġcustom": 3296,
      "Ġdiv": 3297,
      "ots": 3298,
      "told": 3299,
      "ĠPark": 3300,
      "aves": 3301,
      "Ġfollow": 3302,
      "Ġchildren": 3303,
      "ceeded": 3304,
      "Ġnervous": 3305,
      "Ġappearance": 3306,
      "Ġestab": 3307,
      "mond": 3308,
      "uh": 3309,
      "Ġsun": 3310,
      "Ġrid": 3311,
      "Ġunless": 3312,
      "Ġswung": 3313,
      "Ġtrip": 3314,
      "Ġsett": 3315,
      "Ġpromised": 3316,
      "secut": 3317,
      "aked": 3318,
      "rop": 3319,
      "Ġforce": 3320,
      "ĠPar": 3321,
      "Ġchin": 3322,
      "Ġimag": 3323,
      "Ġleading": 3324,
      "Ġwhispered": 3325,
      "Ġviol": 3326,
      "Please": 3327,
      "TU": 3328,
      "ism": 3329,
      "ĠTO": 3330,
      "urred": 3331,
      "Ġiss": 3332,
      "abbed": 3333,
      "play": 3334,
      "rival": 3335,
      "gree": 3336,
      "Ġble": 3337,
      "ache": 3338,
      "ĠMark": 3339,
      "âĢŀ": 3340,
      "Ġcontin": 3341,
      "Ġactually": 3342,
      "Come": 3343,
      "TR": 3344,
      "uge": 3345,
      "Ġtip": 3346,
      "oul": 3347,
      "order": 3348,
      "arily": 3349,
      "Ġdie": 3350,
      "atest": 3351,
      "alt": 3352,
      "ĠDan": 3353,
      "usual": 3354,
      "Ġknowing": 3355,
      "Ġdoors": 3356,
      "Ġgrim": 3357,
      "idently": 3358,
      "ONE": 3359,
      "Ġchange": 3360,
      "Ġsentence": 3361,
      "little": 3362,
      "ĠMon": 3363,
      "illips": 3364,
      "Ġconcer": 3365,
      "ureau": 3366,
      "against": 3367,
      "mission": 3368,
      "hour": 3369,
      "Ġrose": 3370,
      "coat": 3371,
      "Ġexcit": 3372,
      "Ġsuggest": 3373,
      "itude": 3374,
      "acc": 3375,
      "ĠSec": 3376,
      "Ġasking": 3377,
      "ĠBar": 3378,
      "ĠThese": 3379,
      "Ġweak": 3380,
      "Ġquar": 3381,
      "Ġsupposed": 3382,
      "Ġcriminals": 3383,
      "Ġmembers": 3384,
      "Ġcrowd": 3385,
      "Ġdeclared": 3386,
      "Br": 3387,
      "doll": 3388,
      "yan": 3389,
      "happ": 3390,
      "Ġloose": 3391,
      "ĠGab": 3392,
      "Ġleaned": 3393,
      "Ġproved": 3394,
      "Ġboat": 3395,
      "Ġheadquarters": 3396,
      "Ġbuild": 3397,
      "Ġdistance": 3398,
      "Ġvalue": 3399,
      "fam": 3400,
      "po": 3401,
      "rd": 3402,
      "Ġty": 3403,
      "arked": 3404,
      "Ġdest": 3405,
      "outon": 3406,
      "augh": 3407,
      "Ġlikely": 3408,
      "Ġrooms": 3409,
      "velope": 3410,
      "Ġsquare": 3411,
      "EW": 3412,
      "book": 3413,
      "kes": 3414,
      "lv": 3415,
      "might": 3416,
      "heard": 3417,
      "inion": 3418,
      "ises": 3419,
      "Ġgrou": 3420,
      "iring": 3421,
      "ĠAve": 3422,
      "Ġcontain": 3423,
      "Ġspeed": 3424,
      "Ġseems": 3425,
      "Ġexpected": 3426,
      "Ġobtain": 3427,
      "Ġrefused": 3428,
      "chan": 3429,
      "tt": 3430,
      "Ġpop": 3431,
      "Ġremoved": 3432,
      "Ġchanged": 3433,
      "Ġwalk": 3434,
      "Ġincre": 3435,
      "Ġaffair": 3436,
      "Ġextra": 3437,
      "Ġsomewhere": 3438,
      "Ex": 3439,
      "town": 3440,
      "Ġsense": 3441,
      "Ġhide": 3442,
      "ĠPost": 3443,
      "Ġwalking": 3444,
      "Ġgrinned": 3445,
      "Address": 3446,
      "don": 3447,
      "good": 3448,
      "sur": 3449,
      "Ġnames": 3450,
      "ĠHen": 3451,
      "Ġanx": 3452,
      "ĠFrench": 3453,
      "ĠGl": 3454,
      "aze": 3455,
      "azed": 3456,
      "TION": 3457,
      "Ġdescription": 3458,
      "Ġsurprise": 3459,
      "ĠMarty": 3460,
      "murder": 3461,
      "Ġmad": 3462,
      "Ġlower": 3463,
      "story": 3464,
      "Ġusual": 3465,
      "Ġappl": 3466,
      "Ġunderworld": 3467,
      "office": 3468,
      "inois": 3469,
      "Ġfailed": 3470,
      "may": 3471,
      "na": 3472,
      "Ġve": 3473,
      "Ġfield": 3474,
      "otion": 3475,
      "Ġconce": 3476,
      "ĠOF": 3477,
      "onder": 3478,
      "Ġactual": 3479,
      "Ġpersonal": 3480,
      "Ġview": 3481,
      "Ġsuspicion": 3482,
      "Ġmessage": 3483,
      "Ġmillion": 3484,
      "John": 3485,
      "Per": 3486,
      "Some": 3487,
      "aly": 3488,
      "cious": 3489,
      "mie": 3490,
      "Ġglo": 3491,
      "Ġnice": 3492,
      "ĠTHE": 3493,
      "ĠMic": 3494,
      "ĠWay": 3495,
      "ĠDE": 3496,
      "ĠFred": 3497,
      "iven": 3498,
      "ondon": 3499,
      "without": 3500,
      "Ġentrance": 3501,
      "Ġregular": 3502,
      "Ġautomatic": 3503,
      "resident": 3504,
      "esterday": 3505,
      "Ġlegs": 3506,
      "Ġcompanion": 3507,
      "Ġexclaimed": 3508,
      "char": 3509,
      "pet": 3510,
      "tell": 3511,
      "Ġsim": 3512,
      "Ġbright": 3513,
      "Ġpaused": 3514,
      "ompl": 3515,
      "amb": 3516,
      "ands": 3517,
      "Ġself": 3518,
      "Ġabsolutely": 3519,
      "Ġtells": 3520,
      "Ġsnapped": 3521,
      "Ġsubject": 3522,
      "Ġcommun": 3523,
      "Ġdamned": 3524,
      "Any": 3525,
      "Good": 3526,
      "girl": 3527,
      "Ġaid": 3528,
      "Ġwore": 3529,
      "ĠMax": 3530,
      "Ġjewel": 3531,
      "ĠOut": 3532,
      "Ġcrimes": 3533,
      "Ġglance": 3534,
      "lessly": 3535,
      "Ġmiddle": 3536,
      "stein": 3537,
      "?'": 3538,
      "Ã©": 3539,
      "Ġtreat": 3540,
      "Ġlab": 3541,
      "imer": 3542,
      "Ġstated": 3543,
      "Ġfort": 3544,
      "urns": 3545,
      "uffeur": 3546,
      "Ġquietly": 3547,
      "ĠPhil": 3548,
      "ĠCanad": 3549,
      "met": 3550,
      "uable": 3551,
      "wa": 3552,
      "Ġcents": 3553,
      "Ġcalm": 3554,
      "Ġfaint": 3555,
      "ilk": 3556,
      "Ġboard": 3557,
      "Ġhappen": 3558,
      "ascinating": 3559,
      "make": 3560,
      "por": 3561,
      "oston": 3562,
      "attered": 3563,
      "Ġpuzz": 3564,
      "flu": 3565,
      "Ġmotor": 3566,
      "Ġsystem": 3567,
      "ashington": 3568,
      "ĠCalifornia": 3569,
      "aa": 3570,
      "cont": 3571,
      "Ġdear": 3572,
      "ording": 3573,
      "ification": 3574,
      "worth": 3575,
      "Ġsudden": 3576,
      "ĠPrice": 3577,
      "Ġdressed": 3578,
      "Ġnatural": 3579,
      "Can": 3580,
      "Ġer": 3581,
      "Ġâĸ¡": 3582,
      "Ġsick": 3583,
      "Ġstolen": 3584,
      "ĠCompany": 3585,
      "range": 3586,
      "exp": 3587,
      "ength": 3588,
      "Ġcrossed": 3589,
      "**": 3590,
      "Of": 3591,
      "certain": 3592,
      "gest": 3593,
      "Ġmis": 3594,
      "Ġlady": 3595,
      "urse": 3596,
      "Ġune": 3597,
      "unning": 3598,
      "Ġlifted": 3599,
      "Ye": 3600,
      "real": 3601,
      "hall": 3602,
      "asure": 3603,
      "Ġgro": 3604,
      "Ġrain": 3605,
      "ĠJer": 3606,
      "Ġalthough": 3607,
      "Ġdevelop": 3608,
      "Ġglanced": 3609,
      "Ġquestioned": 3610,
      "Ġelev": 3611,
      "Ġbeginning": 3612,
      "embered": 3613,
      "75": 3614,
      "Car": 3615,
      "Ġbill": 3616,
      "Ġcra": 3617,
      "Ġpale": 3618,
      "ĠDay": 3619,
      "ĠPay": 3620,
      "ĠLew": 3621,
      "ĠKid": 3622,
      "ometimes": 3623,
      "Ġmoving": 3624,
      "Ġdiamonds": 3625,
      "respond": 3626,
      "Ġfut": 3627,
      "icate": 3628,
      "acy": 3629,
      "udd": 3630,
      "Ġcounty": 3631,
      "ND": 3632,
      "pass": 3633,
      "Ġmor": 3634,
      "Ġlock": 3635,
      "Ġnarrow": 3636,
      "Ġforget": 3637,
      "ĠHead": 3638,
      "earn": 3639,
      "Ġshown": 3640,
      "Ġsuc": 3641,
      "Ġscar": 3642,
      "Ġbelong": 3643,
      "gram": 3644,
      "viation": 3645,
      "board": 3646,
      "Sure": 3647,
      "ean": 3648,
      "line": 3649,
      "wind": 3650,
      "inced": 3651,
      "Ġfirm": 3652,
      "left": 3653,
      "alog": 3654,
      "ĠWork": 3655,
      "ĠNO": 3656,
      "Ġsum": 3657,
      "ĠJoseph": 3658,
      "Ġneither": 3659,
      "Ġamount": 3660,
      "ervice": 3661,
      "Ġcareful": 3662,
      "Ġsuspected": 3663,
      "Ġinterru": 3664,
      "aj": 3665,
      "bell": 3666,
      "fast": 3667,
      "iary": 3668,
      "Ġcatch": 3669,
      "Ġlaid": 3670,
      "ĠSl": 3671,
      "ords": 3672,
      "Ġpurpose": 3673,
      "much": 3674,
      "something": 3675,
      "Ġpath": 3676,
      "atisf": 3677,
      "Ġlad": 3678,
      "leep": 3679,
      "Ġyes": 3680,
      "ĠWas": 3681,
      "ĠWal": 3682,
      "Ġknees": 3683,
      "ĠRadio": 3684,
      "Ġvac": 3685,
      "aped": 3686,
      "Ġwhatever": 3687,
      "knew": 3688,
      "ĠClara": 3689,
      "Ġrealized": 3690,
      "Ġplaying": 3691,
      "ĠDepartment": 3692,
      "eculiar": 3693,
      "CE": 3694,
      "tal": 3695,
      "take": 3696,
      "Ġnobody": 3697,
      "Ġterrible": 3698,
      "ĠOnly": 3699,
      "ĠUnited": 3700,
      "Ġiron": 3701,
      "position": 3702,
      "Mar": 3703,
      "bu": 3704,
      "rical": 3705,
      "Ġknocked": 3706,
      "ĠOakley": 3707,
      "Ġspread": 3708,
      "uddenly": 3709,
      "Ġrepor": 3710,
      "Ġbusy": 3711,
      "FREE": 3712,
      "aur": 3713,
      "itiz": 3714,
      "Ġdrawn": 3715,
      "ĠMo": 3716,
      "arden": 3717,
      "ĠGut": 3718,
      "Ġyours": 3719,
      "phy": 3720,
      "Ġwants": 3721,
      "Ġswift": 3722,
      "nothing": 3723,
      "Ġordinary": 3724,
      "ĠExper": 3725,
      "Ġblond": 3726,
      "too": 3727,
      "Â£": 3728,
      "reme": 3729,
      "ecially": 3730,
      "ĠOur": 3731,
      "ĠJudge": 3732,
      "Street": 3733,
      "Ġphoto": 3734,
      "fume": 3735,
      "necessary": 3736,
      "ĠTR": 3737,
      "ĠMen": 3738,
      "ĠFe": 3739,
      "Ġplans": 3740,
      "Ġblank": 3741,
      "Ġenvelope": 3742,
      "Ġcarry": 3743,
      "Ġinstead": 3744,
      "ences": 3745,
      "Ġhospital": 3746,
      "Ġbandits": 3747,
      "Ġdirectly": 3748,
      "Ġgeneral": 3749,
      "ĠAmerican": 3750,
      "erve": 3751,
      "Ġgenuine": 3752,
      "Ġstrugg": 3753,
      "Ġreward": 3754,
      "Ġweight": 3755,
      "Ġlooks": 3756,
      "Ġbooks": 3757,
      "ĠLegg": 3758,
      "Ġdinner": 3759,
      "Ġthrill": 3760,
      "Ġreported": 3761,
      "Ġhonest": 3762,
      "Qu": 3763,
      "Sp": 3764,
      "ĠHouton": 3765,
      "oles": 3766,
      "Ġplaces": 3767,
      "Ġprov": 3768,
      "Ġpoliceman": 3769,
      "ensive": 3770,
      "Ġreading": 3771,
      "Ġoccasion": 3772,
      "Ġmusic": 3773,
      "Ġresults": 3774,
      "col": 3775,
      "hel": 3776,
      "ina": 3777,
      "erted": 3778,
      "Ġmaid": 3779,
      "Ġyesterday": 3780,
      "ĠCle": 3781,
      "Ġhandle": 3782,
      "Ġfrown": 3783,
      "himself": 3784,
      "course": 3785,
      "must": 3786,
      "ole": 3787,
      "Ġbent": 3788,
      "oward": 3789,
      "ĠSte": 3790,
      "Ġneare": 3791,
      "osite": 3792,
      "gged": 3793,
      "plex": 3794,
      "erker": 3795,
      "Ġmysterious": 3796,
      "Maybe": 3797,
      "Two": 3798,
      "mo": 3799,
      "morrow": 3800,
      "Ġforg": 3801,
      "erence": 3802,
      "Ġvol": 3803,
      "Ġadm": 3804,
      "Ġslipped": 3805,
      "Ġcharacter": 3806,
      "Ġplayed": 3807,
      "Ġdistrict": 3808,
      "Ġpostage": 3809,
      "Ġnewspapers": 3810,
      "Ġphysician": 3811,
      "Ġneighbor": 3812,
      "EAR": 3813,
      "ias": 3814,
      "mail": 3815,
      "Ġlim": 3816,
      "ĠMuniot": 3817,
      "ĠNOW": 3818,
      "ĠRiver": 3819,
      "ĠJames": 3820,
      "Ġpictures": 3821,
      "Ġcigar": 3822,
      "Ġinnocent": 3823,
      "From": 3824,
      "Have": 3825,
      "Ġhy": 3826,
      "Ġlives": 3827,
      "lying": 3828,
      "rielle": 3829,
      "ĠWor": 3830,
      "elled": 3831,
      "elph": 3832,
      "ĠGold": 3833,
      "Ġslay": 3834,
      "shot": 3835,
      "prints": 3836,
      "Ġgarage": 3837,
      "ividual": 3838,
      "Ġtype": 3839,
      "IR": 3840,
      "Ġsales": 3841,
      "Ġmat": 3842,
      "Ġfinding": 3843,
      "kerchief": 3844,
      "ipp": 3845,
      "low": 3846,
      "heart": 3847,
      "half": 3848,
      "ĠCardigan": 3849,
      "usion": 3850,
      "Ġrock": 3851,
      "Ġprevious": 3852,
      "Ġchauffeur": 3853,
      "Ġbedroom": 3854,
      "Ġhardly": 3855,
      "Ġsilent": 3856,
      "ĠWhite": 3857,
      "Ġexcitement": 3858,
      "Am": 3859,
      "Su": 3860,
      "eer": 3861,
      "ius": 3862,
      "last": 3863,
      "tion": 3864,
      "Ġcaused": 3865,
      "Ġport": 3866,
      "icult": 3867,
      "Ġstiff": 3868,
      "ĠHotel": 3869,
      "Ġaside": 3870,
      "ainted": 3871,
      "Ġupstairs": 3872,
      "ĠLondon": 3873,
      "Ġspl": 3874,
      "Ġtwelve": 3875,
      "Ġ...": 3876,
      "Ġdepos": 3877,
      "Ġobtained": 3878,
      "TEC": 3879,
      "orror": 3880,
      "ĠPhillips": 3881,
      "Ġsurprised": 3882,
      "Ġvarious": 3883,
      "Her": 3884,
      "US": 3885,
      "Un": 3886,
      "host": 3887,
      "writ": 3888,
      "Ġ>": 3889,
      "rene": 3890,
      "itched": 3891,
      "Ġstaring": 3892,
      "ĠWil": 3893,
      "ĠDun": 3894,
      "alley": 3895,
      "Ġorgan": 3896,
      "Ġalive": 3897,
      "Ġhanded": 3898,
      "Ġblind": 3899,
      "Ġadvert": 3900,
      "obody": 3901,
      "ĠInc": 3902,
      "ipe": 3903,
      "going": 3904,
      "Ġcenter": 3905,
      "ĠCollinson": 3906,
      "ĠGovernment": 3907,
      "elphia": 3908,
      "DE": 3909,
      "Than": 3910,
      "UR": 3911,
      "aus": 3912,
      "faced": 3913,
      "ti": 3914,
      "Ġtone": 3915,
      "Ġbills": 3916,
      "Ġmatch": 3917,
      "Ġpun": 3918,
      "Ġpeculiar": 3919,
      "lyn": 3920,
      "Ġelectric": 3921,
      "Ġjobs": 3922,
      "Ġterror": 3923,
      "Was": 3924,
      "covered": 3925,
      "gy": 3926,
      "tory": 3927,
      "Ġbaby": 3928,
      "Ġdull": 3929,
      "urb": 3930,
      "ĠHome": 3931,
      "ribut": 3932,
      "Ġforced": 3933,
      "Ġdog": 3934,
      "quently": 3935,
      "Ġshoes": 3936,
      "Ġscr": 3937,
      "young": 3938,
      "Ġclever": 3939,
      "Ġshadow": 3940,
      "Ġprepared": 3941,
      "Ġmentioned": 3942,
      "Ġrevealed": 3943,
      "ĠIllinois": 3944,
      "!'": 3945,
      "Ar": 3946,
      "IG": 3947,
      "name": 3948,
      "enger": 3949,
      "Ġpin": 3950,
      "Ġpow": 3951,
      "ication": 3952,
      "vern": 3953,
      "ĠBrixey": 3954,
      "Ġvic": 3955,
      "Ġspo": 3956,
      "death": 3957,
      "Ġsteel": 3958,
      "Ġkeeping": 3959,
      "Ġfamil": 3960,
      "Ġexcited": 3961,
      "ILL": 3962,
      "ĠLeggett": 3963,
      "OL": 3964,
      "ivers": 3965,
      "Ġce": 3966,
      "icted": 3967,
      "ĠPink": 3968,
      "Ġwheel": 3969,
      "Ġ16": 3970,
      "Ġhelped": 3971,
      "TIVE": 3972,
      "Ġdouble": 3973,
      "ĠBox": 3974,
      "Ġmerely": 3975,
      "ĠGutman": 3976,
      "cing": 3977,
      "saw": 3978,
      "hau": 3979,
      "Ġla": 3980,
      "adelphia": 3981,
      "Ġstam": 3982,
      "riage": 3983,
      "agement": 3984,
      "Ġalley": 3985,
      "ĠJu": 3986,
      "Ġplenty": 3987,
      "ires": 3988,
      "Ġenjoy": 3989,
      "Ġinvol": 3990,
      "Ġbeneath": 3991,
      "Ġweapon": 3992,
      "ĠGabrielle": 3993,
      ".)": 3994,
      "Ġbul": 3995,
      "Ġmon": 3996,
      "Ġdim": 3997,
      "esh": 3998,
      "rob": 3999,
      "ĠHad": 4000,
      "ĠBoston": 4001,
      "ĠAb": 4002,
      "ĠWashington": 4003,
      "acket": 4004,
      "Ġgrad": 4005,
      "Nothing": 4006,
      "Ġcompletely": 4007,
      "Ġcrook": 4008,
      "Ġsmooth": 4009,
      "IV": 4010,
      "six": 4011,
      "wr": 4012,
      "atures": 4013,
      "Ġlatter": 4014,
      "eter": 4015,
      "acted": 4016,
      "Ġeager": 4017,
      "ĠCody": 4018,
      "illon": 4019,
      "umed": 4020,
      "Ġwilling": 4021,
      "Ġexamination": 4022,
      "ĠHarry": 4023,
      "Ġdisappear": 4024,
      "arantee": 4025,
      "Ġcondition": 4026,
      "14": 4027,
      "Ġbare": 4028,
      "Ġbought": 4029,
      "itent": 4030,
      "Ġfal": 4031,
      "idew": 4032,
      "Ġrespect": 4033,
      "illy": 4034,
      "Ġship": 4035,
      "Ġtwice": 4036,
      "hisper": 4037,
      "Ġusually": 4038,
      "Ġimpress": 4039,
      "Ġopening": 4040,
      "Ġofficial": 4041,
      "Ġdelight": 4042,
      "Ġexplain": 4043,
      "until": 4044,
      "Ġmotive": 4045,
      "Ġpresence": 4046,
      "Ġrecognized": 4047,
      "seemed": 4048,
      "person": 4049,
      "ublic": 4050,
      "yed": 4051,
      "inging": 4052,
      "ented": 4053,
      "alf": 4054,
      "ĠHouse": 4055,
      "ague": 4056,
      "Ġtwisted": 4057,
      "Ġremembered": 4058,
      "offey": 4059,
      "18": 4060,
      "fle": 4061,
      "ses": 4062,
      "tic": 4063,
      "hal": 4064,
      "around": 4065,
      "aning": 4066,
      "Ġhidden": 4067,
      "alls": 4068,
      "olton": 4069,
      "ouses": 4070,
      "Ġprisoners": 4071,
      "inese": 4072,
      "Ġillustr": 4073,
      "500": 4074,
      "month": 4075,
      "ox": 4076,
      "port": 4077,
      "wise": 4078,
      "Ġtyp": 4079,
      "Ġsweet": 4080,
      "arson": 4081,
      "ĠTH": 4082,
      "ĠCont": 4083,
      "ĠWhere": 4084,
      "Ġfarm": 4085,
      "Ġdriving": 4086,
      "ugust": 4087,
      "conv": 4088,
      "ĠEnglish": 4089,
      "Ġrespons": 4090,
      "Ġsituation": 4091,
      "ĠCourt": 4092,
      "Ġtong": 4093,
      "Ġban": 4094,
      "Ġpal": 4095,
      "Ġgrew": 4096,
      "ette": 4097,
      "Ġstir": 4098,
      "ĠBob": 4099,
      "ivered": 4100,
      "antage": 4101,
      "ranged": 4102,
      "Ġwrote": 4103,
      "iamond": 4104,
      "ounted": 4105,
      "Ġhole": 4106,
      "served": 4107,
      "Yeah": 4108,
      "afe": 4109,
      "called": 4110,
      "sn": 4111,
      "Ġsne": 4112,
      "Ġcause": 4113,
      "Ġfol": 4114,
      "ĠPlease": 4115,
      "iction": 4116,
      "Ġbrain": 4117,
      "Ġenter": 4118,
      "Ġ50": 4119,
      "Ġhurt": 4120,
      "Ġforehead": 4121,
      "Ġidentified": 4122,
      "Ġconnection": 4123,
      "Ġdiscovery": 4124,
      "ierson": 4125,
      "viously": 4126,
      "Ġbal": 4127,
      "enny": 4128,
      "onan": 4129,
      "orat": 4130,
      "Ġgam": 4131,
      "ĠSouth": 4132,
      "urance": 4133,
      "Ġstret": 4134,
      "Ġreach": 4135,
      "ĠAg": 4136,
      "Ġspir": 4137,
      "irector": 4138,
      "Ġcarrying": 4139,
      "Ġaccident": 4140,
      "Ġdriven": 4141,
      "Ġexpression": 4142,
      "Ġgroup": 4143,
      "NE": 4144,
      "burn": 4145,
      "count": 4146,
      "say": 4147,
      "Ġtheory": 4148,
      "Ġsorry": 4149,
      "itute": 4150,
      "Ġhiding": 4151,
      "Ġinformed": 4152,
      "ĠHo": 4153,
      "andy": 4154,
      "Ġshows": 4155,
      "ĠJan": 4156,
      "Ġanyway": 4157,
      "Ġvaluable": 4158,
      "Ġbandit": 4159,
      "boy": 4160,
      "grave": 4161,
      "nes": 4162,
      "ergeant": 4163,
      "Ġnature": 4164,
      "ural": 4165,
      "Ġnotice": 4166,
      "ieutenant": 4167,
      "Ġnoise": 4168,
      "Ġhandkerchief": 4169,
      "izing": 4170,
      "Ġopinion": 4171,
      "Ġputting": 4172,
      "Ġbooklet": 4173,
      "Ġmeeting": 4174,
      "ĠMaybe": 4175,
      "Ġhesitated": 4176,
      "itentiary": 4177,
      "ais": 4178,
      "field": 4179,
      "paid": 4180,
      "imate": 4181,
      "Ġknock": 4182,
      "Ġinstr": 4183,
      "ege": 4184,
      "ground": 4185,
      "Ġlength": 4186,
      "rig": 4187,
      "think": 4188,
      "agic": 4189,
      "Ġwealth": 4190,
      "Ġabs": 4191,
      "Ġrepresent": 4192,
      "Ġassoci": 4193,
      "Ġpurcha": 4194,
      "Ġbullets": 4195,
      "Ġhorse": 4196,
      "Ġauthorities": 4197,
      "Ġcircumstances": 4198,
      "ĠLewis": 4199,
      ").": 4200,
      "care": 4201,
      "des": 4202,
      "life": 4203,
      "eno": 4204,
      "Ġinde": 4205,
      "Ġeat": 4206,
      "Ġhistory": 4207,
      "ilar": 4208,
      "ĠFl": 4209,
      "Ġcomb": 4210,
      "Ġusing": 4211,
      "bles": 4212,
      "Ġintended": 4213,
      "State": 4214,
      "Ġquestioning": 4215,
      "ĠGrant": 4216,
      "Ġartic": 4217,
      "waite": 4218,
      "Ġcard": 4219,
      "Ġloot": 4220,
      "still": 4221,
      "Ġrele": 4222,
      "ĠMich": 4223,
      "ĠFitz": 4224,
      "ĠLight": 4225,
      "Ġconc": 4226,
      "ickly": 4227,
      "open": 4228,
      "Ġblow": 4229,
      "Ġunusual": 4230,
      "obs": 4231,
      "Ġclass": 4232,
      "Ġsmoke": 4233,
      "Ġchurch": 4234,
      "Ġpartner": 4235,
      "apping": 4236,
      "comp": 4237,
      "Ġinsisted": 4238,
      "Ġplanned": 4239,
      "ĠCharles": 4240,
      "TECTIVE": 4241,
      "gress": 4242,
      "uct": 4243,
      "Ġsam": 4244,
      "outed": 4245,
      "lyde": 4246,
      "Ġears": 4247,
      "ĠSn": 4248,
      "Ġstrength": 4249,
      "ĠBank": 4250,
      "ighed": 4251,
      "Ġgoes": 4252,
      "obby": 4253,
      "ousands": 4254,
      "ĠMcC": 4255,
      "Ġconvinced": 4256,
      "Ġserious": 4257,
      "Ġidentity": 4258,
      "Ġtouched": 4259,
      "Ġfrightened": 4260,
      "32": 4261,
      "40": 4262,
      "Look": 4263,
      "aily": 4264,
      "eep": 4265,
      "inth": 4266,
      "Ġwarm": 4267,
      "ona": 4268,
      "oming": 4269,
      "ading": 4270,
      "ello": 4271,
      "rapped": 4272,
      "ĠYes": 4273,
      "Ġarg": 4274,
      "Ġarrival": 4275,
      "Ġseeing": 4276,
      "blood": 4277,
      "ĠChinese": 4278,
      "ibility": 4279,
      "ĠNothing": 4280,
      "ĠBurke": 4281,
      "Ġwitnesses": 4282,
      "Ġwearing": 4283,
      "ĠAmerica": 4284,
      "Go": 4285,
      "cto": 4286,
      "Ġsidew": 4287,
      "ederal": 4288,
      "Ġbas": 4289,
      "Ġmount": 4290,
      "Ġcitiz": 4291,
      "Ġhuge": 4292,
      "Ġlatest": 4293,
      "Ġgate": 4294,
      "ĠDid": 4295,
      "los": 4296,
      "ĠLess": 4297,
      "Ġprinc": 4298,
      "othstein": 4299,
      "Ġaddition": 4300,
      "Ġassured": 4301,
      "Ġlocated": 4302,
      "reci": 4303,
      "ĠRobert": 4304,
      "OOK": 4305,
      "Ġsoftly": 4306,
      "Ġcabin": 4307,
      "especially": 4308,
      "Bill": 4309,
      "Or": 4310,
      "put": 4311,
      "took": 4312,
      "ufact": 4313,
      "Ġtired": 4314,
      "Ġinspector": 4315,
      "Ġhast": 4316,
      "Ġredu": 4317,
      "ĠCH": 4318,
      "These": 4319,
      "ulated": 4320,
      "Ġgrand": 4321,
      "ĠBuilding": 4322,
      "Ġcounter": 4323,
      "Ġinterrupted": 4324,
      "35": 4325,
      "cur": 4326,
      "lay": 4327,
      "mber": 4328,
      "zed": 4329,
      "rent": 4330,
      "Ġbath": 4331,
      "Ġcaut": 4332,
      "Ġlines": 4333,
      "alian": 4334,
      "agg": 4335,
      "Ġconsc": 4336,
      "imply": 4337,
      "Ġowner": 4338,
      "Ġimpossible": 4339,
      "ĠThurs": 4340,
      "ĠClerk": 4341,
      "Ġobject": 4342,
      "Ġmarked": 4343,
      "eckoner": 4344,
      "ĠAlso": 4345,
      "Ġserved": 4346,
      "Ġawait": 4347,
      "Ġmember": 4348,
      "Ġperfectly": 4349,
      "45": 4350,
      "Gar": 4351,
      "Jim": 4352,
      "susp": 4353,
      "isher": 4354,
      "uties": 4355,
      "imony": 4356,
      "seen": 4357,
      "ĠPresident": 4358,
      "Ġrushed": 4359,
      "Ġshowing": 4360,
      "Ġalib": 4361,
      "Ġworry": 4362,
      "Ġproof": 4363,
      "ails": 4364,
      "ailed": 4365,
      "Ġclue": 4366,
      "ĠNoonan": 4367,
      "INE": 4368,
      "STER": 4369,
      "didn": 4370,
      "Are": 4371,
      "Write": 4372,
      "cross": 4373,
      "dark": 4374,
      "mind": 4375,
      "Ġtruck": 4376,
      "Ġsought": 4377,
      "rib": 4378,
      "these": 4379,
      "thirty": 4380,
      "unted": 4381,
      "Ġsepar": 4382,
      "ores": 4383,
      "Ġride": 4384,
      "eary": 4385,
      "ĠLong": 4386,
      "Ġalarm": 4387,
      "ggins": 4388,
      "Ġconsidered": 4389,
      "ĠMonte": 4390,
      "Ġissue": 4391,
      "ĠHenry": 4392,
      "VER": 4393,
      "vestig": 4394,
      "Ġtor": 4395,
      "Ġduty": 4396,
      "ĠMill": 4397,
      "Ġjer": 4398,
      "oody": 4399,
      "ivil": 4400,
      "Ġdegree": 4401,
      "Ġflesh": 4402,
      "Ġdesp": 4403,
      "Ġaccompl": 4404,
      "ientific": 4405,
      "Ġcurtain": 4406,
      "Ġcorrid": 4407,
      "agedy": 4408,
      "Ġbitter": 4409,
      "OS": 4410,
      "OT": 4411,
      "Ġbound": 4412,
      "ĠIr": 4413,
      "Ġgrave": 4414,
      "otton": 4415,
      "ĠMaster": 4416,
      "ĠDor": 4417,
      "antic": 4418,
      "Ġgets": 4419,
      "Ġafterward": 4420,
      "Ġdelay": 4421,
      "Ġcorrect": 4422,
      "Ġinteresting": 4423,
      "Ġoccurred": 4424,
      "Ġburgl": 4425,
      "ĠMartin": 4426,
      "Con": 4427,
      "Pr": 4428,
      "eight": 4429,
      "pock": 4430,
      "Ġfully": 4431,
      "Ġhom": 4432,
      "ĠPenn": 4433,
      "Ġrum": 4434,
      "Ġrough": 4435,
      "locked": 4436,
      "ĠLaw": 4437,
      "ieve": 4438,
      "Ġcrack": 4439,
      "ext": 4440,
      "Ġbuilt": 4441,
      "Ġharm": 4442,
      "Ġeduc": 4443,
      "aturday": 4444,
      "Ġmethods": 4445,
      "Ġfresh": 4446,
      "Ġinstructions": 4447,
      "Ġdetermined": 4448,
      "Ġpopular": 4449,
      "Ġfuture": 4450,
      "'.": 4451,
      "born": 4452,
      "Ġur": 4453,
      "inter": 4454,
      "Ġoil": 4455,
      "Ġmass": 4456,
      "Ġstone": 4457,
      "ĠFin": 4458,
      "Ġplus": 4459,
      "Ġqueer": 4460,
      "Ġproble": 4461,
      "ograp": 4462,
      "Ġgreatest": 4463,
      "Ġindividual": 4464,
      "Ġwalls": 4465,
      "Ġglasses": 4466,
      "ĠSecret": 4467,
      "Ġanxious": 4468,
      "want": 4469,
      "orious": 4470,
      "Ġpounds": 4471,
      "uto": 4472,
      "ĠHigh": 4473,
      "ĠAddress": 4474,
      "Ġoutfit": 4475,
      "ĠFlor": 4476,
      "ĠNove": 4477,
      "Ġbutton": 4478,
      "ĠEven": 4479,
      "ĠKee": 4480,
      "Ġsmiling": 4481,
      "Ġwrist": 4482,
      "ashion": 4483,
      "Ġfactory": 4484,
      "Ġdrop": 4485,
      "Ġmurders": 4486,
      "Ġreceive": 4487,
      "ieces": 4488,
      "orris": 4489,
      "Ġbottom": 4490,
      "Ġtaxi": 4491,
      "IE": 4492,
      "Re": 4493,
      "cut": 4494,
      "gro": 4495,
      "ners": 4496,
      "nold": 4497,
      "Ġwound": 4498,
      "enough": 4499,
      "Ġmater": 4500,
      "Ġcru": 4501,
      "Ġdate": 4502,
      "asp": 4503,
      "Ġinflu": 4504,
      "stru": 4505,
      "ĠSir": 4506,
      "Ġsty": 4507,
      "rigin": 4508,
      "ĠCoupon": 4509,
      "together": 4510,
      "Ġrout": 4511,
      "Ġrisk": 4512,
      "redit": 4513,
      "ecting": 4514,
      "ĠRice": 4515,
      "ĠRyan": 4516,
      "ryant": 4517,
      "many": 4518,
      "Ġprevent": 4519,
      "ĠKn": 4520,
      "clot": 4521,
      "Ġremain": 4522,
      "ĠChin": 4523,
      "Ġchances": 4524,
      "Ġevent": 4525,
      "Ġfellows": 4526,
      "Ġlistened": 4527,
      "Ġexpert": 4528,
      "Ġopposite": 4529,
      "Ġexamined": 4530,
      "Ġmistake": 4531,
      "Ġpleasant": 4532,
      "Ġjoined": 4533,
      "700": 4534,
      "Tell": 4535,
      "because": 4536,
      "mal": 4537,
      "ĠSto": 4538,
      "Ġrequest": 4539,
      "agger": 4540,
      "Ġjudge": 4541,
      "istered": 4542,
      "onday": 4543,
      "Ġadmit": 4544,
      "Ġdesire": 4545,
      "Ġreput": 4546,
      "unday": 4547,
      "Ġshortly": 4548,
      "Ġsounded": 4549,
      "rook": 4550,
      "Ġlisten": 4551,
      "arnes": 4552,
      "Ġmovement": 4553,
      "rugged": 4554,
      "Ġcellar": 4555,
      "Ġcomfortable": 4556,
      "Mont": 4557,
      "dr": 4558,
      "uary": 4559,
      "Ġtiny": 4560,
      "Ġfixed": 4561,
      "Ġpor": 4562,
      "Ġloud": 4563,
      "Ġgives": 4564,
      "aling": 4565,
      "oop": 4566,
      "ĠAcc": 4567,
      "those": 4568,
      "ĠKing": 4569,
      "Ġtrace": 4570,
      "Ġshots": 4571,
      "iently": 4572,
      "Ġofficials": 4573,
      "lectrical": 4574,
      "Ġmotion": 4575,
      "Ġloved": 4576,
      "stephan": 4577,
      "Ġdiamond": 4578,
      "Ġpackage": 4579,
      "Ġoccupied": 4580,
      "ĠPhiladelphia": 4581,
      "Gr": 4582,
      "foot": 4583,
      "morning": 4584,
      "rick": 4585,
      "zes": 4586,
      "Ġfaces": 4587,
      "ĠTake": 4588,
      "earing": 4589,
      "ĠGra": 4590,
      "ĠYet": 4591,
      "phoned": 4592,
      "Ġguaranteed": 4593,
      "Ġpaying": 4594,
      "Ġsurround": 4595,
      "ugs": 4596,
      "ĠWhile": 4597,
      "Ġinquir": 4598,
      "While": 4599,
      "UT": 4600,
      "floor": 4601,
      "pre": 4602,
      "pay": 4603,
      "same": 4604,
      "edan": 4605,
      "stead": 4606,
      "ripp": 4607,
      "ĠBoy": 4608,
      "gger": 4609,
      "AND": 4610,
      "Ġpassing": 4611,
      "ucky": 4612,
      "Ġfigured": 4613,
      "Ġpubl": 4614,
      "Ġmuscles": 4615,
      "close": 4616,
      "Ġreleased": 4617,
      "ctober": 4618,
      "ae": 4619,
      "brought": 4620,
      "hus": 4621,
      "taken": 4622,
      "Ġ0": 4623,
      "Ġcas": 4624,
      "Ġdue": 4625,
      "ĠApp": 4626,
      "ĠDes": 4627,
      "Ġradio": 4628,
      "usted": 4629,
      "Ġprints": 4630,
      "Ġattract": 4631,
      "Ġterms": 4632,
      "Ġwondered": 4633,
      "Ġhurry": 4634,
      "Ġdemand": 4635,
      "ĠBefore": 4636,
      "Ġblocks": 4637,
      "Ġproperty": 4638,
      "ĠFitzstephan": 4639,
      "Right": 4640,
      "Take": 4641,
      "ivery": 4642,
      "ral": 4643,
      "Ġfle": 4644,
      "Ġyard": 4645,
      "ĠSI": 4646,
      "Ġupper": 4647,
      "Ġrich": 4648,
      "ĠJune": 4649,
      "endent": 4650,
      "Ġliqu": 4651,
      "Ġtrained": 4652,
      "Ġeverybody": 4653,
      "Ġreply": 4654,
      "Ġaccording": 4655,
      "ancing": 4656,
      "Ġtelegram": 4657,
      "Ġhundreds": 4658,
      "Ġprofit": 4659,
      "Ġeleven": 4660,
      "Ġdevil": 4661,
      "writing": 4662,
      "GE": 4663,
      "wait": 4664,
      "inarson": 4665,
      "Ġmuttered": 4666,
      "icated": 4667,
      "oted": 4668,
      "ĠMex": 4669,
      "ĠBolton": 4670,
      "ĠAugust": 4671,
      "cely": 4672,
      "child": 4673,
      "Ġsuicide": 4674,
      "Ġroof": 4675,
      "ĠThom": 4676,
      "eneral": 4677,
      "Ġdefense": 4678,
      "Ġcrooks": 4679,
      "Ġrecords": 4680,
      "Ġdangerous": 4681,
      "Ġremarkable": 4682,
      "11": 4683,
      "Big": 4684,
      "sk": 4685,
      "such": 4686,
      "Ġmob": 4687,
      "answ": 4688,
      "asped": 4689,
      "Ġthus": 4690,
      "ĠST": 4691,
      "Ġstar": 4692,
      "Ġstuck": 4693,
      "rier": 4694,
      "agon": 4695,
      "ables": 4696,
      "ieved": 4697,
      "Ġsilk": 4698,
      "Ġpockets": 4699,
      "Ġpressed": 4700,
      "Ġslightly": 4701,
      "ONEY": 4702,
      "Ġelevator": 4703,
      "95": 4704,
      "De": 4705,
      "vis": 4706,
      "Ġwid": 4707,
      "Ġfa": 4708,
      "icy": 4709,
      "ama": 4710,
      "tering": 4711,
      "cepted": 4712,
      "Ġgovern": 4713,
      "Ġenem": 4714,
      "Ġdisp": 4715,
      "ishment": 4716,
      "Ġlighted": 4717,
      "dead": 4718,
      "Ġconfident": 4719,
      "fortun": 4720,
      "Ġgasped": 4721,
      "athered": 4722,
      "ĠParis": 4723,
      "Ġcrazy": 4724,
      "dec": 4725,
      "del": 4726,
      "ga": 4727,
      "gar": 4728,
      "mar": 4729,
      "anley": 4730,
      "ĠDec": 4731,
      "ppose": 4732,
      "ells": 4733,
      "ĠLat": 4734,
      "Ġexec": 4735,
      "Ġdownstairs": 4736,
      "being": 4737,
      "others": 4738,
      "Ġhandsome": 4739,
      "prison": 4740,
      "Ġthrown": 4741,
      "Black": 4742,
      "Ġdenied": 4743,
      "ĠWayne": 4744,
      "gly": 4745,
      "mist": 4746,
      "ule": 4747,
      "Ġodd": 4748,
      "Ġbran": 4749,
      "Ġburning": 4750,
      "Ġfascinating": 4751,
      "arc": 4752,
      "sem": 4753,
      "ĠSha": 4754,
      "Ġstage": 4755,
      "ĠCoffey": 4756,
      "ech": 4757,
      "Ġjaw": 4758,
      "Ġagency": 4759,
      "need": 4760,
      "Ġclient": 4761,
      "white": 4762,
      "Ġframe": 4763,
      "Ġevidently": 4764,
      "Ġstreets": 4765,
      "ESS": 4766,
      "Ġkidn": 4767,
      "Ġrapidly": 4768,
      "300": 4769,
      "pen": 4770,
      "Ġbrill": 4771,
      "ĠSee": 4772,
      "Ġforth": 4773,
      "usive": 4774,
      "igg": 4775,
      "Ġvault": 4776,
      "plete": 4777,
      "Ġliked": 4778,
      "things": 4779,
      "black": 4780,
      "Ġsteady": 4781,
      "Ġleader": 4782,
      "ĠMarch": 4783,
      "veloped": 4784,
      "Ġstranger": 4785,
      "Ġannounced": 4786,
      "Ġdesperate": 4787,
      "Gu": 4788,
      "Tt": 4789,
      "great": 4790,
      "erks": 4791,
      "Ġbreat": 4792,
      "ishes": 4793,
      "Ġtoss": 4794,
      "Ġhill": 4795,
      "Ġlic": 4796,
      "Ġgre": 4797,
      "Ġthrow": 4798,
      "ĠMore": 4799,
      "ĠCur": 4800,
      "ĠWester": 4801,
      "ĠDet": 4802,
      "ĠPo": 4803,
      "ĠLieutenant": 4804,
      "ĠEinarson": 4805,
      "Ġanywhere": 4806,
      "ization": 4807,
      "ĠVance": 4808,
      "eyed": 4809,
      "ĠUnder": 4810,
      "END": 4811,
      "iminal": 4812,
      "Ġinterview": 4813,
      "Ġrelief": 4814,
      "ernon": 4815,
      "Ġdifficult": 4816,
      "Ġdefin": 4817,
      "Ġpowerful": 4818,
      "Ġgentleman": 4819,
      "break": 4820,
      "Ġneighborhood": 4821,
      "Ġfamiliar": 4822,
      "MP": 4823,
      "Mur": 4824,
      "dell": 4825,
      "free": 4826,
      "inent": 4827,
      "anation": 4828,
      "another": 4829,
      "Ġlit": 4830,
      "ids": 4831,
      "ĠPal": 4832,
      "ĠFif": 4833,
      "Ġabru": 4834,
      "Ġ13": 4835,
      "Ġuncle": 4836,
      "Ġkiller": 4837,
      "ements": 4838,
      "conf": 4839,
      "Ġtestimony": 4840,
      "Ġmarks": 4841,
      "About": 4842,
      "Ġclimbed": 4843,
      "ĠCanada": 4844,
      "*,": 4845,
      "Pro": 4846,
      "bec": 4847,
      "coll": 4848,
      "near": 4849,
      "wich": 4850,
      "Ġmir": 4851,
      "asted": 4852,
      "otte": 4853,
      "vere": 4854,
      "adlan": 4855,
      "ammed": 4856,
      "ĠDraft": 4857,
      "ĠGer": 4858,
      "astic": 4859,
      "itely": 4860,
      "Ġunable": 4861,
      "Ġslip": 4862,
      "Ġkeen": 4863,
      "ĠChrist": 4864,
      "Ġclosely": 4865,
      "Ġlistening": 4866,
      "Ġhunting": 4867,
      "Ġjerked": 4868,
      "-.": 4869,
      "Frank": 4870,
      "aire": 4871,
      "dict": 4872,
      "making": 4873,
      "voice": 4874,
      "wife": 4875,
      "Ġespecially": 4876,
      "Ġorigin": 4877,
      "once": 4878,
      "Ġmud": 4879,
      "utes": 4880,
      "acher": 4881,
      "ushing": 4882,
      "eled": 4883,
      "ĠRothstein": 4884,
      "arty": 4885,
      "pled": 4886,
      "Ġguest": 4887,
      "ĠCarlson": 4888,
      "Ġlocal": 4889,
      "Ġdescribed": 4890,
      "Ġengaged": 4891,
      "Ġescaped": 4892,
      "conscious": 4893,
      "Ġcorridor": 4894,
      "Char": 4895,
      "hip": 4896,
      "ij": 4897,
      "non": 4898,
      "sen": 4899,
      "ux": 4900,
      "Ġz": 4901,
      "Ġtree": 4902,
      "erous": 4903,
      "Ġborn": 4904,
      "Ġcoff": 4905,
      "ĠIII": 4906,
      "ĠSher": 4907,
      "ĠSaturday": 4908,
      "empted": 4909,
      "urely": 4910,
      "cover": 4911,
      "Ġstayed": 4912,
      "ĠMurray": 4913,
      "ĠCourse": 4914,
      "secutor": 4915,
      "aurant": 4916,
      "16": 4917,
      "MA": 4918,
      "gess": 4919,
      "give": 4920,
      "lished": 4921,
      "pse": 4922,
      "Â°": 4923,
      "Ġmechan": 4924,
      "llen": 4925,
      "asant": 4926,
      "Ġhorror": 4927,
      "ĠIrene": 4928,
      "ĠMA": 4929,
      "Ġshock": 4930,
      "ĠLa": 4931,
      "Ġvest": 4932,
      "Ġ100": 4933,
      "Ġcalling": 4934,
      "Ġshape": 4935,
      "Ġemb": 4936,
      "ĠBrand": 4937,
      "Ġdeputy": 4938,
      "Ġearth": 4939,
      "brary": 4940,
      "ĠLeander": 4941,
      "Ġsleuth": 4942,
      "Ġpromise": 4943,
      "Ġspeaking": 4944,
      "Ġsociety": 4945,
      "KE": 4946,
      "Mail": 4947,
      "dri": 4948,
      "moment": 4949,
      "reck": 4950,
      "Ġbow": 4951,
      "onstr": 4952,
      "Ġdry": 4953,
      "Ġinf": 4954,
      "Ġeh": 4955,
      "ĠTrue": 4956,
      "ĠMerker": 4957,
      "ĠBurns": 4958,
      "ĠWhisper": 4959,
      "Ġseated": 4960,
      "ĠRay": 4961,
      "ĠJeff": 4962,
      "Ġsob": 4963,
      "berts": 4964,
      "Ġcleared": 4965,
      "offic": 4966,
      "hands": 4967,
      "Ġsearched": 4968,
      "Ġwhisper": 4969,
      "Ġpenny": 4970,
      "murd": 4971,
      "Ġrailroad": 4972,
      "WH": 4973,
      "graph": 4974,
      "iod": 4975,
      "Ġutter": 4976,
      "Ġswe": 4977,
      "Ġmental": 4978,
      "Ġinj": 4979,
      "Ġhearing": 4980,
      "Ġlone": 4981,
      "Ġemer": 4982,
      "Ġones": 4983,
      "send": 4984,
      "ĠService": 4985,
      "ĠCare": 4986,
      "Ġanim": 4987,
      "ĠDillon": 4988,
      "olt": 4989,
      "sson": 4990,
      "Ġjud": 4991,
      "ĠGood": 4992,
      "istic": 4993,
      "Ġworn": 4994,
      "ailway": 4995,
      "Ġcheer": 4996,
      "Ġchecked": 4997,
      "eptember": 4998,
      "Ġconfidence": 4999
    },
    "merges": [
      [
        "Ġ",
        "t"
      ],
      [
        "h",
        "e"
      ],
      [
        "Ġ",
        "a"
      ],
      [
        "i",
        "n"
      ],
      [
        "Ġt",
        "he"
      ],
      [
        "Ġ",
        "w"
      ],
      [
        "r",
        "e"
      ],
      [
        "Ġ",
        "o"
      ],
      [
        "Ġ",
        "s"
      ],
      [
        "n",
        "d"
      ],
      [
        "e",
        "d"
      ],
      [
        "e",
        "r"
      ],
      [
        "o",
        "u"
      ],
      [
        "h",
        "a"
      ],
      [
        "Ġ",
        "b"
      ],
      [
        "e",
        "n"
      ],
      [
        "o",
        "n"
      ],
      [
        "Ġ",
        "m"
      ],
      [
        "i",
        "t"
      ],
      [
        "i",
        "s"
      ],
      [
        "Ġ",
        "c"
      ],
      [
        "Ġ",
        "f"
      ],
      [
        "in",
        "g"
      ],
      [
        "o",
        "r"
      ],
      [
        "Ġt",
        "o"
      ],
      [
        "l",
        "l"
      ],
      [
        "Ġo",
        "f"
      ],
      [
        "a",
        "r"
      ],
      [
        "a",
        "n"
      ],
      [
        "Ġ",
        "d"
      ],
      [
        "a",
        "s"
      ],
      [
        "e",
        "s"
      ],
      [
        "Ġa",
        "nd"
      ],
      [
        "Ġ",
        "h"
      ],
      [
        "Ġ",
        "p"
      ],
      [
        "Ġ",
        "in"
      ],
      [
        "a",
        "t"
      ],
      [
        "Ġ",
        "he"
      ],
      [
        "Ġ",
        "l"
      ],
      [
        "Ġ",
        "I"
      ],
      [
        "o",
        "m"
      ],
      [
        "Ġ",
        "ha"
      ],
      [
        "i",
        "c"
      ],
      [
        "ha",
        "t"
      ],
      [
        "Ġ",
        "g"
      ],
      [
        "Ġ",
        "n"
      ],
      [
        "e",
        "t"
      ],
      [
        "o",
        "w"
      ],
      [
        "o",
        "t"
      ],
      [
        "u",
        "t"
      ],
      [
        "l",
        "e"
      ],
      [
        "i",
        "d"
      ],
      [
        "s",
        "t"
      ],
      [
        "i",
        "m"
      ],
      [
        "v",
        "e"
      ],
      [
        "Ġ",
        "y"
      ],
      [
        "Ġw",
        "as"
      ],
      [
        "l",
        "y"
      ],
      [
        "en",
        "t"
      ],
      [
        "g",
        "h"
      ],
      [
        "a",
        "l"
      ],
      [
        "Ġb",
        "e"
      ],
      [
        "a",
        "c"
      ],
      [
        "Ġ",
        "e"
      ],
      [
        "l",
        "d"
      ],
      [
        "Ġy",
        "ou"
      ],
      [
        "Ġo",
        "n"
      ],
      [
        "a",
        "y"
      ],
      [
        "Ġt",
        "hat"
      ],
      [
        "s",
        "e"
      ],
      [
        "Ġt",
        "h"
      ],
      [
        "Ġ",
        "\""
      ],
      [
        "Ġ",
        "T"
      ],
      [
        "Ġ",
        "S"
      ],
      [
        "u",
        "r"
      ],
      [
        "i",
        "on"
      ],
      [
        "a",
        "d"
      ],
      [
        "r",
        "o"
      ],
      [
        "Ġ",
        "u"
      ],
      [
        "Ġs",
        "t"
      ],
      [
        "Ġ",
        "re"
      ],
      [
        "Ġh",
        "is"
      ],
      [
        "Ġ",
        "M"
      ],
      [
        "Ġ",
        "it"
      ],
      [
        "v",
        "er"
      ],
      [
        "i",
        "r"
      ],
      [
        "it",
        "h"
      ],
      [
        "Ġha",
        "d"
      ],
      [
        "Ġ",
        "H"
      ],
      [
        "-",
        "-"
      ],
      [
        "gh",
        "t"
      ],
      [
        "r",
        "i"
      ],
      [
        "Ġf",
        "or"
      ],
      [
        "a",
        "m"
      ],
      [
        "'",
        "s"
      ],
      [
        "Ġ",
        "C"
      ],
      [
        "e",
        "c"
      ],
      [
        "t",
        "he"
      ],
      [
        "o",
        "o"
      ],
      [
        "e",
        "re"
      ],
      [
        "Ġw",
        "ith"
      ],
      [
        "Ġa",
        "s"
      ],
      [
        "Ġa",
        "n"
      ],
      [
        "Ġ",
        "B"
      ],
      [
        "Ġa",
        "t"
      ],
      [
        "Ġ",
        "A"
      ],
      [
        "i",
        "ll"
      ],
      [
        "Ġw",
        "h"
      ],
      [
        "a",
        "nd"
      ],
      [
        "k",
        "e"
      ],
      [
        "t",
        "er"
      ],
      [
        "c",
        "e"
      ],
      [
        "i",
        "l"
      ],
      [
        ".",
        "\""
      ],
      [
        "i",
        "f"
      ],
      [
        "Ġh",
        "im"
      ],
      [
        "a",
        "in"
      ],
      [
        "Ġ",
        "W"
      ],
      [
        "Ġm",
        "e"
      ],
      [
        "ou",
        "ld"
      ],
      [
        "t",
        "h"
      ],
      [
        "ĠT",
        "he"
      ],
      [
        "Ġ",
        "D"
      ],
      [
        "'",
        "t"
      ],
      [
        "Ġ",
        "k"
      ],
      [
        "a",
        "ll"
      ],
      [
        "p",
        "p"
      ],
      [
        "t",
        "o"
      ],
      [
        "r",
        "om"
      ],
      [
        "i",
        "ght"
      ],
      [
        "es",
        "s"
      ],
      [
        "Ġhe",
        "r"
      ],
      [
        "Ġn",
        "ot"
      ],
      [
        "Ġs",
        "a"
      ],
      [
        "u",
        "n"
      ],
      [
        "e",
        "w"
      ],
      [
        "a",
        "g"
      ],
      [
        "t",
        "ed"
      ],
      [
        "Ġs",
        "e"
      ],
      [
        "c",
        "h"
      ],
      [
        "Ġd",
        "o"
      ],
      [
        "o",
        "re"
      ],
      [
        "u",
        "s"
      ],
      [
        "Ġ",
        "is"
      ],
      [
        "k",
        "ed"
      ],
      [
        ",",
        "\""
      ],
      [
        "e",
        "ll"
      ],
      [
        "Ġ",
        "P"
      ],
      [
        "o",
        "l"
      ],
      [
        "om",
        "e"
      ],
      [
        "ĠH",
        "e"
      ],
      [
        "i",
        "ve"
      ],
      [
        "Ġm",
        "y"
      ],
      [
        "Ġ",
        "r"
      ],
      [
        "ou",
        "t"
      ],
      [
        "on",
        "e"
      ],
      [
        "he",
        "r"
      ],
      [
        "Ġu",
        "p"
      ],
      [
        "er",
        "s"
      ],
      [
        "Ġo",
        "ut"
      ],
      [
        "ac",
        "k"
      ],
      [
        "e",
        "l"
      ],
      [
        "T",
        "he"
      ],
      [
        "e",
        "ar"
      ],
      [
        "an",
        "t"
      ],
      [
        "q",
        "u"
      ],
      [
        "Ġf",
        "rom"
      ],
      [
        "Ġ",
        "F"
      ],
      [
        "ar",
        "d"
      ],
      [
        "Ġs",
        "h"
      ],
      [
        "re",
        "d"
      ],
      [
        "ic",
        "e"
      ],
      [
        "a",
        "b"
      ],
      [
        "Ġk",
        "n"
      ],
      [
        "es",
        "t"
      ],
      [
        "Ġo",
        "r"
      ],
      [
        "i",
        "g"
      ],
      [
        "ec",
        "t"
      ],
      [
        "Ġm",
        "an"
      ],
      [
        "?",
        "\""
      ],
      [
        "l",
        "o"
      ],
      [
        "Ġ",
        "N"
      ],
      [
        "e",
        "m"
      ],
      [
        "at",
        "ion"
      ],
      [
        "Ġha",
        "ve"
      ],
      [
        "r",
        "ou"
      ],
      [
        "Ġth",
        "is"
      ],
      [
        "am",
        "e"
      ],
      [
        "Ġs",
        "he"
      ],
      [
        "ow",
        "n"
      ],
      [
        "u",
        "st"
      ],
      [
        "u",
        "l"
      ],
      [
        "Ġw",
        "he"
      ],
      [
        "Ġ",
        "L"
      ],
      [
        "Ġsa",
        "id"
      ],
      [
        "ou",
        "r"
      ],
      [
        "e",
        "p"
      ],
      [
        "r",
        "a"
      ],
      [
        "Ġw",
        "ere"
      ],
      [
        "s",
        "s"
      ],
      [
        "Ġ",
        "j"
      ],
      [
        "Ġ",
        "--"
      ],
      [
        "Ġw",
        "e"
      ],
      [
        "Ġs",
        "u"
      ],
      [
        "Ġb",
        "y"
      ],
      [
        "in",
        "d"
      ],
      [
        "c",
        "k"
      ],
      [
        "c",
        "t"
      ],
      [
        "ou",
        "s"
      ],
      [
        "Ġ",
        "R"
      ],
      [
        "Ġon",
        "e"
      ],
      [
        "ar",
        "t"
      ],
      [
        "Ġe",
        "x"
      ],
      [
        "Ġ",
        "G"
      ],
      [
        "u",
        "m"
      ],
      [
        "o",
        "d"
      ],
      [
        "Ġc",
        "on"
      ],
      [
        "Ġb",
        "ut"
      ],
      [
        "Ġa",
        "b"
      ],
      [
        "i",
        "e"
      ],
      [
        "o",
        "f"
      ],
      [
        "Ġbe",
        "en"
      ],
      [
        "Ġ",
        "O"
      ],
      [
        "Ġa",
        "ll"
      ],
      [
        "Ġ",
        "J"
      ],
      [
        "at",
        "e"
      ],
      [
        "Ġ",
        "v"
      ],
      [
        "oo",
        "d"
      ],
      [
        "im",
        "e"
      ],
      [
        "Ġwh",
        "o"
      ],
      [
        "Ġ",
        "E"
      ],
      [
        "n",
        "t"
      ],
      [
        "ic",
        "h"
      ],
      [
        "a",
        "k"
      ],
      [
        "Ġyou",
        "r"
      ],
      [
        "he",
        "d"
      ],
      [
        "is",
        "t"
      ],
      [
        "a",
        "p"
      ],
      [
        "Ġl",
        "e"
      ],
      [
        "Ġs",
        "o"
      ],
      [
        "i",
        "v"
      ],
      [
        "id",
        "e"
      ],
      [
        "Ġ",
        "ro"
      ],
      [
        "r",
        "y"
      ],
      [
        "g",
        "e"
      ],
      [
        "Ġa",
        "l"
      ],
      [
        "ac",
        "e"
      ],
      [
        "Ġ",
        "Y"
      ],
      [
        "in",
        "e"
      ],
      [
        "Ġan",
        "y"
      ],
      [
        "w",
        "ay"
      ],
      [
        "oo",
        "k"
      ],
      [
        "ha",
        "n"
      ],
      [
        "ur",
        "n"
      ],
      [
        "on",
        "g"
      ],
      [
        "o",
        "st"
      ],
      [
        "or",
        "t"
      ],
      [
        "as",
        "t"
      ],
      [
        "Ġp",
        "l"
      ],
      [
        "Ġw",
        "ould"
      ],
      [
        "Ġd",
        "id"
      ],
      [
        "ver",
        "y"
      ],
      [
        "l",
        "f"
      ],
      [
        "Ġs",
        "p"
      ],
      [
        "h",
        "ing"
      ],
      [
        "Ġ",
        "1"
      ],
      [
        "Ġn",
        "o"
      ],
      [
        "a",
        "re"
      ],
      [
        "ere",
        "d"
      ],
      [
        "ou",
        "nd"
      ],
      [
        "f",
        "f"
      ],
      [
        "Ġw",
        "or"
      ],
      [
        "â",
        "ģ"
      ],
      [
        "âģ",
        "ł"
      ],
      [
        "u",
        "re"
      ],
      [
        "a",
        "ke"
      ],
      [
        "Ġd",
        "e"
      ],
      [
        "Ġthe",
        "re"
      ],
      [
        "Ġthe",
        "y"
      ],
      [
        "r",
        "u"
      ],
      [
        "ic",
        "k"
      ],
      [
        "Ġin",
        "to"
      ],
      [
        "p",
        "l"
      ],
      [
        "Ġt",
        "w"
      ],
      [
        "Ġof",
        "f"
      ],
      [
        "o",
        "nd"
      ],
      [
        "Ġg",
        "o"
      ],
      [
        "e",
        "nd"
      ],
      [
        "Ġthe",
        "m"
      ],
      [
        "Ġa",
        "g"
      ],
      [
        "the",
        "r"
      ],
      [
        "o",
        "p"
      ],
      [
        "v",
        "en"
      ],
      [
        "âģł",
        "--"
      ],
      [
        "Ġab",
        "out"
      ],
      [
        "ĠS",
        "t"
      ],
      [
        "Ġl",
        "i"
      ],
      [
        "Ġkn",
        "ow"
      ],
      [
        "m",
        "ent"
      ],
      [
        "Ġc",
        "om"
      ],
      [
        "it",
        "y"
      ],
      [
        "f",
        "ter"
      ],
      [
        "Ġ",
        "."
      ],
      [
        "n",
        "e"
      ],
      [
        "ad",
        "e"
      ],
      [
        "Ġp",
        "o"
      ],
      [
        "Ġha",
        "nd"
      ],
      [
        "i",
        "es"
      ],
      [
        "Ġwh",
        "ich"
      ],
      [
        "Ġwhe",
        "n"
      ],
      [
        "a",
        "u"
      ],
      [
        "Ġw",
        "ill"
      ],
      [
        "it",
        "t"
      ],
      [
        "b",
        "er"
      ],
      [
        "u",
        "ll"
      ],
      [
        "Ġn",
        "e"
      ],
      [
        "Ġc",
        "ould"
      ],
      [
        "Ġc",
        "an"
      ],
      [
        "Ġ",
        "qu"
      ],
      [
        "Ġo",
        "ver"
      ],
      [
        "Ġ",
        "if"
      ],
      [
        "Ġa",
        "re"
      ],
      [
        "ĠM",
        "r"
      ],
      [
        "Ġg",
        "et"
      ],
      [
        "it",
        "e"
      ],
      [
        "h",
        "is"
      ],
      [
        "Ġw",
        "hat"
      ],
      [
        "ĠI",
        "t"
      ],
      [
        "!",
        "\""
      ],
      [
        "re",
        "e"
      ],
      [
        "Ġp",
        "ro"
      ],
      [
        "m",
        "an"
      ],
      [
        "a",
        "il"
      ],
      [
        "Ġt",
        "ime"
      ],
      [
        "r",
        "an"
      ],
      [
        "Ġb",
        "ack"
      ],
      [
        "i",
        "le"
      ],
      [
        "Ġu",
        "s"
      ],
      [
        "0",
        "0"
      ],
      [
        "p",
        "t"
      ],
      [
        "et",
        "ect"
      ],
      [
        "i",
        "re"
      ],
      [
        "all",
        "y"
      ],
      [
        "f",
        "or"
      ],
      [
        "Ġd",
        "own"
      ],
      [
        "Ġa",
        "r"
      ],
      [
        "se",
        "lf"
      ],
      [
        "l",
        "ed"
      ],
      [
        "ac",
        "t"
      ],
      [
        "f",
        "ore"
      ],
      [
        "s",
        "p"
      ],
      [
        "in",
        "k"
      ],
      [
        "Ġb",
        "l"
      ],
      [
        "o",
        "ll"
      ],
      [
        "p",
        "er"
      ],
      [
        "c",
        "c"
      ],
      [
        "Ġto",
        "o"
      ],
      [
        "ab",
        "le"
      ],
      [
        "b",
        "e"
      ],
      [
        "ou",
        "gh"
      ],
      [
        "en",
        "ce"
      ],
      [
        "Ġp",
        "re"
      ],
      [
        "Ġu",
        "n"
      ],
      [
        "i",
        "ed"
      ],
      [
        "Ġo",
        "ther"
      ],
      [
        "v",
        "ed"
      ],
      [
        "ot",
        "her"
      ],
      [
        "u",
        "d"
      ],
      [
        "Ġa",
        "d"
      ],
      [
        "at",
        "ed"
      ],
      [
        "ri",
        "ght"
      ],
      [
        "f",
        "t"
      ],
      [
        "Ġa",
        "fter"
      ],
      [
        "ar",
        "k"
      ],
      [
        "'",
        "ll"
      ],
      [
        "Ġg",
        "ot"
      ],
      [
        "as",
        "s"
      ],
      [
        "Ġ",
        "K"
      ],
      [
        "o",
        "b"
      ],
      [
        "Ġw",
        "ent"
      ],
      [
        "n",
        "g"
      ],
      [
        "ĠS",
        "he"
      ],
      [
        "od",
        "y"
      ],
      [
        "Ġtw",
        "o"
      ],
      [
        "t",
        "y"
      ],
      [
        "ag",
        "e"
      ],
      [
        "H",
        "e"
      ],
      [
        "or",
        "n"
      ],
      [
        "o",
        "ld"
      ],
      [
        "Ġdo",
        "or"
      ],
      [
        "Ġt",
        "r"
      ],
      [
        "Ġs",
        "ome"
      ],
      [
        "Ġ",
        "en"
      ],
      [
        "Ġag",
        "ain"
      ],
      [
        "o",
        "ve"
      ],
      [
        "re",
        "ss"
      ],
      [
        "nd",
        "er"
      ],
      [
        "Ġe",
        "y"
      ],
      [
        "Ġc",
        "l"
      ],
      [
        "Ġd",
        "ay"
      ],
      [
        "pp",
        "ed"
      ],
      [
        "Ġp",
        "r"
      ],
      [
        "Ġli",
        "ke"
      ],
      [
        "if",
        "e"
      ],
      [
        "Ġthe",
        "n"
      ],
      [
        "Ġn",
        "ow"
      ],
      [
        "or",
        "y"
      ],
      [
        "d",
        "er"
      ],
      [
        "Ġc",
        "ame"
      ],
      [
        "Ġc",
        "ar"
      ],
      [
        "b",
        "le"
      ],
      [
        "as",
        "e"
      ],
      [
        "ĠI",
        "n"
      ],
      [
        "Ġd",
        "is"
      ],
      [
        "i",
        "ous"
      ],
      [
        "Ġm",
        "ore"
      ],
      [
        "Ġthe",
        "ir"
      ],
      [
        "ar",
        "y"
      ],
      [
        "o",
        "se"
      ],
      [
        "an",
        "ce"
      ],
      [
        "rou",
        "gh"
      ],
      [
        "w",
        "n"
      ],
      [
        "ha",
        "r"
      ],
      [
        "u",
        "e"
      ],
      [
        "Ġc",
        "r"
      ],
      [
        "t",
        "ain"
      ],
      [
        "etect",
        "ive"
      ],
      [
        "Ġs",
        "m"
      ],
      [
        "itt",
        "le"
      ],
      [
        "Ġse",
        "e"
      ],
      [
        "ou",
        "se"
      ],
      [
        "o",
        "s"
      ],
      [
        "Ġbe",
        "fore"
      ],
      [
        "Y",
        "ou"
      ],
      [
        "ic",
        "t"
      ],
      [
        "i",
        "p"
      ],
      [
        "t",
        "hat"
      ],
      [
        "en",
        "ed"
      ],
      [
        "Ġto",
        "ld"
      ],
      [
        "ol",
        "ice"
      ],
      [
        "w",
        "as"
      ],
      [
        "at",
        "h"
      ],
      [
        "Ġro",
        "om"
      ],
      [
        "urn",
        "ed"
      ],
      [
        "Ġ",
        "'"
      ],
      [
        "ac",
        "h"
      ],
      [
        "Ġa",
        "m"
      ],
      [
        "he",
        "n"
      ],
      [
        "ir",
        "l"
      ],
      [
        "Ġs",
        "c"
      ],
      [
        "Ġon",
        "ly"
      ],
      [
        "Ġj",
        "ust"
      ],
      [
        "ir",
        "st"
      ],
      [
        "Ġm",
        "en"
      ],
      [
        "in",
        "t"
      ],
      [
        "one",
        "y"
      ],
      [
        "ĠY",
        "ou"
      ],
      [
        "im",
        "p"
      ],
      [
        "Ġg",
        "r"
      ],
      [
        "Ġm",
        "ade"
      ],
      [
        "Ġwhe",
        "re"
      ],
      [
        "rou",
        "nd"
      ],
      [
        "th",
        "ing"
      ],
      [
        "Ġ",
        "$"
      ],
      [
        "w",
        "e"
      ],
      [
        ".",
        "."
      ],
      [
        "ou",
        "nt"
      ],
      [
        "Ġs",
        "l"
      ],
      [
        "Ġb",
        "r"
      ],
      [
        "w",
        "ard"
      ],
      [
        "Ġf",
        "ace"
      ],
      [
        "ion",
        "s"
      ],
      [
        "Ġey",
        "es"
      ],
      [
        "re",
        "et"
      ],
      [
        "Ġl",
        "ittle"
      ],
      [
        "on",
        "t"
      ],
      [
        "i",
        "z"
      ],
      [
        "Ġa",
        "pp"
      ],
      [
        "b",
        "l"
      ],
      [
        "a",
        "v"
      ],
      [
        "ri",
        "ed"
      ],
      [
        "a",
        "ve"
      ],
      [
        "p",
        "h"
      ],
      [
        "ha",
        "d"
      ],
      [
        "Ġw",
        "ay"
      ],
      [
        "Ġf",
        "ound"
      ],
      [
        "g",
        "g"
      ],
      [
        "Ġb",
        "o"
      ],
      [
        "Ġy",
        "ear"
      ],
      [
        "at",
        "er"
      ],
      [
        "Ġhe",
        "ad"
      ],
      [
        "ĠW",
        "e"
      ],
      [
        "ĠB",
        "ut"
      ],
      [
        "st",
        "er"
      ],
      [
        "Ġhe",
        "re"
      ],
      [
        "Ġu",
        "nder"
      ],
      [
        "Ġt",
        "han"
      ],
      [
        "Ġh",
        "ow"
      ],
      [
        "Ġd",
        "on"
      ],
      [
        "Ġth",
        "rough"
      ],
      [
        "is",
        "s"
      ],
      [
        "Ġ",
        "right"
      ],
      [
        "Ġas",
        "ked"
      ],
      [
        "ou",
        "ght"
      ],
      [
        "Ġt",
        "ell"
      ],
      [
        "a",
        "w"
      ],
      [
        "o",
        "c"
      ],
      [
        "Ġg",
        "irl"
      ],
      [
        "a",
        "ir"
      ],
      [
        "re",
        "at"
      ],
      [
        "i",
        "ld"
      ],
      [
        "n",
        "ess"
      ],
      [
        "Ġc",
        "h"
      ],
      [
        "ing",
        "s"
      ],
      [
        "Ġ",
        "V"
      ],
      [
        "Ġm",
        "ur"
      ],
      [
        "Ġha",
        "s"
      ],
      [
        "w",
        "h"
      ],
      [
        "Ġw",
        "om"
      ],
      [
        "s",
        "h"
      ],
      [
        "Ġl",
        "et"
      ],
      [
        "â",
        "ĸ"
      ],
      [
        "a",
        "red"
      ],
      [
        "ĠA",
        "nd"
      ],
      [
        "Ġdid",
        "n"
      ],
      [
        "Ġo",
        "p"
      ],
      [
        "i",
        "al"
      ],
      [
        "Ġf",
        "e"
      ],
      [
        "Ġf",
        "irst"
      ],
      [
        "a",
        "z"
      ],
      [
        "n",
        "ed"
      ],
      [
        "Ġ",
        "ke"
      ],
      [
        "i",
        "ly"
      ],
      [
        "Ġn",
        "ew"
      ],
      [
        "Ġa",
        "way"
      ],
      [
        "c",
        "l"
      ],
      [
        "Ġe",
        "very"
      ],
      [
        "s",
        "on"
      ],
      [
        "Ġg",
        "u"
      ],
      [
        "Ġle",
        "ft"
      ],
      [
        "k",
        "s"
      ],
      [
        "I",
        "t"
      ],
      [
        "Ġs",
        "ay"
      ],
      [
        "Ġf",
        "l"
      ],
      [
        "f",
        "ul"
      ],
      [
        "k",
        "ing"
      ],
      [
        "Ġn",
        "ight"
      ],
      [
        "y",
        "ou"
      ],
      [
        "Ġth",
        "ink"
      ],
      [
        "Ġl",
        "ook"
      ],
      [
        "is",
        "h"
      ],
      [
        "Ġh",
        "ouse"
      ],
      [
        "u",
        "p"
      ],
      [
        "t",
        "on"
      ],
      [
        "Ġd",
        "es"
      ],
      [
        "Ġc",
        "all"
      ],
      [
        "t",
        "e"
      ],
      [
        "ĠMr",
        "s"
      ],
      [
        "Ġo",
        "ur"
      ],
      [
        "Ġp",
        "olice"
      ],
      [
        "o",
        "g"
      ],
      [
        "oo",
        "ked"
      ],
      [
        "Ġw",
        "r"
      ],
      [
        "Ġre",
        "m"
      ],
      [
        "c",
        "ed"
      ],
      [
        "Ġp",
        "art"
      ],
      [
        "Ġm",
        "ake"
      ],
      [
        "an",
        "g"
      ],
      [
        "'",
        "m"
      ],
      [
        "is",
        "on"
      ],
      [
        "w",
        "ith"
      ],
      [
        "Ġbe",
        "c"
      ],
      [
        "Ġat",
        "t"
      ],
      [
        "ct",
        "or"
      ],
      [
        "u",
        "ch"
      ],
      [
        "he",
        "re"
      ],
      [
        "Ġb",
        "et"
      ],
      [
        "Ġp",
        "ut"
      ],
      [
        "'",
        "ve"
      ],
      [
        "Ġw",
        "ant"
      ],
      [
        "Ġgo",
        "ing"
      ],
      [
        "he",
        "s"
      ],
      [
        "Ġm",
        "oney"
      ],
      [
        "Ġo",
        "ld"
      ],
      [
        "om",
        "et"
      ],
      [
        "or",
        "k"
      ],
      [
        "ers",
        "on"
      ],
      [
        "ĠN",
        "ew"
      ],
      [
        "Ġh",
        "ome"
      ],
      [
        "or",
        "d"
      ],
      [
        "Ġg",
        "ood"
      ],
      [
        "Ġin",
        "t"
      ],
      [
        "ot",
        "h"
      ],
      [
        "E",
        "R"
      ],
      [
        "Ġg",
        "l"
      ],
      [
        "p",
        "s"
      ],
      [
        "ĠC",
        "h"
      ],
      [
        "a",
        "id"
      ],
      [
        "e",
        "y"
      ],
      [
        "Ġe",
        "ven"
      ],
      [
        "Ġc",
        "ome"
      ],
      [
        "Ġp",
        "er"
      ],
      [
        "Ġk",
        "ill"
      ],
      [
        "l",
        "ess"
      ],
      [
        "id",
        "ent"
      ],
      [
        "Ġ",
        "2"
      ],
      [
        "e",
        "e"
      ],
      [
        "Ġre",
        "p"
      ],
      [
        "Ġkn",
        "ew"
      ],
      [
        "Ġtoo",
        "k"
      ],
      [
        "i",
        "a"
      ],
      [
        "t",
        "ing"
      ],
      [
        "Ġ",
        "very"
      ],
      [
        "at",
        "her"
      ],
      [
        "Ġs",
        "ec"
      ],
      [
        "v",
        "ing"
      ],
      [
        "Ġl",
        "ong"
      ],
      [
        "d",
        "ay"
      ],
      [
        "Ġc",
        "our"
      ],
      [
        "'",
        "d"
      ],
      [
        "u",
        "nd"
      ],
      [
        "i",
        "x"
      ],
      [
        "Ġ",
        "ent"
      ],
      [
        "Ġf",
        "r"
      ],
      [
        "Ġyear",
        "s"
      ],
      [
        "ar",
        "s"
      ],
      [
        "Ġl",
        "ooked"
      ],
      [
        "ow",
        "ed"
      ],
      [
        "Ġ",
        "-"
      ],
      [
        "g",
        "et"
      ],
      [
        "Ġwom",
        "an"
      ],
      [
        "b",
        "y"
      ],
      [
        "Ġa",
        "round"
      ],
      [
        "c",
        "hed"
      ],
      [
        "s",
        "o"
      ],
      [
        "Ġc",
        "ha"
      ],
      [
        "m",
        "ed"
      ],
      [
        "c",
        "o"
      ],
      [
        "iv",
        "es"
      ],
      [
        "Ġc",
        "lo"
      ],
      [
        "ri",
        "end"
      ],
      [
        "Ġ",
        "U"
      ],
      [
        "Ġsa",
        "w"
      ],
      [
        "re",
        "t"
      ],
      [
        "omet",
        "hing"
      ],
      [
        "s",
        "w"
      ],
      [
        "Ġre",
        "t"
      ],
      [
        "Ġbe",
        "l"
      ],
      [
        "'",
        "re"
      ],
      [
        "Ġsh",
        "ould"
      ],
      [
        "is",
        "e"
      ],
      [
        "a",
        "it"
      ],
      [
        "â",
        "Ģ"
      ],
      [
        "Ġit",
        "s"
      ],
      [
        "ak",
        "ing"
      ],
      [
        "an",
        "k"
      ],
      [
        "Ġo",
        "wn"
      ],
      [
        "Ġwh",
        "ile"
      ],
      [
        "as",
        "h"
      ],
      [
        "i",
        "gh"
      ],
      [
        "Ġt",
        "al"
      ],
      [
        "ĠH",
        "is"
      ],
      [
        "ĠThe",
        "y"
      ],
      [
        "Ġse",
        "em"
      ],
      [
        "au",
        "se"
      ],
      [
        "at",
        "ch"
      ],
      [
        "l",
        "ing"
      ],
      [
        "ĠM",
        "y"
      ],
      [
        "ter",
        "s"
      ],
      [
        "Ġnot",
        "hing"
      ],
      [
        "p",
        "ed"
      ],
      [
        "m",
        "er"
      ],
      [
        "in",
        "ess"
      ],
      [
        "Ġs",
        "w"
      ],
      [
        "o",
        "ot"
      ],
      [
        "n",
        "er"
      ],
      [
        "Ġf",
        "ew"
      ],
      [
        "Ġl",
        "ight"
      ],
      [
        "Ġt",
        "urned"
      ],
      [
        "s",
        "ide"
      ],
      [
        "d",
        "en"
      ],
      [
        "n",
        "ing"
      ],
      [
        "h",
        "y"
      ],
      [
        "Ġg",
        "un"
      ],
      [
        "ĠN",
        "o"
      ],
      [
        "Ġm",
        "ight"
      ],
      [
        "R",
        "E"
      ],
      [
        "Ġl",
        "ast"
      ],
      [
        "Ġc",
        "he"
      ],
      [
        "Ġth",
        "ought"
      ],
      [
        "en",
        "s"
      ],
      [
        "Ġa",
        "cc"
      ],
      [
        "ĠS",
        "p"
      ],
      [
        "ĠD",
        "etective"
      ],
      [
        "âĸ",
        "ł"
      ],
      [
        "Ġa",
        "c"
      ],
      [
        "Ġm",
        "in"
      ],
      [
        "Ġwor",
        "k"
      ],
      [
        "ow",
        "s"
      ],
      [
        "Ġt",
        "ake"
      ],
      [
        "Ġhim",
        "self"
      ],
      [
        "ĠThe",
        "re"
      ],
      [
        "Ġne",
        "ver"
      ],
      [
        "e",
        "ver"
      ],
      [
        "Ġt",
        "e"
      ],
      [
        "Ġf",
        "ind"
      ],
      [
        "ad",
        "y"
      ],
      [
        "it",
        "ion"
      ],
      [
        "ne",
        "y"
      ],
      [
        "B",
        "ut"
      ],
      [
        "W",
        "hat"
      ],
      [
        "d",
        "e"
      ],
      [
        "ĠT",
        "hat"
      ],
      [
        "Ġany",
        "thing"
      ],
      [
        "Ġm",
        "uch"
      ],
      [
        "ro",
        "ss"
      ],
      [
        "g",
        "ed"
      ],
      [
        "ic",
        "al"
      ],
      [
        "Ġth",
        "ree"
      ],
      [
        "Ġu",
        "nt"
      ],
      [
        "n",
        "ot"
      ],
      [
        "Ġwith",
        "out"
      ],
      [
        "oo",
        "l"
      ],
      [
        "em",
        "ent"
      ],
      [
        "Ġ",
        "("
      ],
      [
        "o",
        "ice"
      ],
      [
        "e",
        "x"
      ],
      [
        "ie",
        "f"
      ],
      [
        "er",
        "v"
      ],
      [
        "Ġb",
        "ody"
      ],
      [
        "Ġc",
        "o"
      ],
      [
        "Ġ",
        "imp"
      ],
      [
        "i",
        "an"
      ],
      [
        "Ġc",
        "ou"
      ],
      [
        "N",
        "o"
      ],
      [
        "Ġup",
        "on"
      ],
      [
        "g",
        "an"
      ],
      [
        "Ġm",
        "ust"
      ],
      [
        "Ġm",
        "ay"
      ],
      [
        "Ġc",
        "ase"
      ],
      [
        "ĠThe",
        "n"
      ],
      [
        "Ġre",
        "c"
      ],
      [
        "Ġh",
        "our"
      ],
      [
        "Ġcon",
        "t"
      ],
      [
        "Ġb",
        "ig"
      ],
      [
        "p",
        "le"
      ],
      [
        "I",
        "n"
      ],
      [
        "ep",
        "t"
      ],
      [
        "Ġex",
        "p"
      ],
      [
        "i",
        "ble"
      ],
      [
        "Ġin",
        "st"
      ],
      [
        "A",
        "nd"
      ],
      [
        "n",
        "y"
      ],
      [
        "Ġunt",
        "il"
      ],
      [
        "Ġf",
        "riend"
      ],
      [
        ".",
        ","
      ],
      [
        "T",
        "hat"
      ],
      [
        "ain",
        "ed"
      ],
      [
        "l",
        "i"
      ],
      [
        "g",
        "er"
      ],
      [
        "Ġs",
        "at"
      ],
      [
        "or",
        "s"
      ],
      [
        "Ġan",
        "other"
      ],
      [
        "Ġhand",
        "s"
      ],
      [
        "Ġw",
        "ell"
      ],
      [
        "W",
        "e"
      ],
      [
        "p",
        "e"
      ],
      [
        "Ġb",
        "u"
      ],
      [
        "Ġpl",
        "ace"
      ],
      [
        "Ġb",
        "us"
      ],
      [
        "ĠI",
        "f"
      ],
      [
        "Ġa",
        "ct"
      ],
      [
        "Ġc",
        "le"
      ],
      [
        "an",
        "y"
      ],
      [
        "Ġn",
        "ame"
      ],
      [
        "if",
        "f"
      ],
      [
        "I",
        "N"
      ],
      [
        "Ġc",
        "are"
      ],
      [
        "m",
        "e"
      ],
      [
        "m",
        "it"
      ],
      [
        "on",
        "s"
      ],
      [
        "Ġ",
        "3"
      ],
      [
        "ig",
        "n"
      ],
      [
        "o",
        "ck"
      ],
      [
        "Ġs",
        "omething"
      ],
      [
        "i",
        "red"
      ],
      [
        "b",
        "ut"
      ],
      [
        "u",
        "b"
      ],
      [
        "Ġf",
        "oll"
      ],
      [
        "orn",
        "ing"
      ],
      [
        "Ġmin",
        "ut"
      ],
      [
        "ru",
        "e"
      ],
      [
        "Ġl",
        "ife"
      ],
      [
        "a",
        "ut"
      ],
      [
        "O",
        "N"
      ],
      [
        "Ġc",
        "han"
      ],
      [
        "Ġs",
        "ent"
      ],
      [
        "b",
        "ody"
      ],
      [
        "a",
        "pp"
      ],
      [
        "art",
        "ment"
      ],
      [
        "s",
        "ent"
      ],
      [
        "Ġd",
        "ec"
      ],
      [
        "Ġday",
        "s"
      ],
      [
        "Ġst",
        "ill"
      ],
      [
        "lo",
        "ck"
      ],
      [
        "Ġad",
        "d"
      ],
      [
        "Ġp",
        "ay"
      ],
      [
        "ent",
        "y"
      ],
      [
        "le",
        "y"
      ],
      [
        "Ġbe",
        "ing"
      ],
      [
        "Ġm",
        "ost"
      ],
      [
        "Ġhe",
        "ard"
      ],
      [
        "m",
        "ost"
      ],
      [
        "l",
        "es"
      ],
      [
        "h",
        "im"
      ],
      [
        "Ġs",
        "ha"
      ],
      [
        "Ġe",
        "m"
      ],
      [
        "Ġwor",
        "d"
      ],
      [
        "Ġthe",
        "se"
      ],
      [
        "p",
        "r"
      ],
      [
        "om",
        "ent"
      ],
      [
        "o",
        "y"
      ],
      [
        "re",
        "w"
      ],
      [
        "at",
        "ter"
      ],
      [
        "Ġmur",
        "der"
      ],
      [
        "on",
        "th"
      ],
      [
        "Ġqu",
        "est"
      ],
      [
        "ul",
        "t"
      ],
      [
        "u",
        "ff"
      ],
      [
        "Ġha",
        "r"
      ],
      [
        "Ġg",
        "ive"
      ],
      [
        "is",
        "hed"
      ],
      [
        "Ġcon",
        "f"
      ],
      [
        "Ġf",
        "ar"
      ],
      [
        "ĠT",
        "his"
      ],
      [
        "Ġt",
        "ri"
      ],
      [
        "ĠT",
        "h"
      ],
      [
        "at",
        "t"
      ],
      [
        "Ġhe",
        "l"
      ],
      [
        "ull",
        "y"
      ],
      [
        "lo",
        "or"
      ],
      [
        "s",
        "ed"
      ],
      [
        "ut",
        "h"
      ],
      [
        "ow",
        "ing"
      ],
      [
        "Ġd",
        "ark"
      ],
      [
        "b",
        "ed"
      ],
      [
        "at",
        "ing"
      ],
      [
        "Ġen",
        "ough"
      ],
      [
        "Ġs",
        "ide"
      ],
      [
        "ak",
        "en"
      ],
      [
        "Ġb",
        "ook"
      ],
      [
        "Ġse",
        "nd"
      ],
      [
        "Â",
        "«"
      ],
      [
        "ĠB",
        "r"
      ],
      [
        "Ġop",
        "en"
      ],
      [
        "Ġin",
        "v"
      ],
      [
        "A",
        "N"
      ],
      [
        "Ġst",
        "ory"
      ],
      [
        "Ġw",
        "ind"
      ],
      [
        "Ġf",
        "act"
      ],
      [
        "ĠY",
        "ork"
      ],
      [
        "m",
        "y"
      ],
      [
        "Ġv",
        "oice"
      ],
      [
        "an",
        "c"
      ],
      [
        "Ġde",
        "ad"
      ],
      [
        "Ġp",
        "e"
      ],
      [
        "Ġse",
        "en"
      ],
      [
        "u",
        "al"
      ],
      [
        "for",
        "m"
      ],
      [
        "f",
        "e"
      ],
      [
        "h",
        "ind"
      ],
      [
        "Ġm",
        "et"
      ],
      [
        "Ġe",
        "nd"
      ],
      [
        "Ġagain",
        "st"
      ],
      [
        "n",
        "o"
      ],
      [
        "Â",
        "»"
      ],
      [
        "e",
        "k"
      ],
      [
        "i",
        "o"
      ],
      [
        "Ġas",
        "s"
      ],
      [
        "Ġe",
        "v"
      ],
      [
        "Ġha",
        "lf"
      ],
      [
        "Ġoff",
        "ice"
      ],
      [
        "k",
        "n"
      ],
      [
        "Ġw",
        "ait"
      ],
      [
        "Ġp",
        "ass"
      ],
      [
        "Ġan",
        "sw"
      ],
      [
        "Ġn",
        "ear"
      ],
      [
        "m",
        "en"
      ],
      [
        "Ġf",
        "in"
      ],
      [
        "Ġyou",
        "ng"
      ],
      [
        "im",
        "es"
      ],
      [
        "an",
        "ted"
      ],
      [
        "un",
        "g"
      ],
      [
        "Ġm",
        "orning"
      ],
      [
        "Ġp",
        "erson"
      ],
      [
        "i",
        "am"
      ],
      [
        "ot",
        "t"
      ],
      [
        "Ġ",
        "im"
      ],
      [
        "Ġm",
        "oment"
      ],
      [
        "i",
        "b"
      ],
      [
        "ĠC",
        "l"
      ],
      [
        "Ġha",
        "pp"
      ],
      [
        "ĠA",
        "t"
      ],
      [
        "Ġl",
        "ater"
      ],
      [
        "Ġth",
        "ing"
      ],
      [
        "Ġcall",
        "ed"
      ],
      [
        "Ġs",
        "et"
      ],
      [
        "us",
        "p"
      ],
      [
        "Ġt",
        "ry"
      ],
      [
        "it",
        "s"
      ],
      [
        "S",
        "he"
      ],
      [
        "we",
        "en"
      ],
      [
        "Ġde",
        "ath"
      ],
      [
        "Ġc",
        "har"
      ],
      [
        "ĠSt",
        "reet"
      ],
      [
        "Ġm",
        "o"
      ],
      [
        "Ġd",
        "ep"
      ],
      [
        "S",
        "t"
      ],
      [
        "Ġe",
        "ver"
      ],
      [
        "ĠJ",
        "o"
      ],
      [
        "Ġcom",
        "p"
      ],
      [
        "Ġf",
        "ell"
      ],
      [
        "Ġsh",
        "ot"
      ],
      [
        "Ġw",
        "al"
      ],
      [
        "Ġbo",
        "y"
      ],
      [
        "Ġre",
        "ad"
      ],
      [
        "au",
        "ght"
      ],
      [
        "er",
        "tain"
      ],
      [
        "Ġo",
        "b"
      ],
      [
        "Ġst",
        "e"
      ],
      [
        "an",
        "s"
      ],
      [
        "ar",
        "ted"
      ],
      [
        "i",
        "et"
      ],
      [
        "u",
        "red"
      ],
      [
        "Ġg",
        "reat"
      ],
      [
        "Ġs",
        "ame"
      ],
      [
        "is",
        "ed"
      ],
      [
        "Ġon",
        "ce"
      ],
      [
        "Ġin",
        "d"
      ],
      [
        "Ġw",
        "ife"
      ],
      [
        "x",
        "t"
      ],
      [
        "Ġst",
        "and"
      ],
      [
        "of",
        "f"
      ],
      [
        "o",
        "ver"
      ],
      [
        "Ġe",
        "ar"
      ],
      [
        "r",
        "ow"
      ],
      [
        "Ġth",
        "ose"
      ],
      [
        "The",
        "re"
      ],
      [
        "Ġke",
        "ep"
      ],
      [
        "Ġar",
        "m"
      ],
      [
        "us",
        "ed"
      ],
      [
        "M",
        "r"
      ],
      [
        "u",
        "ck"
      ],
      [
        "ac",
        "ed"
      ],
      [
        "Ġcour",
        "se"
      ],
      [
        "Ġre",
        "s"
      ],
      [
        "Ġseem",
        "ed"
      ],
      [
        "Ġm",
        "onth"
      ],
      [
        "Ġg",
        "ave"
      ],
      [
        "ĠD",
        "o"
      ],
      [
        "h",
        "n"
      ],
      [
        "u",
        "ed"
      ],
      [
        "Ġd",
        "ro"
      ],
      [
        "Ġh",
        "old"
      ],
      [
        "E",
        "N"
      ],
      [
        "Ġ",
        "i"
      ],
      [
        "Ġe",
        "l"
      ],
      [
        "ag",
        "o"
      ],
      [
        "Ġf",
        "loor"
      ],
      [
        "Ġ",
        ";"
      ],
      [
        "Ġbe",
        "hind"
      ],
      [
        "way",
        "s"
      ],
      [
        "sp",
        "ect"
      ],
      [
        "im",
        "in"
      ],
      [
        "it",
        "ed"
      ],
      [
        "Ġe",
        "as"
      ],
      [
        "Ġl",
        "ear"
      ],
      [
        "A",
        "R"
      ],
      [
        "ec",
        "ted"
      ],
      [
        "i",
        "ent"
      ],
      [
        "he",
        "ad"
      ],
      [
        "en",
        "se"
      ],
      [
        "in",
        "ed"
      ],
      [
        "re",
        "n"
      ],
      [
        "ous",
        "and"
      ],
      [
        "ou",
        "th"
      ],
      [
        "c",
        "om"
      ],
      [
        "Ġfe",
        "et"
      ],
      [
        "Ġp",
        "h"
      ],
      [
        "id",
        "ence"
      ],
      [
        "Ġman",
        "y"
      ],
      [
        "f",
        "rom"
      ],
      [
        "rou",
        "ght"
      ],
      [
        "ro",
        "om"
      ],
      [
        "Ġfr",
        "ont"
      ],
      [
        "Ġbec",
        "ause"
      ],
      [
        "Ġg",
        "iv"
      ],
      [
        "ent",
        "ion"
      ],
      [
        "Ġj",
        "ob"
      ],
      [
        "ap",
        "er"
      ],
      [
        "Ġto",
        "ward"
      ],
      [
        "Ġsu",
        "ch"
      ],
      [
        "Ġst",
        "ood"
      ],
      [
        "Ġs",
        "ur"
      ],
      [
        "und",
        "red"
      ],
      [
        "ur",
        "ing"
      ],
      [
        "h",
        "o"
      ],
      [
        "Ġc",
        "ur"
      ],
      [
        "ul",
        "ar"
      ],
      [
        "Ġpo",
        "ss"
      ],
      [
        "ĠB",
        "l"
      ],
      [
        "Ġbl",
        "ack"
      ],
      [
        "Ġd",
        "ri"
      ],
      [
        "Ġ",
        ":"
      ],
      [
        "et",
        "e"
      ],
      [
        "Ġoff",
        "ic"
      ],
      [
        "Ġsm",
        "all"
      ],
      [
        "Ġst",
        "reet"
      ],
      [
        "Ġre",
        "al"
      ],
      [
        "Ġf",
        "ing"
      ],
      [
        "Ġpr",
        "ison"
      ],
      [
        "ac",
        "hed"
      ],
      [
        "ro",
        "ad"
      ],
      [
        "Y",
        "es"
      ],
      [
        "v",
        "es"
      ],
      [
        "d",
        "ed"
      ],
      [
        "Ġbus",
        "iness"
      ],
      [
        "ĠW",
        "ill"
      ],
      [
        "ĠF",
        "ran"
      ],
      [
        "s",
        "c"
      ],
      [
        "it",
        "her"
      ],
      [
        "Ġm",
        "ar"
      ],
      [
        "Ġne",
        "ed"
      ],
      [
        "T",
        "his"
      ],
      [
        "in",
        "s"
      ],
      [
        "re",
        "st"
      ],
      [
        "Ġpl",
        "ay"
      ],
      [
        "Ġbet",
        "ween"
      ],
      [
        "Ġs",
        "usp"
      ],
      [
        "a",
        "x"
      ],
      [
        "iv",
        "ed"
      ],
      [
        "Ġb",
        "re"
      ],
      [
        "ĠSp",
        "ade"
      ],
      [
        "op",
        "le"
      ],
      [
        "Ġqu",
        "ick"
      ],
      [
        "d",
        "u"
      ],
      [
        "Ġsu",
        "pp"
      ],
      [
        "Ġg",
        "one"
      ],
      [
        "Ġsu",
        "re"
      ],
      [
        "Ġb",
        "ed"
      ],
      [
        "Ġminut",
        "es"
      ],
      [
        "Ġe",
        "ach"
      ],
      [
        "Ġr",
        "un"
      ],
      [
        "l",
        "and"
      ],
      [
        "ere",
        "st"
      ],
      [
        "Ġbel",
        "ie"
      ],
      [
        "Ġc",
        "ount"
      ],
      [
        "at",
        "es"
      ],
      [
        "ĠMy",
        "ster"
      ],
      [
        "Ġhel",
        "p"
      ],
      [
        "ation",
        "s"
      ],
      [
        "Ġd",
        "et"
      ],
      [
        "Ġm",
        "ind"
      ],
      [
        "Ġ1",
        "9"
      ],
      [
        "Ġin",
        "c"
      ],
      [
        "Ġcr",
        "ime"
      ],
      [
        "iz",
        "ed"
      ],
      [
        "f",
        "ully"
      ],
      [
        "Ġth",
        "ings"
      ],
      [
        "ab",
        "ly"
      ],
      [
        "ate",
        "ly"
      ],
      [
        "Ġd",
        "ist"
      ],
      [
        "Ġt",
        "aken"
      ],
      [
        "Ġa",
        "p"
      ],
      [
        "en",
        "c"
      ],
      [
        "Ġf",
        "ree"
      ],
      [
        "Ġal",
        "ong"
      ],
      [
        "d",
        "o"
      ],
      [
        "b",
        "r"
      ],
      [
        "Ġd",
        "etective"
      ],
      [
        "ow",
        "er"
      ],
      [
        "en",
        "e"
      ],
      [
        "Ġquest",
        "ion"
      ],
      [
        "âĢ",
        "¢"
      ],
      [
        "ĠW",
        "hen"
      ],
      [
        "Ġcha",
        "ir"
      ],
      [
        "Ġd",
        "ire"
      ],
      [
        "ic",
        "ago"
      ],
      [
        "am",
        "p"
      ],
      [
        "Ġd",
        "r"
      ],
      [
        "Â",
        "¬"
      ],
      [
        "t",
        "s"
      ],
      [
        "w",
        "o"
      ],
      [
        "Ġal",
        "most"
      ],
      [
        "Ġw",
        "anted"
      ],
      [
        "Ġte",
        "le"
      ],
      [
        "ha",
        "m"
      ],
      [
        "Ġkill",
        "ed"
      ],
      [
        "an",
        "e"
      ],
      [
        "Ġdis",
        "c"
      ],
      [
        "ag",
        "az"
      ],
      [
        "Ġ",
        "!"
      ],
      [
        "ĠD",
        "e"
      ],
      [
        "T",
        "H"
      ],
      [
        "Ġp",
        "le"
      ],
      [
        "ĠL",
        "e"
      ],
      [
        "u",
        "ally"
      ],
      [
        "Ġhar",
        "d"
      ],
      [
        "ir",
        "d"
      ],
      [
        "Ġro",
        "ad"
      ],
      [
        "y",
        "ing"
      ],
      [
        "Ġd",
        "one"
      ],
      [
        "Ġt",
        "ra"
      ],
      [
        "ent",
        "s"
      ],
      [
        "Ġmur",
        "d"
      ],
      [
        "Ġne",
        "xt"
      ],
      [
        "air",
        "s"
      ],
      [
        "Ġa",
        "ut"
      ],
      [
        "Ġre",
        "st"
      ],
      [
        "Ġs",
        "il"
      ],
      [
        "Ġf",
        "our"
      ],
      [
        "ce",
        "pt"
      ],
      [
        "Ġbe",
        "gan"
      ],
      [
        "etect",
        "ives"
      ],
      [
        "Ġ",
        "4"
      ],
      [
        "Ġst",
        "r"
      ],
      [
        "ĠM",
        "c"
      ],
      [
        "um",
        "ber"
      ],
      [
        "mit",
        "ted"
      ],
      [
        "Ġt",
        "en"
      ],
      [
        "Ġf",
        "ull"
      ],
      [
        "as",
        "on"
      ],
      [
        "00",
        "0"
      ],
      [
        "Ġt",
        "er"
      ],
      [
        "o",
        "ke"
      ],
      [
        "Ġb",
        "rought"
      ],
      [
        "in",
        "ce"
      ],
      [
        "Ġhe",
        "ld"
      ],
      [
        "Ġha",
        "ir"
      ],
      [
        "id",
        "ed"
      ],
      [
        "ove",
        "red"
      ],
      [
        "u",
        "g"
      ],
      [
        "al",
        "s"
      ],
      [
        "re",
        "am"
      ],
      [
        "ec",
        "k"
      ],
      [
        "um",
        "b"
      ],
      [
        "ĠMyster",
        "ies"
      ],
      [
        "Ġs",
        "le"
      ],
      [
        "le",
        "ct"
      ],
      [
        "E",
        "S"
      ],
      [
        "Ġsec",
        "ond"
      ],
      [
        "ĠH",
        "er"
      ],
      [
        "Ġd",
        "el"
      ],
      [
        "H",
        "ow"
      ],
      [
        "ra",
        "w"
      ],
      [
        "Ġs",
        "n"
      ],
      [
        "el",
        "t"
      ],
      [
        "The",
        "n"
      ],
      [
        "Ġb",
        "oth"
      ],
      [
        "Ġdo",
        "ll"
      ],
      [
        "t",
        "r"
      ],
      [
        "w",
        "ere"
      ],
      [
        "Ġcom",
        "pl"
      ],
      [
        "c",
        "le"
      ],
      [
        "ĠM",
        "iss"
      ],
      [
        "Ġh",
        "undred"
      ],
      [
        "Ġwas",
        "n"
      ],
      [
        "Ġre",
        "g"
      ],
      [
        "i",
        "er"
      ],
      [
        "Ġf",
        "ive"
      ],
      [
        "agaz",
        "ine"
      ],
      [
        "ĠC",
        "ar"
      ],
      [
        "in",
        "c"
      ],
      [
        "Ġ",
        "*"
      ],
      [
        "Ġst",
        "o"
      ],
      [
        "e",
        "ared"
      ],
      [
        "il",
        "ed"
      ],
      [
        "Ġ",
        "5"
      ],
      [
        "Ġtr",
        "ain"
      ],
      [
        "Ġs",
        "k"
      ],
      [
        "RE",
        "E"
      ],
      [
        "Ġal",
        "ways"
      ],
      [
        "Ġw",
        "atch"
      ],
      [
        "Ġst",
        "ep"
      ],
      [
        "get",
        "her"
      ],
      [
        "c",
        "on"
      ],
      [
        "p",
        "on"
      ],
      [
        "Ġl",
        "aw"
      ],
      [
        "Ġpo",
        "s"
      ],
      [
        "it",
        "ies"
      ],
      [
        "form",
        "ation"
      ],
      [
        "Ġf",
        "am"
      ],
      [
        "Ġal",
        "so"
      ],
      [
        "Ġkn",
        "own"
      ],
      [
        "Ġsu",
        "b"
      ],
      [
        "ck",
        "et"
      ],
      [
        "Ġac",
        "ross"
      ],
      [
        "Ġex",
        "pl"
      ],
      [
        "ĠCh",
        "icago"
      ],
      [
        "Ġth",
        "ousand"
      ],
      [
        "er",
        "ing"
      ],
      [
        "Ġc",
        "or"
      ],
      [
        "Ġt",
        "urn"
      ],
      [
        "Ġint",
        "erest"
      ],
      [
        "Ġp",
        "rom"
      ],
      [
        "l",
        "et"
      ],
      [
        "th",
        "is"
      ],
      [
        "Ġclo",
        "se"
      ],
      [
        "or",
        "ney"
      ],
      [
        "Ġus",
        "ed"
      ],
      [
        "e",
        "ed"
      ],
      [
        "Ġsh",
        "ort"
      ],
      [
        "Ġmy",
        "self"
      ],
      [
        "T",
        "I"
      ],
      [
        "a",
        "h"
      ],
      [
        "in",
        "es"
      ],
      [
        "ic",
        "ked"
      ],
      [
        "Ġpe",
        "ople"
      ],
      [
        "b",
        "and"
      ],
      [
        "Ġu",
        "se"
      ],
      [
        "ar",
        "ing"
      ],
      [
        "Ġh",
        "igh"
      ],
      [
        "O",
        "R"
      ],
      [
        "Ġor",
        "d"
      ],
      [
        "em",
        "ber"
      ],
      [
        "Ġpo",
        "cket"
      ],
      [
        "Ġdo",
        "es"
      ],
      [
        "if",
        "ic"
      ],
      [
        "st",
        "and"
      ],
      [
        "T",
        "rue"
      ],
      [
        "Ġin",
        "ter"
      ],
      [
        "ut",
        "e"
      ],
      [
        "ha",
        "ve"
      ],
      [
        "Ġcom",
        "m"
      ],
      [
        "Ġe",
        "ff"
      ],
      [
        "ess",
        "ion"
      ],
      [
        "Ġtw",
        "enty"
      ],
      [
        "W",
        "ell"
      ],
      [
        "ou",
        "n"
      ],
      [
        "ĠA",
        "l"
      ],
      [
        "Ġad",
        "v"
      ],
      [
        "ent",
        "ly"
      ],
      [
        "Ġre",
        "ce"
      ],
      [
        "Ġso",
        "on"
      ],
      [
        "Ġm",
        "atter"
      ],
      [
        "Ġf",
        "ig"
      ],
      [
        "Ġo",
        "cc"
      ],
      [
        "Ġl",
        "au"
      ],
      [
        "Ġp",
        "ur"
      ],
      [
        "ot",
        "el"
      ],
      [
        "Ġre",
        "l"
      ],
      [
        "ĠO",
        "n"
      ],
      [
        "d",
        "d"
      ],
      [
        "Ġc",
        "ity"
      ],
      [
        "Ġtal",
        "k"
      ],
      [
        "in",
        "ued"
      ],
      [
        "i",
        "ence"
      ],
      [
        "Ġp",
        "u"
      ],
      [
        "ĠJo",
        "hn"
      ],
      [
        "Ġr",
        "an"
      ],
      [
        "I",
        "f"
      ],
      [
        "w",
        "ould"
      ],
      [
        "Ġt",
        "able"
      ],
      [
        "Ġle",
        "ad"
      ],
      [
        "Ġb",
        "ank"
      ],
      [
        "Ġl",
        "ar"
      ],
      [
        "ver",
        "s"
      ],
      [
        "ver",
        "al"
      ],
      [
        "The",
        "y"
      ],
      [
        "Ġwind",
        "ow"
      ],
      [
        "Ġh",
        "us"
      ],
      [
        "ĠF",
        "or"
      ],
      [
        "Ġbet",
        "ter"
      ],
      [
        "ab",
        "out"
      ],
      [
        "Ġp",
        "ost"
      ],
      [
        "Ġs",
        "ix"
      ],
      [
        "O",
        "U"
      ],
      [
        "Ġwh",
        "y"
      ],
      [
        "Ġc",
        "orn"
      ],
      [
        "Ġw",
        "ond"
      ],
      [
        "Ġc",
        "ertain"
      ],
      [
        "ĠM",
        "ar"
      ],
      [
        "Ġbl",
        "ood"
      ],
      [
        "s",
        "he"
      ],
      [
        "w",
        "or"
      ],
      [
        "ure",
        "s"
      ],
      [
        "Ġsu",
        "d"
      ],
      [
        "ct",
        "ion"
      ],
      [
        "a",
        "le"
      ],
      [
        "ur",
        "y"
      ],
      [
        "Ġcould",
        "n"
      ],
      [
        "es",
        "c"
      ],
      [
        "Ġpo",
        "int"
      ],
      [
        "Ġop",
        "ened"
      ],
      [
        "Ġme",
        "an"
      ],
      [
        "ag",
        "ed"
      ],
      [
        "wh",
        "ich"
      ],
      [
        "w",
        "here"
      ],
      [
        "Ġw",
        "on"
      ],
      [
        "Ġl",
        "oc"
      ],
      [
        "Ġhour",
        "s"
      ],
      [
        "Ġwh",
        "ite"
      ],
      [
        "Ġcon",
        "v"
      ],
      [
        "Ġre",
        "f"
      ],
      [
        "est",
        "ig"
      ],
      [
        "Ġret",
        "urned"
      ],
      [
        "Ġs",
        "er"
      ],
      [
        "Ġst",
        "arted"
      ],
      [
        "den",
        "ly"
      ],
      [
        "Ġh",
        "ur"
      ],
      [
        "iv",
        "ing"
      ],
      [
        "Ġaut",
        "om"
      ],
      [
        "be",
        "en"
      ],
      [
        "Ġgiv",
        "en"
      ],
      [
        "Ġth",
        "ough"
      ],
      [
        "ri",
        "v"
      ],
      [
        "un",
        "t"
      ],
      [
        "Ġv",
        "is"
      ],
      [
        "is",
        "ter"
      ],
      [
        "Ġh",
        "op"
      ],
      [
        "h",
        "od"
      ],
      [
        "g",
        "r"
      ],
      [
        "ĠC",
        "o"
      ],
      [
        "Ġd",
        "ou"
      ],
      [
        "Ġlook",
        "ing"
      ],
      [
        "âĸ",
        "¡"
      ],
      [
        "W",
        "hen"
      ],
      [
        "Ġm",
        "ail"
      ],
      [
        "l",
        "ight"
      ],
      [
        "er",
        "k"
      ],
      [
        "Ġdoll",
        "ars"
      ],
      [
        "e",
        "ad"
      ],
      [
        "ĠS",
        "ch"
      ],
      [
        "u",
        "c"
      ],
      [
        "iz",
        "e"
      ],
      [
        "ĠE",
        "ng"
      ],
      [
        "ĠD",
        "ept"
      ],
      [
        "ĠDo",
        "ctor"
      ],
      [
        "Ġro",
        "b"
      ],
      [
        "ild",
        "ing"
      ],
      [
        "T",
        "E"
      ],
      [
        "p",
        "ro"
      ],
      [
        "T",
        "h"
      ],
      [
        "Ġs",
        "ound"
      ],
      [
        "er",
        "n"
      ],
      [
        "ha",
        "ps"
      ],
      [
        "Ġc",
        "ap"
      ],
      [
        "as",
        "ter"
      ],
      [
        "f",
        "ort"
      ],
      [
        "Ġor",
        "der"
      ],
      [
        "ph",
        "one"
      ],
      [
        "ve",
        "lo"
      ],
      [
        "Ġsto",
        "pped"
      ],
      [
        "ar",
        "m"
      ],
      [
        "ir",
        "ty"
      ],
      [
        "ĠW",
        "hat"
      ],
      [
        "Ġd",
        "iff"
      ],
      [
        "c",
        "lock"
      ],
      [
        "Ġb",
        "it"
      ],
      [
        "o",
        "ss"
      ],
      [
        "Ġt",
        "ried"
      ],
      [
        "c",
        "r"
      ],
      [
        "ha",
        "nd"
      ],
      [
        "wh",
        "o"
      ],
      [
        "Ġw",
        "all"
      ],
      [
        "ĠA",
        "s"
      ],
      [
        "ro",
        "o"
      ],
      [
        "Ġel",
        "se"
      ],
      [
        "f",
        "l"
      ],
      [
        "ve",
        "l"
      ],
      [
        "n",
        "ow"
      ],
      [
        "A",
        "s"
      ],
      [
        "Ġl",
        "ist"
      ],
      [
        "Ġy",
        "et"
      ],
      [
        "ĠA",
        "r"
      ],
      [
        "Ġl",
        "ay"
      ],
      [
        "lo",
        "y"
      ],
      [
        "om",
        "p"
      ],
      [
        "Ġcon",
        "s"
      ],
      [
        "Ġin",
        "formation"
      ],
      [
        "Ġadd",
        "ress"
      ],
      [
        "en",
        "er"
      ],
      [
        "Ġre",
        "pl"
      ],
      [
        "Ġto",
        "gether"
      ],
      [
        "Ġsh",
        "ow"
      ],
      [
        "ar",
        "r"
      ],
      [
        "no",
        "on"
      ],
      [
        "al",
        "th"
      ],
      [
        "Ġwe",
        "ek"
      ],
      [
        "A",
        "L"
      ],
      [
        "in",
        "ted"
      ],
      [
        "ĠS",
        "o"
      ],
      [
        "Ġk",
        "ind"
      ],
      [
        "Ġb",
        "ro"
      ],
      [
        "Ġse",
        "veral"
      ],
      [
        "Ġbe",
        "aut"
      ],
      [
        "ĠP",
        "r"
      ],
      [
        "Ġret",
        "urn"
      ],
      [
        "Ġchan",
        "ce"
      ],
      [
        "k",
        "en"
      ],
      [
        "is",
        "f"
      ],
      [
        "ĠW",
        "h"
      ],
      [
        "Ġpre",
        "t"
      ],
      [
        "g",
        "in"
      ],
      [
        "Ġa",
        "ff"
      ],
      [
        "ec",
        "ess"
      ],
      [
        "Ġf",
        "ire"
      ],
      [
        "ri",
        "ff"
      ],
      [
        "ect",
        "ion"
      ],
      [
        "Ġst",
        "art"
      ],
      [
        "Ġl",
        "ot"
      ],
      [
        "re",
        "ed"
      ],
      [
        "Ġwor",
        "ld"
      ],
      [
        "Ġword",
        "s"
      ],
      [
        "I",
        "C"
      ],
      [
        "y",
        "our"
      ],
      [
        "ious",
        "ly"
      ],
      [
        "Ġcr",
        "imin"
      ],
      [
        "D",
        "o"
      ],
      [
        "Ġc",
        "ol"
      ],
      [
        "us",
        "hed"
      ],
      [
        "ra",
        "ight"
      ],
      [
        "Ġwal",
        "ked"
      ],
      [
        "l",
        "er"
      ],
      [
        "Ġm",
        "ot"
      ],
      [
        "Ġd",
        "etectives"
      ],
      [
        "Ġp",
        "ict"
      ],
      [
        "if",
        "ied"
      ],
      [
        "Ġp",
        "ast"
      ],
      [
        "ĠG",
        "r"
      ],
      [
        "A",
        "t"
      ],
      [
        "N",
        "ot"
      ],
      [
        "Ġb",
        "es"
      ],
      [
        "re",
        "m"
      ],
      [
        "Ġfe",
        "el"
      ],
      [
        "Ġt",
        "rou"
      ],
      [
        "Ġf",
        "ore"
      ],
      [
        "Ġin",
        "s"
      ],
      [
        "Ġ",
        "Q"
      ],
      [
        "Ġre",
        "d"
      ],
      [
        "itt",
        "ing"
      ],
      [
        "Ġsec",
        "ret"
      ],
      [
        "n",
        "ight"
      ],
      [
        "Ġlet",
        "ter"
      ],
      [
        "Ġd",
        "em"
      ],
      [
        "Ġex",
        "per"
      ],
      [
        "Ġ1",
        "0"
      ],
      [
        "Ġex",
        "c"
      ],
      [
        "of",
        "t"
      ],
      [
        "Ġs",
        "ir"
      ],
      [
        "ĠC",
        "O"
      ],
      [
        "the",
        "y"
      ],
      [
        "us",
        "h"
      ],
      [
        "ri",
        "ll"
      ],
      [
        "Ġar",
        "rest"
      ],
      [
        "i",
        "ec"
      ],
      [
        "Ġde",
        "f"
      ],
      [
        "l",
        "or"
      ],
      [
        "ĠSt",
        "ate"
      ],
      [
        "Ġre",
        "ached"
      ],
      [
        "Ġse",
        "ar"
      ],
      [
        "Ġcorn",
        "er"
      ],
      [
        "ĠS",
        "an"
      ],
      [
        "Ġst",
        "ran"
      ],
      [
        "Ġre",
        "ason"
      ],
      [
        "e",
        "ks"
      ],
      [
        "ond",
        "s"
      ],
      [
        "Ġbelie",
        "ve"
      ],
      [
        "r",
        "ite"
      ],
      [
        "Ġf",
        "elt"
      ],
      [
        "g",
        "u"
      ],
      [
        "w",
        "hen"
      ],
      [
        "ĠB",
        "e"
      ],
      [
        "Ġn",
        "od"
      ],
      [
        "Ġtry",
        "ing"
      ],
      [
        "p",
        "loy"
      ],
      [
        "Ġb",
        "est"
      ],
      [
        "g",
        "o"
      ],
      [
        "Ġother",
        "s"
      ],
      [
        "Ġfriend",
        "s"
      ],
      [
        "Ġl",
        "ove"
      ],
      [
        "Ġ",
        "6"
      ],
      [
        "am",
        "es"
      ],
      [
        "Ġp",
        "ull"
      ],
      [
        "ment",
        "s"
      ],
      [
        "Ġpre",
        "sent"
      ],
      [
        "re",
        "ad"
      ],
      [
        "Ġag",
        "o"
      ],
      [
        "Ġhus",
        "band"
      ],
      [
        "h",
        "ow"
      ],
      [
        "r",
        "ic"
      ],
      [
        "re",
        "s"
      ],
      [
        "Ġm",
        "outh"
      ],
      [
        "on",
        "es"
      ],
      [
        "or",
        "r"
      ],
      [
        "et",
        "s"
      ],
      [
        "ĠA",
        "ll"
      ],
      [
        "Ġpl",
        "an"
      ],
      [
        "O",
        "n"
      ],
      [
        "the",
        "re"
      ],
      [
        "ĠB",
        "ill"
      ],
      [
        "Ġhapp",
        "ened"
      ],
      [
        "Ġap",
        "artment"
      ],
      [
        "Ġl",
        "ow"
      ],
      [
        "ap",
        "ers"
      ],
      [
        "Ġeas",
        "y"
      ],
      [
        "ra",
        "ph"
      ],
      [
        "Ġev",
        "idence"
      ],
      [
        "c",
        "an"
      ],
      [
        "r",
        "it"
      ],
      [
        "Ġ",
        "ide"
      ],
      [
        "ĠA",
        "n"
      ],
      [
        "ak",
        "es"
      ],
      [
        "Ġ",
        "ident"
      ],
      [
        "Ġch",
        "ild"
      ],
      [
        "Ġhe",
        "ar"
      ],
      [
        "are",
        "nt"
      ],
      [
        "Ġpro",
        "f"
      ],
      [
        "ĠF",
        "REE"
      ],
      [
        "Ġb",
        "ull"
      ],
      [
        "Ġmy",
        "ster"
      ],
      [
        "Ġwould",
        "n"
      ],
      [
        "Ġ",
        "ed"
      ],
      [
        "D",
        "on"
      ],
      [
        "ĠM",
        "an"
      ],
      [
        "ard",
        "s"
      ],
      [
        "Ġs",
        "qu"
      ],
      [
        "Ġf",
        "if"
      ],
      [
        "ant",
        "s"
      ],
      [
        "ar",
        "n"
      ],
      [
        "ic",
        "ally"
      ],
      [
        "Ġafter",
        "noon"
      ],
      [
        "5",
        "0"
      ],
      [
        "ie",
        "ld"
      ],
      [
        "Ġs",
        "ince"
      ],
      [
        "med",
        "i"
      ],
      [
        "se",
        "c"
      ],
      [
        "Ġn",
        "or"
      ],
      [
        "v",
        "i"
      ],
      [
        "S",
        "T"
      ],
      [
        "ru",
        "ck"
      ],
      [
        "Ġl",
        "o"
      ],
      [
        "av",
        "ing"
      ],
      [
        "Ġmonth",
        "s"
      ],
      [
        "er",
        "y"
      ],
      [
        "ĠC",
        "ity"
      ],
      [
        "Ġo",
        "pp"
      ],
      [
        "li",
        "ke"
      ],
      [
        "v",
        "ol"
      ],
      [
        "se",
        "l"
      ],
      [
        "g",
        "l"
      ],
      [
        "Ġ",
        ","
      ],
      [
        "at",
        "ive"
      ],
      [
        "cc",
        "ess"
      ],
      [
        "M",
        "y"
      ],
      [
        "is",
        "ted"
      ],
      [
        "ain",
        "s"
      ],
      [
        "ear",
        "s"
      ],
      [
        "Ġcle",
        "ar"
      ],
      [
        "Ġc",
        "oll"
      ],
      [
        "at",
        "ur"
      ],
      [
        "Ġha",
        "ving"
      ],
      [
        "Ġfoll",
        "owed"
      ],
      [
        "--",
        "\""
      ],
      [
        "Ġm",
        "us"
      ],
      [
        "Ġl",
        "ess"
      ],
      [
        "N",
        "ow"
      ],
      [
        "Ġa",
        "w"
      ],
      [
        "Ġs",
        "imp"
      ],
      [
        "ĠW",
        "ith"
      ],
      [
        "Ġtri",
        "al"
      ],
      [
        "c",
        "ri"
      ],
      [
        "Ġm",
        "aking"
      ],
      [
        "Ġc",
        "ig"
      ],
      [
        "ĠH",
        "ow"
      ],
      [
        "Ġwom",
        "en"
      ],
      [
        "Ġinv",
        "estig"
      ],
      [
        "Ġ",
        "ri"
      ],
      [
        "Ġto",
        "wn"
      ],
      [
        "Ġha",
        "t"
      ],
      [
        "Ġsp",
        "e"
      ],
      [
        "Ġquick",
        "ly"
      ],
      [
        "Ġlar",
        "ge"
      ],
      [
        "Ġst",
        "ud"
      ],
      [
        "bl",
        "ic"
      ],
      [
        "Ġdet",
        "ail"
      ],
      [
        "il",
        "es"
      ],
      [
        "Ġget",
        "ting"
      ],
      [
        "Ġche",
        "ck"
      ],
      [
        "ain",
        "t"
      ],
      [
        "Ġex",
        "am"
      ],
      [
        "re",
        "en"
      ],
      [
        "Ġs",
        "erv"
      ],
      [
        "Ġf",
        "oot"
      ],
      [
        "ĠO",
        "ne"
      ],
      [
        "Ġpass",
        "ed"
      ],
      [
        "j",
        "ect"
      ],
      [
        "Ġc",
        "ir"
      ],
      [
        "Ġd",
        "ress"
      ],
      [
        "Ġke",
        "pt"
      ],
      [
        "Ġme",
        "m"
      ],
      [
        "end",
        "ed"
      ],
      [
        "Ġrepl",
        "ied"
      ],
      [
        "L",
        "E"
      ],
      [
        "W",
        "hy"
      ],
      [
        "t",
        "ime"
      ],
      [
        "Ġb",
        "ad"
      ],
      [
        "ow",
        "ly"
      ],
      [
        "Ġdo",
        "ctor"
      ],
      [
        "ĠH",
        "ar"
      ],
      [
        "ĠJ",
        "ack"
      ],
      [
        "Ġc",
        "ut"
      ],
      [
        "ach",
        "ine"
      ],
      [
        "Ġhe",
        "av"
      ],
      [
        "Ġh",
        "o"
      ],
      [
        "Ġs",
        "ol"
      ],
      [
        "a",
        "i"
      ],
      [
        "ill",
        "e"
      ],
      [
        "Ġs",
        "ign"
      ],
      [
        "Ġv",
        "al"
      ],
      [
        "spect",
        "or"
      ],
      [
        "Ġs",
        "ort"
      ],
      [
        "Ġp",
        "aper"
      ],
      [
        "Ġf",
        "ather"
      ],
      [
        "ĠN",
        "ow"
      ],
      [
        "as",
        "ed"
      ],
      [
        "es",
        "ted"
      ],
      [
        "Ġ",
        "?\""
      ],
      [
        "if",
        "ul"
      ],
      [
        "s",
        "aid"
      ],
      [
        "Ġal",
        "one"
      ],
      [
        "Ġtele",
        "phone"
      ],
      [
        "Ġto",
        "day"
      ],
      [
        "m",
        "s"
      ],
      [
        "it",
        "al"
      ],
      [
        "ec",
        "ial"
      ],
      [
        "Ġansw",
        "er"
      ],
      [
        "ecess",
        "ary"
      ],
      [
        "b",
        "t"
      ],
      [
        "b",
        "ably"
      ],
      [
        "c",
        "is"
      ],
      [
        "Ġf",
        "ur"
      ],
      [
        "ar",
        "ters"
      ],
      [
        "al",
        "es"
      ],
      [
        "Ġcom",
        "ing"
      ],
      [
        "Ġb",
        "ur"
      ],
      [
        "Ġfell",
        "ow"
      ],
      [
        "i",
        "ver"
      ],
      [
        "Ġhe",
        "art"
      ],
      [
        "Ġd",
        "uring"
      ],
      [
        "Ġst",
        "raight"
      ],
      [
        "c",
        "ha"
      ],
      [
        "in",
        "ation"
      ],
      [
        "Ġin",
        "side"
      ],
      [
        "e",
        "al"
      ],
      [
        "am",
        "ed"
      ],
      [
        "ere",
        "r"
      ],
      [
        "Ġcl",
        "ot"
      ],
      [
        "r",
        "ict"
      ],
      [
        "the",
        "m"
      ],
      [
        "Ġqu",
        "iet"
      ],
      [
        "Ġdis",
        "app"
      ],
      [
        "IN",
        "G"
      ],
      [
        "A",
        "ll"
      ],
      [
        "p",
        "ted"
      ],
      [
        "re",
        "ady"
      ],
      [
        "on",
        "ed"
      ],
      [
        "at",
        "or"
      ],
      [
        "ĠE",
        "x"
      ],
      [
        "Ġco",
        "at"
      ],
      [
        "as",
        "hed"
      ],
      [
        "Ġle",
        "ave"
      ],
      [
        "I",
        "I"
      ],
      [
        "Ġ",
        "âĸł"
      ],
      [
        "um",
        "p"
      ],
      [
        "Ġme",
        "et"
      ],
      [
        "b",
        "ack"
      ],
      [
        "at",
        "ched"
      ],
      [
        "Ġcount",
        "ry"
      ],
      [
        "ĠN",
        "ot"
      ],
      [
        "Ġli",
        "ps"
      ],
      [
        "Ġbec",
        "ame"
      ],
      [
        "ĠU",
        "n"
      ],
      [
        "Ġcompl",
        "ete"
      ],
      [
        "Ġw",
        "it"
      ],
      [
        "Ġsud",
        "denly"
      ],
      [
        "Ġeven",
        "ing"
      ],
      [
        "Ġent",
        "ered"
      ],
      [
        "s",
        "er"
      ],
      [
        "Ġdes",
        "k"
      ],
      [
        "Ġb",
        "and"
      ],
      [
        "Ġwith",
        "in"
      ],
      [
        "Ġlear",
        "ned"
      ],
      [
        "Ġph",
        "ot"
      ],
      [
        ".",
        "'"
      ],
      [
        "i",
        "i"
      ],
      [
        "Ġm",
        "iss"
      ],
      [
        "en",
        "ing"
      ],
      [
        "al",
        "d"
      ],
      [
        "ac",
        "es"
      ],
      [
        "Ġnod",
        "ded"
      ],
      [
        "ĠB",
        "ur"
      ],
      [
        "Ġ",
        "7"
      ],
      [
        "et",
        "t"
      ],
      [
        "ven",
        "ue"
      ],
      [
        "Ġb",
        "ar"
      ],
      [
        "er",
        "t"
      ],
      [
        "ort",
        "un"
      ],
      [
        "O",
        "h"
      ],
      [
        "on",
        "y"
      ],
      [
        "ĠC",
        "ap"
      ],
      [
        "es",
        "ter"
      ],
      [
        "ĠS",
        "end"
      ],
      [
        "ill",
        "ed"
      ],
      [
        "and",
        "ed"
      ],
      [
        "c",
        "ould"
      ],
      [
        "re",
        "c"
      ],
      [
        "or",
        "ies"
      ],
      [
        "ob",
        "ile"
      ],
      [
        "esc",
        "ap"
      ],
      [
        "Ġp",
        "ar"
      ],
      [
        "Ġsh",
        "ook"
      ],
      [
        "Ġex",
        "t"
      ],
      [
        "os",
        "ed"
      ],
      [
        "ore",
        "d"
      ],
      [
        "Ġm",
        "ove"
      ],
      [
        "at",
        "ic"
      ],
      [
        "ĠR",
        "o"
      ],
      [
        "Ġtr",
        "uth"
      ],
      [
        "ĠM",
        "agazine"
      ],
      [
        "Ġ19",
        "2"
      ],
      [
        "Ġha",
        "ll"
      ],
      [
        "ber",
        "t"
      ],
      [
        "h",
        "ouse"
      ],
      [
        "Ġex",
        "cept"
      ],
      [
        "te",
        "en"
      ],
      [
        "Ġcour",
        "t"
      ],
      [
        "F",
        "or"
      ],
      [
        "ut",
        "ion"
      ],
      [
        "st",
        "r"
      ],
      [
        "Ġey",
        "e"
      ],
      [
        "A",
        "T"
      ],
      [
        "a",
        "im"
      ],
      [
        "Ġt",
        "est"
      ],
      [
        "Ġh",
        "otel"
      ],
      [
        "Ġle",
        "g"
      ],
      [
        "Ġle",
        "ast"
      ],
      [
        "Ġansw",
        "ered"
      ],
      [
        "Ġt",
        "ou"
      ],
      [
        "at",
        "ure"
      ],
      [
        "ant",
        "ly"
      ],
      [
        "ip",
        "s"
      ],
      [
        "b",
        "o"
      ],
      [
        "Ġsa",
        "fe"
      ],
      [
        "Ġcou",
        "pon"
      ],
      [
        "Mr",
        "s"
      ],
      [
        "c",
        "he"
      ],
      [
        "en",
        "n"
      ],
      [
        "Ġc",
        "op"
      ],
      [
        "O",
        "O"
      ],
      [
        "s",
        "ol"
      ],
      [
        "ar",
        "ant"
      ],
      [
        "Ġfor",
        "ward"
      ],
      [
        "Ġbes",
        "ide"
      ],
      [
        "Ġwho",
        "le"
      ],
      [
        "id",
        "es"
      ],
      [
        "Ġe",
        "ither"
      ],
      [
        "Ġwond",
        "er"
      ],
      [
        "in",
        "o"
      ],
      [
        "Ġc",
        "aught"
      ],
      [
        "ĠP",
        "er"
      ],
      [
        "ig",
        "an"
      ],
      [
        "Ġide",
        "a"
      ],
      [
        "1",
        "0"
      ],
      [
        "i",
        "pped"
      ],
      [
        "s",
        "ome"
      ],
      [
        "Ġfing",
        "er"
      ],
      [
        "in",
        "ing"
      ],
      [
        "Ġwh",
        "is"
      ],
      [
        "Ġposs",
        "ible"
      ],
      [
        "W",
        "ith"
      ],
      [
        "s",
        "u"
      ],
      [
        "w",
        "ill"
      ],
      [
        "Ġs",
        "had"
      ],
      [
        "Ġs",
        "oft"
      ],
      [
        "Ġp",
        "at"
      ],
      [
        "Ġp",
        "aid"
      ],
      [
        "Ġbr",
        "other"
      ],
      [
        "I",
        "S"
      ],
      [
        "Ġde",
        "ep"
      ],
      [
        "Ġgu",
        "ess"
      ],
      [
        "Ġar",
        "ri"
      ],
      [
        "Ġmet",
        "hod"
      ],
      [
        "Ġf",
        "at"
      ],
      [
        "Ġn",
        "umber"
      ],
      [
        "Ġpr",
        "ot"
      ],
      [
        "Ġdes",
        "cri"
      ],
      [
        "Ġst",
        "ore"
      ],
      [
        "O",
        "W"
      ],
      [
        "ĠP",
        "h"
      ],
      [
        "Ġ",
        "8"
      ],
      [
        "Ġt",
        "imes"
      ],
      [
        "ing",
        "ly"
      ],
      [
        "m",
        "ore"
      ],
      [
        "Ġb",
        "ott"
      ],
      [
        "ri",
        "e"
      ],
      [
        "i",
        "ke"
      ],
      [
        "el",
        "s"
      ],
      [
        "ber",
        "y"
      ],
      [
        "o",
        "int"
      ],
      [
        "le",
        "ase"
      ],
      [
        "I",
        "L"
      ],
      [
        "w",
        "hat"
      ],
      [
        "or",
        "ted"
      ],
      [
        "Ġem",
        "ploy"
      ],
      [
        "Ġim",
        "medi"
      ],
      [
        "c",
        "er"
      ],
      [
        "Ġc",
        "ash"
      ],
      [
        "Ġdo",
        "ing"
      ],
      [
        "S",
        "o"
      ],
      [
        "Ġsh",
        "oot"
      ],
      [
        "Ġc",
        "ost"
      ],
      [
        "pp",
        "ing"
      ],
      [
        "Ġoff",
        "er"
      ],
      [
        "Ġwait",
        "ing"
      ],
      [
        "e",
        "or"
      ],
      [
        "Ġgl",
        "ass"
      ],
      [
        "ĠBl",
        "ack"
      ],
      [
        "r",
        "ing"
      ],
      [
        "Ġw",
        "ater"
      ],
      [
        "Ġc",
        "old"
      ],
      [
        "Ġp",
        "age"
      ],
      [
        "un",
        "k"
      ],
      [
        "Ġr",
        "a"
      ],
      [
        "ru",
        "gg"
      ],
      [
        "v",
        "ent"
      ],
      [
        "in",
        "to"
      ],
      [
        "Ġe",
        "ight"
      ],
      [
        "Ġwh",
        "om"
      ],
      [
        "th",
        "ough"
      ],
      [
        "Ġab",
        "ove"
      ],
      [
        "Ġyour",
        "self"
      ],
      [
        "Ġsp",
        "oke"
      ],
      [
        "Ġent",
        "ire"
      ],
      [
        "as",
        "es"
      ],
      [
        "Ġhad",
        "n"
      ],
      [
        "ĠC",
        "an"
      ],
      [
        "ĠO",
        "r"
      ],
      [
        "Ġqu",
        "ite"
      ],
      [
        "r",
        "id"
      ],
      [
        "Ġen",
        "g"
      ],
      [
        "t",
        "en"
      ],
      [
        "Ġevery",
        "thing"
      ],
      [
        ",",
        "'"
      ],
      [
        ".",
        "--"
      ],
      [
        "Ġl",
        "iving"
      ],
      [
        "Ġe",
        "le"
      ],
      [
        "Ġcou",
        "ple"
      ],
      [
        "Ġ",
        "|"
      ],
      [
        "et",
        "h"
      ],
      [
        "it",
        "c"
      ],
      [
        "Ġout",
        "side"
      ],
      [
        "g",
        "hed"
      ],
      [
        "Ġg",
        "round"
      ],
      [
        "ag",
        "es"
      ],
      [
        "Ġr",
        "ather"
      ],
      [
        "ĠJ",
        "ust"
      ],
      [
        "Ġbo",
        "x"
      ],
      [
        "Ġl",
        "ine"
      ],
      [
        "Ġc",
        "ent"
      ],
      [
        "Ġc",
        "ond"
      ],
      [
        "Ġapp",
        "eared"
      ],
      [
        "Ġnew",
        "sp"
      ],
      [
        "w",
        "ell"
      ],
      [
        "Ġ",
        "ill"
      ],
      [
        "Ġm",
        "id"
      ],
      [
        "Ġ",
        "!\""
      ],
      [
        "Ġm",
        "other"
      ],
      [
        "ke",
        "y"
      ],
      [
        "ĠD",
        "on"
      ],
      [
        "ag",
        "ain"
      ],
      [
        "Ġsu",
        "gg"
      ],
      [
        "Ġsur",
        "pr"
      ],
      [
        "Ġfing",
        "ers"
      ],
      [
        "Ġdire",
        "ct"
      ],
      [
        "Ġfig",
        "ure"
      ],
      [
        "Ġsp",
        "ot"
      ],
      [
        "mer",
        "ic"
      ],
      [
        "g",
        "ing"
      ],
      [
        "iec",
        "e"
      ],
      [
        "u",
        "es"
      ],
      [
        "Ġg",
        "ang"
      ],
      [
        "Ġpre",
        "p"
      ],
      [
        "d",
        "own"
      ],
      [
        "an",
        "ced"
      ],
      [
        "qu",
        "arters"
      ],
      [
        "Ġs",
        "ight"
      ],
      [
        "Ġbre",
        "ak"
      ],
      [
        "Ġbu",
        "ilding"
      ],
      [
        "Ġmo",
        "ved"
      ],
      [
        "j",
        "ust"
      ],
      [
        "Ġa",
        "ir"
      ],
      [
        "are",
        "t"
      ],
      [
        "Ġunder",
        "stand"
      ],
      [
        "Ġt",
        "aking"
      ],
      [
        "Ġsear",
        "ch"
      ],
      [
        "C",
        "H"
      ],
      [
        "Ġc",
        "ell"
      ],
      [
        "id",
        "ing"
      ],
      [
        "ation",
        "al"
      ],
      [
        "ĠL",
        "ou"
      ],
      [
        "Ġdec",
        "ided"
      ],
      [
        "f",
        "ive"
      ],
      [
        "Ġf",
        "all"
      ],
      [
        "if",
        "t"
      ],
      [
        "Ġpart",
        "ic"
      ],
      [
        "Ġfoll",
        "owing"
      ],
      [
        "Ġm",
        "achine"
      ],
      [
        "Ġas",
        "k"
      ],
      [
        "Ġv",
        "i"
      ],
      [
        "Ġwho",
        "se"
      ],
      [
        "A",
        "Y"
      ],
      [
        "Ġp",
        "en"
      ],
      [
        "a",
        "used"
      ],
      [
        "Ġtal",
        "king"
      ],
      [
        "Ġstand",
        "ing"
      ],
      [
        "B",
        "y"
      ],
      [
        "b",
        "ers"
      ],
      [
        "Ġst",
        "ay"
      ],
      [
        "ĠP",
        "ro"
      ],
      [
        "em",
        "pt"
      ],
      [
        "Ġbr",
        "ing"
      ],
      [
        "Ġsat",
        "isf"
      ],
      [
        "ĠT",
        "o"
      ],
      [
        "ce",
        "ed"
      ],
      [
        "Ġsu",
        "ccess"
      ],
      [
        "ict",
        "im"
      ],
      [
        "Ġf",
        "ear"
      ],
      [
        "as",
        "k"
      ],
      [
        "il",
        "t"
      ],
      [
        "f",
        "ra"
      ],
      [
        "il",
        "ity"
      ],
      [
        "ive",
        "ly"
      ],
      [
        "ry",
        "ing"
      ],
      [
        "ac",
        "ked"
      ],
      [
        "Ġclo",
        "sed"
      ],
      [
        "al",
        "ed"
      ],
      [
        "s",
        "y"
      ],
      [
        "V",
        "E"
      ],
      [
        "f",
        "ect"
      ],
      [
        "Ġ",
        "ir"
      ],
      [
        "Ġl",
        "ed"
      ],
      [
        "ic",
        "es"
      ],
      [
        "âģł--",
        "\""
      ],
      [
        "ud",
        "ge"
      ],
      [
        "Ġke",
        "y"
      ],
      [
        "anc",
        "es"
      ],
      [
        "Ġf",
        "ail"
      ],
      [
        "ill",
        "s"
      ],
      [
        "Ġsh",
        "owed"
      ],
      [
        "I",
        "T"
      ],
      [
        "v",
        "ille"
      ],
      [
        "z",
        "z"
      ],
      [
        "ut",
        "y"
      ],
      [
        "Ġpret",
        "ty"
      ],
      [
        "Ġp",
        "icked"
      ],
      [
        "Ġre",
        "ally"
      ],
      [
        "Ġ",
        "9"
      ],
      [
        "um",
        "ped"
      ],
      [
        "Ġab",
        "le"
      ],
      [
        "a",
        "ff"
      ],
      [
        "s",
        "m"
      ],
      [
        "Ġs",
        "y"
      ],
      [
        "Ġsl",
        "owly"
      ],
      [
        "az",
        "ing"
      ],
      [
        "Ġwr",
        "it"
      ],
      [
        "i",
        "ar"
      ],
      [
        "an",
        "ed"
      ],
      [
        "Ġlear",
        "n"
      ],
      [
        "t",
        "wo"
      ],
      [
        "Ġ",
        "et"
      ],
      [
        "in",
        "n"
      ],
      [
        "Ġ1",
        "2"
      ],
      [
        "Ġcons",
        "id"
      ],
      [
        "Ġpict",
        "ure"
      ],
      [
        "3",
        "0"
      ],
      [
        "ic",
        "ed"
      ],
      [
        "Ġsle",
        "ep"
      ],
      [
        "on",
        "er"
      ],
      [
        "is",
        "ing"
      ],
      [
        "ĠC",
        "or"
      ],
      [
        "ag",
        "er"
      ],
      [
        "Ġbl",
        "ue"
      ],
      [
        "a",
        "fter"
      ],
      [
        "d",
        "le"
      ],
      [
        "Ġo",
        "per"
      ],
      [
        "ĠM",
        "ay"
      ],
      [
        "Ġdro",
        "pped"
      ],
      [
        "Ġf",
        "re"
      ],
      [
        "ĠI",
        "s"
      ],
      [
        "Ġfor",
        "m"
      ],
      [
        "tain",
        "ed"
      ],
      [
        "Ġdiff",
        "ere"
      ],
      [
        "c",
        "es"
      ],
      [
        "Ġb",
        "lock"
      ],
      [
        "Ġh",
        "um"
      ],
      [
        "Ġn",
        "erv"
      ],
      [
        "ra",
        "ve"
      ],
      [
        "ount",
        "y"
      ],
      [
        "cl",
        "ud"
      ],
      [
        "Ġwr",
        "ite"
      ],
      [
        "fra",
        "id"
      ],
      [
        "is",
        "to"
      ],
      [
        "at",
        "ement"
      ],
      [
        "qu",
        "est"
      ],
      [
        "Ġch",
        "ief"
      ],
      [
        "st",
        "e"
      ],
      [
        "ous",
        "ly"
      ],
      [
        "itt",
        "en"
      ],
      [
        "kn",
        "ow"
      ],
      [
        "Ġp",
        "ower"
      ],
      [
        "Ġapp",
        "ear"
      ],
      [
        "Ġ",
        "escap"
      ],
      [
        "om",
        "ew"
      ],
      [
        "ad",
        "io"
      ],
      [
        "ĠA",
        "venue"
      ],
      [
        "Ġar",
        "t"
      ],
      [
        "Ġchar",
        "ge"
      ],
      [
        "Ġtrou",
        "ble"
      ],
      [
        "Ġd",
        "raw"
      ],
      [
        "Ġre",
        "vol"
      ],
      [
        "ĠP",
        "olice"
      ],
      [
        "Ġimp",
        "ort"
      ],
      [
        "Ġdou",
        "bt"
      ],
      [
        "W",
        "ho"
      ],
      [
        "re",
        "sent"
      ],
      [
        "or",
        "m"
      ],
      [
        "st",
        "airs"
      ],
      [
        "ĠS",
        "h"
      ],
      [
        "th",
        "rough"
      ],
      [
        "a",
        "way"
      ],
      [
        "c",
        "ted"
      ],
      [
        "k",
        "er"
      ],
      [
        "Ġnew",
        "s"
      ],
      [
        "a",
        "pped"
      ],
      [
        "ĠS",
        "m"
      ],
      [
        "the",
        "n"
      ],
      [
        "ĠJ",
        "im"
      ],
      [
        "Ġpro",
        "bably"
      ],
      [
        "og",
        "raph"
      ],
      [
        "Ġsusp",
        "ic"
      ],
      [
        "f",
        "er"
      ],
      [
        "t",
        "orney"
      ],
      [
        "ent",
        "le"
      ],
      [
        "ĠC",
        "har"
      ],
      [
        "Ġwit",
        "ness"
      ],
      [
        "har",
        "p"
      ],
      [
        "aught",
        "er"
      ],
      [
        "Ġpull",
        "ed"
      ],
      [
        "Ġheav",
        "y"
      ],
      [
        "H",
        "E"
      ],
      [
        "c",
        "ked"
      ],
      [
        "m",
        "in"
      ],
      [
        "r",
        "ay"
      ],
      [
        "H",
        "is"
      ],
      [
        "Ġcar",
        "ried"
      ],
      [
        "ĠFran",
        "k"
      ],
      [
        "ar",
        "a"
      ],
      [
        "ĠC",
        "ol"
      ],
      [
        "ĠB",
        "o"
      ],
      [
        "ĠW",
        "rite"
      ],
      [
        "Ġwr",
        "ong"
      ],
      [
        "z",
        "e"
      ],
      [
        "Ġo",
        "bl"
      ],
      [
        "ĠA",
        "fter"
      ],
      [
        "ĠG",
        "od"
      ],
      [
        "c",
        "ome"
      ],
      [
        "Ġst",
        "ation"
      ],
      [
        "Ġatt",
        "ention"
      ],
      [
        "hy",
        "s"
      ],
      [
        "int",
        "s"
      ],
      [
        "Ġhow",
        "ever"
      ],
      [
        "Ġstr",
        "ong"
      ],
      [
        "s",
        "ing"
      ],
      [
        "Ġm",
        "ess"
      ],
      [
        "Ġth",
        "r"
      ],
      [
        "ff",
        "ic"
      ],
      [
        "..",
        ".."
      ],
      [
        "Ġwhe",
        "ther"
      ],
      [
        "ra",
        "ft"
      ],
      [
        "d",
        "id"
      ],
      [
        "Ġc",
        "roo"
      ],
      [
        "st",
        "ep"
      ],
      [
        "Ġsm",
        "iled"
      ],
      [
        "Ġcir",
        "c"
      ],
      [
        "Ġgr",
        "ay"
      ],
      [
        "Ġlau",
        "ghed"
      ],
      [
        "Ġimmedi",
        "ately"
      ],
      [
        "o",
        "e"
      ],
      [
        "u",
        "nder"
      ],
      [
        "Ġto",
        "p"
      ],
      [
        "ĠW",
        "est"
      ],
      [
        "Ġrep",
        "ort"
      ],
      [
        "ad",
        "ed"
      ],
      [
        "oo",
        "se"
      ],
      [
        "Ġg",
        "as"
      ],
      [
        "ĠSt",
        "ory"
      ],
      [
        "Ġarm",
        "s"
      ],
      [
        "f",
        "it"
      ],
      [
        "il",
        "ing"
      ],
      [
        "un",
        "e"
      ],
      [
        "Ġv",
        "ictim"
      ],
      [
        "Ġt",
        "all"
      ],
      [
        "ĠB",
        "ig"
      ],
      [
        "ru",
        "g"
      ],
      [
        "wh",
        "ile"
      ],
      [
        "ĠWill",
        "iam"
      ],
      [
        "Ġfam",
        "ily"
      ],
      [
        "Ġre",
        "ady"
      ],
      [
        "the",
        "ir"
      ],
      [
        "Ġex",
        "act"
      ],
      [
        "Ġde",
        "v"
      ],
      [
        "c",
        "lo"
      ],
      [
        "Ġd",
        "ied"
      ],
      [
        "Ġcont",
        "inued"
      ],
      [
        "ĠFran",
        "cis"
      ],
      [
        "Ġrece",
        "ived"
      ],
      [
        "Ġpu",
        "blic"
      ],
      [
        "g",
        "es"
      ],
      [
        "ĠW",
        "hy"
      ],
      [
        "Ġal",
        "ready"
      ],
      [
        "c",
        "ar"
      ],
      [
        "ra",
        "p"
      ],
      [
        "Ġexpl",
        "ained"
      ],
      [
        "t",
        "ered"
      ],
      [
        "Ġ",
        "_"
      ],
      [
        "ran",
        "k"
      ],
      [
        "Ġrec",
        "ord"
      ],
      [
        "D",
        "ept"
      ],
      [
        "c",
        "our"
      ],
      [
        "l",
        "ook"
      ],
      [
        "y",
        "p"
      ],
      [
        "led",
        "ge"
      ],
      [
        "Ġres",
        "ult"
      ],
      [
        "Ġautom",
        "obile"
      ],
      [
        "Ġcrimin",
        "al"
      ],
      [
        "s",
        "et"
      ],
      [
        "Ġw",
        "in"
      ],
      [
        "Ġw",
        "ear"
      ],
      [
        "ĠM",
        "ary"
      ],
      [
        "ĠB",
        "u"
      ],
      [
        "Ġpl",
        "aced"
      ],
      [
        "Ġste",
        "pped"
      ],
      [
        "Ġstep",
        "s"
      ],
      [
        "Ġ",
        "est"
      ],
      [
        "en",
        "g"
      ],
      [
        "ro",
        "at"
      ],
      [
        "ĠP",
        "at"
      ],
      [
        "ang",
        "er"
      ],
      [
        "L",
        "e"
      ],
      [
        "m",
        "iss"
      ],
      [
        "ist",
        "s"
      ],
      [
        "D",
        "id"
      ],
      [
        "Ġc",
        "ross"
      ],
      [
        "as",
        "hing"
      ],
      [
        "ir",
        "t"
      ],
      [
        "pp",
        "er"
      ],
      [
        "bl",
        "ing"
      ],
      [
        "B",
        "e"
      ],
      [
        "m",
        "p"
      ],
      [
        "ell",
        "ow"
      ],
      [
        "Ġr",
        "ing"
      ],
      [
        "Ġminut",
        "e"
      ],
      [
[...]
