{
  "version": "1.0",
  "truncation": null,
  "padding": null,
  "added_tokens": [
    {
      "id": 0,
      "content": "<|endoftext|>",
      "single_word": false,
      "lstrip": false,
      "rstrip": false,
      "normalized": false,
      "special": true
    },
    {
      "id": 1,
      "content": "<|eos|>",
      "single_word": false,
      "lstrip": false,
      "rstrip": false,
      "normalized": false,
      "special": true
    }
  ],
  "normalizer": null,
  "pre_tokenizer": {
    "type": "ByteLevel",
    "add_prefix_space": false,
    "trim_offsets": true,
    "use_regex": true
  },
  "post_processor": null,
  "decoder": {
    "type": "ByteLevel",
    "add_prefix_space": true,
    "trim_offsets": true,
    "use_regex": true
  },
  "model": {
    "type": "BPE",
    "dropout": null,
    "unk_token": null,
    "continuing_subword_prefix": null,
    "end_of_word_suffix": null,
    "fuse_unk": false,
    "byte_fallback": false,
    "ignore_merges": false,
    "vocab": {
      "<|endoftext|>": 0,
      "<|eos|>": 1,
      "!": 2,
      "\"": 3,
      "#": 4,
      "$": 5,
      "%": 6,
      "&": 7,
      "'": 8,
      "(": 9,
      ")": 10,
      "*": 11,
      "+": 12,
      ",": 13,
      "-": 14,
      ".": 15,
      "/": 16,
      "0": 17,
      "1": 18,
      "2": 19,
      "3": 20,
      "4": 21,
      "5": 22,
      "6": 23,
      "7": 24,
      "8": 25,
      "9": 26,
      ":": 27,
      ";": 28,
      "<": 29,
      "=": 30,
      ">": 31,
      "?": 32,
      "@": 33,
      "A": 34,
      "B": 35,
      "C": 36,
      "D": 37,
      "E": 38,
      "F": 39,
      "G": 40,
      "H": 41,
      "I": 42,
      "J": 43,
      "K": 44,
      "L": 45,
      "M": 46,
      "N": 47,
      "O": 48,
      "P": 49,
      "Q": 50,
      "R": 51,
      "S": 52,
      "T": 53,
      "U": 54,
      "V": 55,
      "W": 56,
      "X": 57,
      "Y": 58,
      "Z": 59,
      "[": 60,
      "\\": 61,
      "]": 62,
      "^": 63,
      "_": 64,
      "`": 65,
      "a": 66,
      "b": 67,
      "c": 68,
      "d": 69,
      "e": 70,
      "f": 71,
      "g": 72,
      "h": 73,
      "i": 74,
      "j": 75,
      "k": 76,
      "l": 77,
      "m": 78,
      "n": 79,
      "o": 80,
      "p": 81,
      "q": 82,
      "r": 83,
      "s": 84,
      "t": 85,
      "u": 86,
      "v": 87,
      "w": 88,
      "x": 89,
      "y": 90,
      "z": 91,
      "{": 92,
      "|": 93,
      "}": 94,
      "~": 95,
      "¡": 96,
      "¢": 97,
      "£": 98,
      "¤": 99,
      "¥": 100,
      "¦": 101,
      "§": 102,
      "¨": 103,
      "©": 104,
      "ª": 105,
      "«": 106,
      "¬": 107,
      "®": 108,
      "¯": 109,
      "°": 110,
      "±": 111,
      "²": 112,
      "³": 113,
      "´": 114,
      "¸": 115,
      "¹": 116,
      "º": 117,
      "»": 118,
      "¼": 119,
      "½": 120,
      "¿": 121,
      "Â": 122,
      "Ã": 123,
      "Ä": 124,
      "Å": 125,
      "É": 126,
      "Ê": 127,
      "á": 128,
      "â": 129,
      "Ċ": 130,
      "Ġ": 131,
      "Ģ": 132,
      "ģ": 133,
      "Ĥ": 134,
      "Ħ": 135,
      "ħ": 136,
      "Ĩ": 137,
      "Ī": 138,
      "ī": 139,
      "Ĭ": 140,
      "ĭ": 141,
      "į": 142,
      "İ": 143,
      "ı": 144,
      "Ĳ": 145,
      "ĳ": 146,
      "Ĵ": 147,
      "ĵ": 148,
      "ĸ": 149,
      "Ĺ": 150,
      "ĺ": 151,
      "Ļ": 152,
      "ļ": 153,
      "ľ": 154,
      "ŀ": 155,
      "ł": 156,
      "Ń": 157,
      "Ġt": 158,
      "he": 159,
      "Ġa": 160,
      "in": 161,
      "Ġthe": 162,
      "Ġw": 163,
      "Ġs": 164,
      "re": 165,
      "Ġo": 166,
      "ed": 167,
      "ou": 168,
      "nd": 169,
      "er": 170,
      "ha": 171,
      "Ġb": 172,
      "en": 173,
      "is": 174,
      "on": 175,
      "it": 176,
      "Ġm": 177,
      "Ġf": 178,
      "Ġc": 179,
      "ing": 180,
      "or": 181,
      "Ġto": 182,
      "ll": 183,
      "an": 184,
      "ar": 185,
      "Ġd": 186,
      "as": 187,
      "Ġof": 188,
      "Ġh": 189,
      "es": 190,
      "Ġand": 191,
      "Ġp": 192,
      "Ġin": 193,
      "Ġhe": 194,
      "at": 195,
      "Ġl": 196,
      "om": 197,
      "ĠI": 198,
      "Ġha": 199,
      "Ġg": 200,
      "hat": 201,
      "ow": 202,
      "ic": 203,
      "et": 204,
      "Ġn": 205,
      "ot": 206,
      "le": 207,
      "ut": 208,
      "id": 209,
      "im": 210,
      "Ġy": 211,
      "st": 212,
      "ve": 213,
      "Ġwas": 214,
      "ly": 215,
      "gh": 216,
      "ld": 217,
      "Ġyou": 218,
      "ac": 219,
      "ent": 220,
      "Ġbe": 221,
      "Ġe": 222,
      "Ġon": 223,
      "al": 224,
      "Ġthat": 225,
      "se": 226,
      "ay": 227,
      "Ġth": 228,
      "ĠT": 229,
      "Ġ\"": 230,
      "Ġhis": 231,
      "ro": 232,
      "Ġst": 233,
      "ad": 234,
      "ur": 235,
      "ĠS": 236,
      "Ġit": 237,
      "Ġu": 238,
      "ion": 239,
      "ĠH": 240,
      "Ġre": 241,
      "ght": 242,
      "ĠM": 243,
      "ver": 244,
      "ith": 245,
      "ir": 246,
      "--": 247,
      "'s": 248,
      "Ġhad": 249,
      "ri": 250,
      "Ġfor": 251,
      "the": 252,
      "am": 253,
      "oo": 254,
      "ĠC": 255,
      "ec": 256,
      "ere": 257,
      "Ġwith": 258,
      "Ġan": 259,
      "Ġas": 260,
      "ĠB": 261,
      ".\"": 262,
      "ill": 263,
      "and": 264,
      "ĠA": 265,
      "Ġat": 266,
      "ke": 267,
      "Ġhim": 268,
      "Ġwh": 269,
      "ter": 270,
      "ce": 271,
      "ain": 272,
      "ould": 273,
      "il": 274,
      "if": 275,
      "'t": 276,
      "th": 277,
      "Ġme": 278,
      "ĠThe": 279,
      "ĠW": 280,
      "pp": 281,
      "Ġk": 282,
      "to": 283,
      "ight": 284,
      "all": 285,
      "Ġsa": 286,
      "ĠD": 287,
      "rom": 288,
      ",\"": 289,
      "ag": 290,
      "Ġdo": 291,
      "un": 292,
      "Ġher": 293,
      "Ġnot": 294,
      "ess": 295,
      "ch": 296,
      "ked": 297,
      "Ġse": 298,
      "ĠHe": 299,
      "ted": 300,
      "ome": 301,
      "Ġis": 302,
      "ell": 303,
      "ore": 304,
      "us": 305,
      "out": 306,
      "ew": 307,
      "Ġr": 308,
      "ard": 309,
      "ack": 310,
      "The": 311,
      "ive": 312,
      "el": 313,
      "her": 314,
      "ĠP": 315,
      "Ġout": 316,
      "?\"": 317,
      "Ġup": 318,
      "one": 319,
      "ol": 320,
      "Ġsh": 321,
      "qu": 322,
      "Ġfrom": 323,
      "em": 324,
      "ant": 325,
      "Ġkn": 326,
      "red": 327,
      "ig": 328,
      "ers": 329,
      "Ġmy": 330,
      "ab": 331,
      "Ġman": 332,
      "ĠF": 333,
      "own": 334,
      "lo": 335,
      "ear": 336,
      "ust": 337,
      "rou": 338,
      "Ġsaid": 339,
      "ice": 340,
      "Ġhave": 341,
      "Ġshe": 342,
      "Ġthis": 343,
      "ame": 344,
      "ect": 345,
      "ul": 346,
      "ck": 347,
      "ind": 348,
      "est": 349,
      "ss": 350,
      "ĠN": 351,
      "Ġj": 352,
      "Ġor": 353,
      "Ġwhe": 354,
      "Ġsu": 355,
      "ra": 356,
      "ation": 357,
      "ĠL": 358,
      "ep": 359,
      "ous": 360,
      "our": 361,
      "Ġab": 362,
      "Ġwere": 363,
      "Ġone": 364,
      "art": 365,
      "of": 366,
      "Ġbut": 367,
      "Ġby": 368,
      "um": 369,
      "ĠR": 370,
      "Ġex": 371,
      "Ġwe": 372,
      "ie": 373,
      "ĠJ": 374,
      "ĠG": 375,
      "od": 376,
      "ct": 377,
      "ry": 378,
      "Ġbeen": 379,
      "ood": 380,
      "Ġcon": 381,
      "hed": 382,
      "Ġall": 383,
      "ĠO": 384,
      "Ġv": 385,
      "ate": 386,
      "ide": 387,
      "ak": 388,
      "ime": 389,
      "Ġro": 390,
      "Ġwho": 391,
      "ap": 392,
      "You": 393,
      "Ġli": 394,
      "ine": 395,
      "Ġle": 396,
      "ace": 397,
      "Ġyour": 398,
      "Ġso": 399,
      "ist": 400,
      "ook": 401,
      "Ġal": 402,
      "ĠE": 403,
      "way": 404,
      "ge": 405,
      "han": 406,
      "lf": 407,
      "ong": 408,
      "are": 409,
      "ast": 410,
      "ich": 411,
      "ered": 412,
      "Ġany": 413,
      "Ġwould": 414,
      "Ġdid": 415,
      "urn": 416,
      "ven": 417,
      "ort": 418,
      "ound": 419,
      "nt": 420,
      "Ġno": 421,
      "Ġthere": 422,
      "ick": 423,
      "hing": 424,
      "!\"": 425,
      "Ġpo": 426,
      "Ġsp": 427,
      "very": 428,
      "Ġpl": 429,
      "Ġinto": 430,
      "ure": 431,
      "Ġ--": 432,
      "Ġwor": 433,
      "ake": 434,
      "Ġabout": 435,
      "Ġde": 436,
      "Ġgo": 437,
      "Ġag": 438,
      "ff": 439,
      "Ġknow": 440,
      "Ġthey": 441,
      "pl": 442,
      "ru": 443,
      "Ġhand": 444,
      "Ġtw": 445,
      "Ġoff": 446,
      "Ġthem": 447,
      "op": 448,
      "ther": 449,
      "ost": 450,
      "Ġ1": 451,
      "Ġcom": 452,
      "ond": 453,
      "ĠSt": 454,
      "Ġget": 455,
      "au": 456,
      "itt": 457,
      "end": 458,
      "Ġqu": 459,
      "Ġwill": 460,
      "Ġwhen": 461,
      "Ġcan": 462,
      "Ġcould": 463,
      "Ġover": 464,
      "ull": 465,
      "his": 466,
      "fter": 467,
      "ved": 468,
      "Ġback": 469,
      "ĠIt": 470,
      "Ġare": 471,
      "Ġif": 472,
      "ne": 473,
      "ment": 474,
      "ity": 475,
      "Ġne": 476,
      "He": 477,
      "ite": 478,
      "Ġwhat": 479,
      "ber": 480,
      "man": 481,
      "Ġwhich": 482,
      "ĠMr": 483,
      "ade": 484,
      "led": 485,
      "Â¬": 486,
      "Ġdown": 487,
      "ran": 488,
      "self": 489,
      "Ġbl": 490,
      "ink": 491,
      "Ġtime": 492,
      "ies": 493,
      "ree": 494,
      "be": 495,
      "for": 496,
      "Ġpro": 497,
      "ile": 498,
      "Ġ.": 499,
      "right": 500,
      "pt": 501,
      "'ll": 502,
      "pped": 503,
      "ally": 504,
      "Ġsome": 505,
      "Ġdoor": 506,
      "Ġtoo": 507,
      "ail": 508,
      "fore": 509,
      "ire": 510,
      "Ġgot": 511,
      "Ġus": 512,
      "etect": 513,
      "Ġar": 514,
      "per": 515,
      "Ġey": 516,
      "ough": 517,
      "act": 518,
      "dd": 519,
      "oll": 520,
      "sp": 521,
      "âģ": 522,
      "âģł": 523,
      "Ġun": 524,
      "ress": 525,
      "Ġlike": 526,
      "cc": 527,
      "ty": 528,
      "ark": 529,
      "other": 530,
      "ied": 531,
      "Ġother": 532,
      "ass": 533,
      "able": 534,
      "Ġagain": 535,
      "ence": 536,
      "ft": 537,
      "ĠK": 538,
      "old": 539,
      "Ġthen": 540,
      "Ġnow": 541,
      "ated": 542,
      "ble": 543,
      "nder": 544,
      "orn": 545,
      "ving": 546,
      "âģł--": 547,
      "Ġtwo": 548,
      "Ġwent": 549,
      "ĠShe": 550,
      "Ġafter": 551,
      "ody": 552,
      "ob": 553,
      "00": 554,
      "ious": 555,
      "age": 556,
      "Ġcame": 557,
      "Ġsm": 558,
      "Ġcl": 559,
      "Ġen": 560,
      "ove": 561,
      "Ġsee": 562,
      "that": 563,
      "ng": 564,
      "Ġ'": 565,
      "rough": 566,
      "was": 567,
      "Ġtr": 568,
      "ened": 569,
      "Ġgr": 570,
      "ittle": 571,
      "Ġmore": 572,
      "ouse": 573,
      "Ġpre": 574,
      "ose": 575,
      "wn": 576,
      "ance": 577,
      "tain": 578,
      "ory": 579,
      "Ġcar": 580,
      "ase": 581,
      "Ġroom": 582,
      "der": 583,
      "reat": 584,
      "Ġpr": 585,
      "Ġeyes": 586,
      "ward": 587,
      "Ġsl": 588,
      "urned": 589,
      "Ġjust": 590,
      "Ġdis": 591,
      "etective": 592,
      "ife": 593,
      "ud": 594,
      "ue": 595,
      "ps": 596,
      "Ġsc": 597,
      "Ġbefore": 598,
      "az": 599,
      "Ġcr": 600,
      "os": 601,
      "hen": 602,
      "har": 603,
      "ĠY": 604,
      "ĠYou": 605,
      "ves": 606,
      "Ġtheir": 607,
      "ary": 608,
      "Ġhere": 609,
      "Ġlittle": 610,
      "Ġday": 611,
      "int": 612,
      "Ġface": 613,
      "ĠIn": 614,
      "ĠBut": 615,
      "imp": 616,
      "thing": 617,
      "sh": 618,
      "Ġbr": 619,
      "Ġonly": 620,
      "Ġhead": 621,
      "Ġdon": 622,
      "round": 623,
      "Ġright": 624,
      "Ġway": 625,
      "ave": 626,
      "ach": 627,
      "ought": 628,
      "ried": 629,
      "Ġwhere": 630,
      "had": 631,
      "we": 632,
      "Ġam": 633,
      "you": 634,
      "ĠAnd": 635,
      "Ġmade": 636,
      "iz": 637,
      "iss": 638,
      "Ġtold": 639,
      "bl": 640,
      "Ġmen": 641,
      "oney": 642,
      "ict": 643,
      "air": 644,
      "irst": 645,
      "ath": 646,
      "reet": 647,
      "ared": 648,
      "irl": 649,
      "Ġthrough": 650,
      "Ġfe": 651,
      "Ġapp": 652,
      "gg": 653,
      "ont": 654,
      "Ġunder": 655,
      "Ġbo": 656,
      "Ġop": 657,
      "Ġfl": 658,
      "..": 659,
      "Ġthan": 660,
      "'m": 661,
      "ip": 662,
      "ooked": 663,
      "Ġtell": 664,
      "wh": 665,
      "Ġyear": 666,
      "Ġhas": 667,
      "ee": 668,
      "ount": 669,
      "Ġfound": 670,
      "Ġthink": 671,
      "It": 672,
      "Ġlook": 673,
      "Ġdidn": 674,
      "Ġlet": 675,
      "alk": 676,
      "Ġke": 677,
      "ions": 678,
      "aw": 679,
      "ness": 680,
      "ings": 681,
      "Ġhow": 682,
      "ild": 683,
      "Ġch": 684,
      "Ġgu": 685,
      "Ġgl": 686,
      "Ġasked": 687,
      "Ġsay": 688,
      "ton": 689,
      "oc": 690,
      "Ġhouse": 691,
      "Ġleft": 692,
      "ĠV": 693,
      "Ġold": 694,
      "ful": 695,
      "ph": 696,
      "ater": 697,
      "cl": 698,
      "Ġwr": 699,
      "'ve": 700,
      "Ġaway": 701,
      "olice": 702,
      "ily": 703,
      "here": 704,
      "with": 705,
      "Ġ$": 706,
      "Ġmur": 707,
      "ned": 708,
      "omet": 709,
      "Ġad": 710,
      "Ġgirl": 711,
      "Ġnight": 712,
      "'d": 713,
      "ang": 714,
      "ish": 715,
      "te": 716,
      "Ġdes": 717,
      "up": 718,
      "Ġbet": 719,
      "Ġwom": 720,
      "ster": 721,
      "Ġfirst": 722,
      "Ġcall": 723,
      "ced": 724,
      "ars": 725,
      "aid": 726,
      "uch": 727,
      "Ġnew": 728,
      "ĠWe": 729,
      "Ġgood": 730,
      "Ġevery": 731,
      "Ġmake": 732,
      "Ġwant": 733,
      "Ġgoing": 734,
      "'re": 735,
      "Ġcome": 736,
      "Ġrem": 737,
      "ial": 738,
      "Ġlooked": 739,
      "ks": 740,
      "og": 741,
      "hes": 742,
      "ER": 743,
      "Ġlong": 744,
      "Ġvery": 745,
      "ched": 746,
      "ey": 747,
      "oot": 748,
      "Ġpart": 749,
      "ĠHis": 750,
      "ting": 751,
      "less": 752,
      "pe": 753,
      "Ġfr": 754,
      "Ġint": 755,
      "Ġeven": 756,
      "ather": 757,
      "Ġclo": 758,
      "Ġatt": 759,
      "Ġbec": 760,
      "Ġsaw": 761,
      "Ġput": 762,
      "ĠMrs": 763,
      "Ġmoney": 764,
      "Ġwork": 765,
      "Ġknew": 766,
      "son": 767,
      "Ġtook": 768,
      "Ġseem": 769,
      "Ġsw": 770,
      "atch": 771,
      "Ġlight": 772,
      "omething": 773,
      "ix": 774,
      "ork": 775,
      "ctor": 776,
      "ord": 777,
      "owed": 778,
      "ĠCh": 779,
      "Ġlast": 780,
      "ait": 781,
      "ley": 782,
      "ia": 783,
      "Ġshould": 784,
      "Ġour": 785,
      "Ġkill": 786,
      "sw": 787,
      "But": 788,
      "Ġyears": 789,
      "Ġcha": 790,
      "ped": 791,
      "ock": 792,
      "ank": 793,
      "erson": 794,
      "av": 795,
      "Ġper": 796,
      "ross": 797,
      "Ġturned": 798,
      "Ġhome": 799,
      "Ġaround": 800,
      "Ġthought": 801,
      "hy": 802,
      "Ġhimself": 803,
      "What": 804,
      "side": 805,
      "Ġent": 806,
      "get": 807,
      "Ġsec": 808,
      "Ġcour": 809,
      "ning": 810,
      "ison": 811,
      "over": 812,
      "ident": 813,
      "oice": 814,
      "And": 815,
      "li": 816,
      "so": 817,
      "Ġmight": 818,
      "ĠNew": 819,
      "ise": 820,
      "Ġac": 821,
      "ex": 822,
      "by": 823,
      "med": 824,
      "und": 825,
      "Ġbel": 826,
      "ash": 827,
      "Ġheard": 828,
      "de": 829,
      "ling": 830,
      "Ġgun": 831,
      "Ġpolice": 832,
      "oment": 833,
      "ret": 834,
      "ady": 835,
      "ĠThere": 836,
      "ny": 837,
      "Ġfew": 838,
      "aking": 839,
      "riend": 840,
      "Ġfind": 841,
      "Ġche": 842,
      "ĠThey": 843,
      "ause": 844,
      "iness": 845,
      "âĸ": 846,
      "Ġtake": 847,
      "not": 848,
      "Ġret": 849,
      "ĠU": 850,
      "ner": 851,
      "Ġwhile": 852,
      "ters": 853,
      "igh": 854,
      "Ġown": 855,
      "mer": 856,
      "ged": 857,
      "Ġwoman": 858,
      "ows": 859,
      "Ġmust": 860,
      "gan": 861,
      "Ġmin": 862,
      "Ġ2": 863,
      "Ġmuch": 864,
      "Ġnever": 865,
      "day": 866,
      "oth": 867,
      "That": 868,
      "Ġcare": 869,
      "ens": 870,
      "ĠThen": 871,
      "ever": 872,
      "Ġits": 873,
      "Ġnothing": 874,
      "him": 875,
      "Ġbig": 876,
      "me": 877,
      "Ġimp": 878,
      "Ġte": 879,
      "Ġhands": 880,
      "Ġexp": 881,
      "agaz": 882,
      "Ġstill": 883,
      "Ġrec": 884,
      "ub": 885,
      "Ġmoment": 886,
      "ĠDetective": 887,
      "Ġacc": 888,
      "ĠThat": 889,
      "Ġ-": 890,
      "pr": 891,
      "No": 892,
      "Ġmay": 893,
      "Ġthree": 894,
      "fe": 895,
      "ief": 896,
      "Ġbody": 897,
      "Ġwell": 898,
      "Ġsomething": 899,
      "rew": 900,
      "ign": 901,
      "ĠBr": 902,
      "loor": 903,
      "ool": 904,
      "ĠNo": 905,
      "Ġanything": 906,
      "agazine": 907,
      "RE": 908,
      "ple": 909,
      "Ġunt": 910,
      "We": 911,
      "Ġbus": 912,
      "Ġvoice": 913,
      "but": 914,
      "Ġhar": 915,
      "Ġplace": 916,
      "She": 917,
      "ible": 918,
      "Ġcont": 919,
      "Ġbu": 920,
      "Ġupon": 921,
      "ition": 922,
      "ical": 923,
      "ĠIf": 924,
      "Ġopen": 925,
      "Ġinst": 926,
      "ger": 927,
      "Ġsat": 928,
      "ian": 929,
      "hind": 930,
      "Ġcle": 931,
      "oy": 932,
      "ren": 933,
      "most": 934,
      "Ġwind": 935,
      "Ġanother": 936,
      "erv": 937,
      "Ġwithout": 938,
      "IN": 939,
      "ully": 940,
      "Ġdec": 941,
      "ons": 942,
      "ung": 943,
      "ement": 944,
      "body": 945,
      "bed": 946,
      "sed": 947,
      "ained": 948,
      ".,": 949,
      "Ġrep": 950,
      "now": 951,
      "any": 952,
      "Ġdark": 953,
      "Ġminut": 954,
      "oh": 955,
      "Ġtalk": 956,
      "Ġste": 957,
      "Ġside": 958,
      "Ġchan": 959,
      "uff": 960,
      "Ġuntil": 961,
      "les": 962,
      "Ġfriend": 963,
      "Ġcou": 964,
      "Ġfoll": 965,
      "ĠCl": 966,
      "iff": 967,
      "Ġagainst": 968,
      "io": 969,
      "ently": 970,
      "Ġhour": 971,
      "ired": 972,
      "enty": 973,
      "Ġword": 974,
      "anc": 975,
      "Ġname": 976,
      "Ġhel": 977,
      "Ġsha": 978,
      "Ġmo": 979,
      "Ġcase": 980,
      "atter": 981,
      "att": 982,
      "mit": 983,
      "row": 984,
      "Ġarm": 985,
      "uck": 986,
      "Ġgive": 987,
      "In": 988,
      "Ġfar": 989,
      "Ġwait": 990,
      "Ġadd": 991,
      "Ġgreat": 992,
      "ished": 993,
      "app": 994,
      "Ġhalf": 995,
      "ĠMy": 996,
      "ON": 997,
      "Ġact": 998,
      "AN": 999,
      "Ġthing": 1000,
      "head": 1001,
      "ives": 1002,
      "iv": 1003,
      "Ġend": 1004,
      "form": 1005,
      "Ġhapp": 1006,
      "Ġlife": 1007,
      "Ġfell": 1008,
      "Ġem": 1009,
      "Ġseen": 1010,
      "There": 1011,
      "lock": 1012,
      "Ġdead": 1013,
      "aught": 1014,
      "Ġseemed": 1015,
      "ult": 1016,
      "Ġansw": 1017,
      "uth": 1018,
      "Ġenough": 1019,
      "no": 1020,
      "Ġfloor": 1021,
      "Ġmost": 1022,
      "Ġpe": 1023,
      "ating": 1024,
      "ept": 1025,
      "Ġtoward": 1026,
      "arted": 1027,
      "ĠTh": 1028,
      "Ġoffice": 1029,
      "Ġthese": 1030,
      "Ġcur": 1031,
      "Ġsent": 1032,
      "Ġbeing": 1033,
      "Ġpass": 1034,
      "ertain": 1035,
      "âĢ": 1036,
      "orning": 1037,
      "dden": 1038,
      "--\"": 1039,
      "Ġfeet": 1040,
      "Ġmean": 1041,
      "alked": 1042,
      "ney": 1043,
      "Ġbehind": 1044,
      "Ġfin": 1045,
      "Ġquest": 1046,
      "Ġfact": 1047,
      "ohn": 1048,
      "artment": 1049,
      "aken": 1050,
      "Ġpay": 1051,
      "Mr": 1052,
      "ors": 1053,
      "anted": 1054,
      "my": 1055,
      "Ġonce": 1056,
      "iet": 1057,
      "Ġmurder": 1058,
      "Ġ3": 1059,
      "ĠThis": 1060,
      "Ġset": 1061,
      "co": 1062,
      "outh": 1063,
      "Ġyoung": 1064,
      "Ġass": 1065,
      "ised": 1066,
      "Ġstood": 1067,
      "Ġtry": 1068,
      "sc": 1069,
      "ib": 1070,
      "Ġconf": 1071,
      "aut": 1072,
      "Ġthose": 1073,
      "ott": 1074,
      "from": 1075,
      "Ġtri": 1076,
      "Ġdro": 1077,
      "Ġ(": 1078,
      "Ġgave": 1079,
      "ousand": 1080,
      "do": 1081,
      "Ġev": 1082,
      "Ġsure": 1083,
      "ured": 1084,
      "ĠSp": 1085,
      "Ġmon": 1086,
      "âĸł": 1087,
      "Ġnear": 1088,
      "imes": 1089,
      "ual": 1090,
      "Ġblack": 1091,
      "usp": 1092,
      "aced": 1093,
      "Ġmet": 1094,
      "room": 1095,
      "Ġshot": 1096,
      "Ġmind": 1097,
      "Ġcourse": 1098,
      "ĠYork": 1099,
      "ween": 1100,
      "Ġkeep": 1101,
      "Ġdays": 1102,
      "Ġco": 1103,
      "Ġsame": 1104,
      "Ġim": 1105,
      "Ġbook": 1106,
      "used": 1107,
      "Ġdeath": 1108,
      "ho": 1109,
      "Ġfront": 1110,
      "St": 1111,
      "Ġperson": 1112,
      "ected": 1113,
      "com": 1114,
      "Ġever": 1115,
      "ways": 1116,
      "Ġboy": 1117,
      "Ġcalled": 1118,
      "Ġinv": 1119,
      "Ġsend": 1120,
      "its": 1121,
      "Ġquick": 1122,
      "ane": 1123,
      "ĠDo": 1124,
      "Ġsmall": 1125,
      "ded": 1126,
      "where": 1127,
      "ense": 1128,
      "Ġel": 1129,
      "Ġob": 1130,
      "ĠAt": 1131,
      "Ġsuch": 1132,
      "fully": 1133,
      "AR": 1134,
      "Ġstand": 1135,
      "ek": 1136,
      "Ġcomp": 1137,
      "ax": 1138,
      "Ġres": 1139,
      "ached": 1140,
      "off": 1141,
      "Ġsur": 1142,
      "Ġread": 1143,
      "Ġlater": 1144,
      "Ġstory": 1145,
      "Ġdri": 1146,
      "Ġfing": 1147,
      "Yes": 1148,
      "Ġstreet": 1149,
      "xt": 1150,
      "Ġeas": 1151,
      "oke": 1152,
      "elt": 1153,
      "ined": 1154,
      "Ġear": 1155,
      "aper": 1156,
      "Ġalong": 1157,
      "ĠStreet": 1158,
      "Ġmorning": 1159,
      "undred": 1160,
      "Ġhard": 1161,
      "Ġbusiness": 1162,
      "rue": 1163,
      "Ġsupp": 1164,
      "Ġrun": 1165,
      "EN": 1166,
      "br": 1167,
      "rought": 1168,
      "Ġreal": 1169,
      "Ġchair": 1170,
      "Ġchar": 1171,
      "Ġsil": 1172,
      "Ġdep": 1173,
      "Ġind": 1174,
      "ention": 1175,
      "Ġhold": 1176,
      "ued": 1177,
      "Ġgone": 1178,
      "Ġjob": 1179,
      "ĠCo": 1180,
      "Ġhelp": 1181,
      "ular": 1182,
      "Ġmany": 1183,
      "Ġthings": 1184,
      "owing": 1185,
      "ents": 1186,
      "ized": 1187,
      "Ġpres": 1188,
      "Ġbecause": 1189,
      "ower": 1190,
      "ĠMiss": 1191,
      "Ġbro": 1192,
      "Ġposs": 1193,
      "men": 1194,
      "ither": 1195,
      "ene": 1196,
      "ably": 1197,
      "idence": 1198,
      "erest": 1199,
      "airs": 1200,
      "iam": 1201,
      "Ġdisc": 1202,
      "Ġmar": 1203,
      "Ġbed": 1204,
      "Ġalmost": 1205,
      "res": 1206,
      "Ġdist": 1207,
      "Ġneed": 1208,
      "Ġgi": 1209,
      "Ġinc": 1210,
      "ince": 1211,
      "Ġsusp": 1212,
      "Ġdr": 1213,
      "cket": 1214,
      "Ġbelie": 1215,
      "Ġacross": 1216,
      "Ġminutes": 1217,
      "ham": 1218,
      "ited": 1219,
      "Ġdoll": 1220,
      "imin": 1221,
      "Ġ;": 1222,
      "umb": 1223,
      "Ġhair": 1224,
      "umber": 1225,
      "Â«": 1226,
      "Ġi": 1227,
      "Ġ19": 1228,
      "Ġwatch": 1229,
      "Ġmonth": 1230,
      "Ġbetween": 1231,
      "Ġsn": 1232,
      "This": 1233,
      "ler": 1234,
      "let": 1235,
      "eck": 1236,
      "Ġstr": 1237,
      "Ġsudden": 1238,
      "ering": 1239,
      "ĠLe": 1240,
      "Ġfig": 1241,
      "Well": 1242,
      "spect": 1243,
      ".--": 1244,
      "Ġlear": 1245,
      "about": 1246,
      "iled": 1247,
      "raw": 1248,
      "ago": 1249,
      "Ġwife": 1250,
      "Ġph": 1251,
      "Ġpocket": 1252,
      "ete": 1253,
      "ĠMagazine": 1254,
      "ĠWhen": 1255,
      "ream": 1256,
      "ately": 1257,
      "Ġdire": 1258,
      "Ġplay": 1259,
      "Then": 1260,
      "king": 1261,
      "Â»": 1262,
      "Ġfive": 1263,
      "light": 1264,
      "Ġter": 1265,
      "wo": 1266,
      "ins": 1267,
      "opped": 1268,
      "ts": 1269,
      "Ġtra": 1270,
      "Ġdone": 1271,
      "Ġple": 1272,
      "ations": 1273,
      "Ġstep": 1274,
      "ug": 1275,
      "Ġdetective": 1276,
      "enc": 1277,
      "ople": 1278,
      "Ġprison": 1279,
      "Ġthousand": 1280,
      "cle": 1281,
      "Ġap": 1282,
      "They": 1283,
      "have": 1284,
      "ĠMc": 1285,
      "ĠJohn": 1286,
      "Ġten": 1287,
      "Ġreg": 1288,
      "ason": 1289,
      "rest": 1290,
      "Ġcount": 1291,
      "Ġrest": 1292,
      "ale": 1293,
      "stand": 1294,
      "formation": 1295,
      "How": 1296,
      "Ġhear": 1297,
      "ird": 1298,
      "land": 1299,
      "ES": 1300,
      "were": 1301,
      "uring": 1302,
      "this": 1303,
      "Ġran": 1304,
      "Ġwanted": 1305,
      "Ġkilled": 1306,
      "Ġfour": 1307,
      "orr": 1308,
      "Ġbegan": 1309,
      "Ġnext": 1310,
      "Ġ?\"": 1311,
      "Ġeach": 1312,
      "Ġsecond": 1313,
      "Ġsle": 1314,
      "Ġheld": 1315,
      "du": 1316,
      "erry": 1317,
      "Ġsound": 1318,
      "Ġdet": 1319,
      "Ġtaken": 1320,
      "Ġbetter": 1321,
      "Ġ:": 1322,
      "amp": 1323,
      "Ġwindow": 1324,
      "TH": 1325,
      "ying": 1326,
      "Ġroad": 1327,
      "Ġtele": 1328,
      "OR": 1329,
      "would": 1330,
      "ided": 1331,
      "Ġclose": 1332,
      "Ġoffic": 1333,
      "Ġaut": 1334,
      "ĠDe": 1335,
      "ually": 1336,
      "Ġboth": 1337,
      "Ġhundred": 1338,
      "Ġshort": 1339,
      "Ġquestion": 1340,
      "she": 1341,
      "cept": 1342,
      "wor": 1343,
      "Ġalways": 1344,
      "inc": 1345,
      "Ġfree": 1346,
      "als": 1347,
      "ĠBl": 1348,
      "kn": 1349,
      "ĠHer": 1350,
      "Ġbrought": 1351,
      "Ġturn": 1352,
      "ines": 1353,
      "ates": 1354,
      "icked": 1355,
      "Ġwhy": 1356,
      "overed": 1357,
      "eared": 1358,
      "Ġspe": 1359,
      "ĠWhat": 1360,
      "Ġcorn": 1361,
      "Ġmurd": 1362,
      "Ġexpl": 1363,
      "Ġopened": 1364,
      "Ġser": 1365,
      "If": 1366,
      "Ġwasn": 1367,
      "lect": 1368,
      "Ġ4": 1369,
      "Ġdoes": 1370,
      "hand": 1371,
      "Ġinterest": 1372,
      "TI": 1373,
      "Ġsk": 1374,
      "Ġdollars": 1375,
      "Ġcap": 1376,
      "ister": 1377,
      "Ġcertain": 1378,
      "Ġuse": 1379,
      "Ġwall": 1380,
      "Ġhigh": 1381,
      "Ġlau": 1382,
      "Ġinter": 1383,
      "ĠAl": 1384,
      "Ġtrain": 1385,
      "gr": 1386,
      "mitted": 1387,
      "Ġwon": 1388,
      "Ġfull": 1389,
      "unt": 1390,
      "When": 1391,
      "ier": 1392,
      "Ġdel": 1393,
      "ĠWill": 1394,
      "ressed": 1395,
      "Ġbank": 1396,
      "ans": 1397,
      "con": 1398,
      "gether": 1399,
      "Ġalso": 1400,
      "tr": 1401,
      "Ġfelt": 1402,
      "Ġstarted": 1403,
      "haps": 1404,
      "been": 1405,
      "Ġhur": 1406,
      "ient": 1407,
      "Ġhot": 1408,
      "Ġsub": 1409,
      "Ġcomm": 1410,
      "Ġcompl": 1411,
      "ember": 1412,
      "ĠFran": 1413,
      "Ġmatter": 1414,
      "Ġrel": 1415,
      "Ġtable": 1416,
      "Ġwhite": 1417,
      "Ġkind": 1418,
      "Ġwond": 1419,
      "Ġsix": 1420,
      "Ġdou": 1421,
      "idd": 1422,
      "Ġnod": 1423,
      "night": 1424,
      "ĠMar": 1425,
      "ĠFor": 1426,
      "ĠOn": 1427,
      "Ġcrime": 1428,
      "icago": 1429,
      "Ġlaw": 1430,
      "Ġeff": 1431,
      "esc": 1432,
      "Ġsoon": 1433,
      "Ġprom": 1434,
      "Ġfam": 1435,
      "oun": 1436,
      "Ġhop": 1437,
      "Ġthough": 1438,
      "ĠBill": 1439,
      "Ġpos": 1440,
      "ute": 1441,
      "Ġused": 1442,
      "ushed": 1443,
      "Ġtried": 1444,
      "ities": 1445,
      "ille": 1446,
      "Ġstopped": 1447,
      "what": 1448,
      "Ġtwenty": 1449,
      "Ġpu": 1450,
      "there": 1451,
      "Ġyet": 1452,
      "Ġbit": 1453,
      "Ġord": 1454,
      "ah": 1455,
      "iously": 1456,
      "Ġlooking": 1457,
      "Ġadv": 1458,
      "ĠAr": 1459,
      "Ġago": 1460,
      "Ġlist": 1461,
      "who": 1462,
      "Ġrece": 1463,
      "oss": 1464,
      "Ġwalked": 1465,
      "Ġcouldn": 1466,
      "Ġlar": 1467,
      "ĠAs": 1468,
      "Ġfeel": 1469,
      "Ġknown": 1470,
      "irty": 1471,
      "riv": 1472,
      "raight": 1473,
      "Ġstart": 1474,
      "fl": 1475,
      "Ġ5": 1476,
      "Ġpur": 1477,
      "Ġmyself": 1478,
      "ures": 1479,
      "Ġwar": 1480,
      "Ġlay": 1481,
      "which": 1482,
      "Ġref": 1483,
      "Th": 1484,
      "000": 1485,
      "Ġpeople": 1486,
      "rit": 1487,
      "Ġdirect": 1488,
      "gl": 1489,
      "Ġloc": 1490,
      "Ġlead": 1491,
      "Ġinformation": 1492,
      "ead": 1493,
      "aring": 1494,
      "Ġblood": 1495,
      "ern": 1496,
      "how": 1497,
      "Ġocc": 1498,
      "Ġpost": 1499,
      "Not": 1500,
      "Ġrepl": 1501,
      "Ġpoint": 1502,
      "veral": 1503,
      "ĠAn": 1504,
      "oft": 1505,
      "ones": 1506,
      "aged": 1507,
      "Ġreturned": 1508,
      "ession": 1509,
      "Ġcity": 1510,
      "erk": 1511,
      "iver": 1512,
      "like": 1513,
      "Ġchance": 1514,
      "band": 1515,
      "roo": 1516,
      "Ġide": 1517,
      "oe": 1518,
      "inued": 1519,
      "TE": 1520,
      "road": 1521,
      "read": 1522,
      "ific": 1523,
      "ĠCar": 1524,
      "ield": 1525,
      "ience": 1526,
      "Ġcons": 1527,
      "Ġdiff": 1528,
      "your": 1529,
      "ken": 1530,
      "Ġautom": 1531,
      "igan": 1532,
      "ruck": 1533,
      "reak": 1534,
      "they": 1535,
      "ilding": 1536,
      "Ġvis": 1537,
      "Ġelse": 1538,
      "owly": 1539,
      "ald": 1540,
      "Ġhus": 1541,
      "Ġpull": 1542,
      "Ġ!": 1543,
      "ĠDoctor": 1544,
      "As": 1545,
      "said": 1546,
      "phone": 1547,
      "Ġreached": 1548,
      "REE": 1549,
      "Ġwords": 1550,
      "LL": 1551,
      "Ġmouth": 1552,
      "ener": 1553,
      "aster": 1554,
      "Ġcorner": 1555,
      "rem": 1556,
      "Ġrob": 1557,
      "OU": 1558,
      "uc": 1559,
      "Ġstran": 1560,
      "Ġconv": 1561,
      "âĢ¢": 1562,
      "Ġmot": 1563,
      "Ġlow": 1564,
      "pon": 1565,
      "Ġpast": 1566,
      "Ġred": 1567,
      "ĠChicago": 1568,
      "when": 1569,
      "Why": 1570,
      "pro": 1571,
      "etectives": 1572,
      "Ġpret": 1573,
      "Ġsqu": 1574,
      "Ġbes": 1575,
      "Do": 1576,
      "steries": 1577,
      "Ġdem": 1578,
      "gin": 1579,
      "Ġtrou": 1580,
      "ize": 1581,
      "ĠSpade": 1582,
      "ville": 1583,
      "Ġlips": 1584,
      "Ġ*": 1585,
      "Ġsir": 1586,
      "inted": 1587,
      "Ġshow": 1588,
      "Ġbelieve": 1589,
      "Ġaff": 1590,
      "velo": 1591,
      "Ġlot": 1592,
      "Ġhappened": 1593,
      "Ġsuddenly": 1594,
      "Ġnodded": 1595,
      "Ġreason": 1596,
      "Ġfire": 1597,
      "aint": 1598,
      "che": 1599,
      "ĠSo": 1600,
      "Ġbad": 1601,
      "Ġhours": 1602,
      "Ġfoot": 1603,
      "go": 1604,
      "els": 1605,
      "Ġwouldn": 1606,
      "Ġhall": 1607,
      "Ġletter": 1608,
      "fort": 1609,
      "su": 1610,
      "can": 1611,
      "ically": 1612,
      "reed": 1613,
      "Ġri": 1614,
      "Ġheav": 1615,
      "akes": 1616,
      "Ġfollowed": 1617,
      "ery": 1618,
      "ury": 1619,
      "Ġforward": 1620,
      "ush": 1621,
      "Ġexc": 1622,
      "Ġfather": 1623,
      "Ġworld": 1624,
      "cr": 1625,
      "Ġbar": 1626,
      "Ġtogether": 1627,
      "ection": 1628,
      "Don": 1629,
      "Ġtown": 1630,
      "iec": 1631,
      "itting": 1632,
      "loy": 1633,
      "gu": 1634,
      "Ġmail": 1635,
      "Ġfore": 1636,
      "Ġfif": 1637,
      "vel": 1638,
      "ashed": 1639,
      "anded": 1640,
      "Ġins": 1641,
      "some": 1642,
      "Ġcor": 1643,
      "Ġgiven": 1644,
      "ĠAll": 1645,
      "Ġseveral": 1646,
      "clock": 1647,
      "ening": 1648,
      "Ġcig": 1649,
      "ric": 1650,
      "isf": 1651,
      "ony": 1652,
      "eth": 1653,
      "ĠWith": 1654,
      "At": 1655,
      "aim": 1656,
      "Ġbur": 1657,
      "riff": 1658,
      "Ġsign": 1659,
      "Ġsince": 1660,
      "rec": 1661,
      "Ġaw": 1662,
      "Ġsafe": 1663,
      "estig": 1664,
      "Now": 1665,
      "them": 1666,
      "Ġexper": 1667,
      "back": 1668,
      "Ġstud": 1669,
      "Ġcut": 1670,
      "ms": 1671,
      "rill": 1672,
      "Ġeasy": 1673,
      "Ġfigure": 1674,
      "Oh": 1675,
      "Ġquickly": 1676,
      "could": 1677,
      "ĠSch": 1678,
      "Ġweek": 1679,
      "ĠHar": 1680,
      "Ġothers": 1681,
      "Ġorder": 1682,
      "Ġreturn": 1683,
      "Ġbest": 1684,
      "well": 1685,
      "Ġcheck": 1686,
      "Ġtrying": 1687,
      "isted": 1688,
      "ecess": 1689,
      "On": 1690,
      "Ġdesk": 1691,
      "Ġgetting": 1692,
      "oved": 1693,
      "apers": 1694,
      "Ġinside": 1695,
      "ĠBe": 1696,
      "ĠNow": 1697,
      "noon": 1698,
      "My": 1699,
      "Ġpict": 1700,
      "Ġhat": 1701,
      "Ġsear": 1702,
      "Ġcoming": 1703,
      "Ġguess": 1704,
      "ets": 1705,
      "Ġcaught": 1706,
      "Ġreplied": 1707,
      "Ġed": 1708,
      "alth": 1709,
      "Ġstraight": 1710,
      "ears": 1711,
      "ĠMysteries": 1712,
      "ĠStory": 1713,
      "Ġra": 1714,
      "Ġcrimin": 1715,
      "bt": 1716,
      "down": 1717,
      "Ġcol": 1718,
      "ived": 1719,
      "orney": 1720,
      "akley": 1721,
      "Ġidea": 1722,
      "Ġquiet": 1723,
      "time": 1724,
      "atched": 1725,
      "IC": 1726,
      "ards": 1727,
      "ipped": 1728,
      "more": 1729,
      "Ġaddress": 1730,
      "All": 1731,
      "For": 1732,
      "Ġho": 1733,
      "Ġkept": 1734,
      "ready": 1735,
      "ames": 1736,
      "arty": 1737,
      "vol": 1738,
      "ified": 1739,
      "LE": 1740,
      "enn": 1741,
      "Ġprof": 1742,
      "Ġpassed": 1743,
      "Ġlove": 1744,
      "Ġclear": 1745,
      "ef": 1746,
      "iles": 1747,
      "Ġsecret": 1748,
      "ĠGr": 1749,
      "Ġless": 1750,
      "ĠPr": 1751,
      "ĠEng": 1752,
      "bably": 1753,
      "Ġpol": 1754,
      "Ġmoved": 1755,
      "ser": 1756,
      "Ġshook": 1757,
      "Ġopp": 1758,
      "Ġalone": 1759,
      "Ġwhis": 1760,
      "ĠBrown": 1761,
      "Ġpaper": 1762,
      "ĠHow": 1763,
      "Ġanswer": 1764,
      "Ġ|": 1765,
      "arent": 1766,
      "ĠDept": 1767,
      "Ġfellow": 1768,
      "ploy": 1769,
      "into": 1770,
      "Ġain": 1771,
      "aving": 1772,
      "ĠWh": 1773,
      "atur": 1774,
      "Ġlarge": 1775,
      "Ġmaking": 1776,
      "Ġsort": 1777,
      "Ġheart": 1778,
      "Ġcoat": 1779,
      "just": 1780,
      "lease": 1781,
      "Ġmus": 1782,
      "Ġdeep": 1783,
      "Ġquite": 1784,
      "Ġair": 1785,
      "ested": 1786,
      "house": 1787,
      "ended": 1788,
      "escap": 1789,
      "AL": 1790,
      "ants": 1791,
      "ject": 1792,
      "rite": 1793,
      "ĠQ": 1794,
      "Ġfur": 1795,
      "Ġnor": 1796,
      "Ġleave": 1797,
      "Ġmove": 1798,
      "Ġarrest": 1799,
      "Ġfriends": 1800,
      "arn": 1801,
      "again": 1802,
      "So": 1803,
      "ively": 1804,
      "ĠOne": 1805,
      "Ġspoke": 1806,
      "Ġplan": 1807,
      "Ġcop": 1808,
      "ĠCom": 1809,
      "ccess": 1810,
      "Ġhusband": 1811,
      "ination": 1812,
      "Ġcoll": 1813,
      "ments": 1814,
      "Ġsimp": 1815,
      "Ġsoft": 1816,
      "Ġcir": 1817,
      "His": 1818,
      "Ġwrite": 1819,
      "Ġ6": 1820,
      "ased": 1821,
      "onds": 1822,
      "True": 1823,
      "Ġshad": 1824,
      "rugg": 1825,
      "antly": 1826,
      "Ġdef": 1827,
      "ike": 1828,
      "Ġbeaut": 1829,
      "Ġmeet": 1830,
      "Ġexam": 1831,
      "Ġchild": 1832,
      "Ġanswered": 1833,
      "TER": 1834,
      "Ġ10": 1835,
      "illed": 1836,
      "Ġapartment": 1837,
      ",'": 1838,
      "sy": 1839,
      "anced": 1840,
      "pping": 1841,
      "know": 1842,
      "add": 1843,
      "medi": 1844,
      "ging": 1845,
      "Ġbull": 1846,
      "ift": 1847,
      "Ġmach": 1848,
      "arters": 1849,
      "ING": 1850,
      "Ġevidence": 1851,
      "Ġtou": 1852,
      "ĠMan": 1853,
      "atic": 1854,
      "Ġbeside": 1855,
      "eks": 1856,
      "ten": 1857,
      "ides": 1858,
      "Ġslowly": 1859,
      "ator": 1860,
      "Ġstepped": 1861,
      "sm": 1862,
      "apped": 1863,
      "ĠNot": 1864,
      "ring": 1865,
      "Ġsol": 1866,
      "ĠCO": 1867,
      "gs": 1868,
      "Ġident": 1869,
      "Ġeye": 1870,
      "Ġhaving": 1871,
      "Ġmyster": 1872,
      "Ġunderstand": 1873,
      "Ġpat": 1874,
      "tered": 1875,
      "Ġserv": 1876,
      "ital": 1877,
      "amed": 1878,
      "pted": 1879,
      "Ġbreat": 1880,
      "Ġdoing": 1881,
      "Ġmiss": 1882,
      "reen": 1883,
      "Ġcold": 1884,
      "unk": 1885,
      "Ġtelephone": 1886,
      "ĠCon": 1887,
      "vi": 1888,
      "Ġdisapp": 1889,
      "Ġclosed": 1890,
      "Ġwalk": 1891,
      "ĠCity": 1892,
      "ump": 1893,
      "Ġleast": 1894,
      "Ġafternoon": 1895,
      "Ġevening": 1896,
      "Ġpar": 1897,
      "ails": 1898,
      "through": 1899,
      "venue": 1900,
      "Ġentered": 1901,
      "lor": 1902,
      "will": 1903,
      "ains": 1904,
      "Ġglass": 1905,
      "Ġfingers": 1906,
      "blic": 1907,
      "Ġfinger": 1908,
      "aned": 1909,
      "Ġkey": 1910,
      "Ġyourself": 1911,
      "osed": 1912,
      "sel": 1913,
      "Ġdoctor": 1914,
      "Ġwhole": 1915,
      "With": 1916,
      "Ġoutside": 1917,
      "Ġabove": 1918,
      "aces": 1919,
      "tern": 1920,
      "IS": 1921,
      "ĠUn": 1922,
      "acked": 1923,
      "Ġwithin": 1924,
      "Ġabs": 1925,
      "Ġmonths": 1926,
      "Ġmem": 1927,
      "ĠJerry": 1928,
      "Ġwaiting": 1929,
      "cri": 1930,
      "did": 1931,
      "eed": 1932,
      "Ġwater": 1933,
      "Ġwomen": 1934,
      "aled": 1935,
      "Ġstore": 1936,
      "ĠJim": 1937,
      "fra": 1938,
      "ghed": 1939,
      "Ġtimes": 1940,
      "ingly": 1941,
      "Ġbrother": 1942,
      "bo": 1943,
      "ining": 1944,
      "ĠSan": 1945,
      "Ġrather": 1946,
      "Ġext": 1947,
      "âĸ¡": 1948,
      "Ġir": 1949,
      "Ġsight": 1950,
      "Ġclot": 1951,
      "Ġdetectives": 1952,
      "str": 1953,
      "Ġeither": 1954,
      "Ġtall": 1955,
      "raph": 1956,
      "Ġliving": 1957,
      "ĠState": 1958,
      "aused": 1959,
      "CH": 1960,
      "sec": 1961,
      "Ġdropped": 1962,
      "oned": 1963,
      "five": 1964,
      "Ġspec": 1965,
      "then": 1966,
      "rying": 1967,
      "Ġsurpr": 1968,
      "50": 1969,
      "erer": 1970,
      "Who": 1971,
      "Ġ,": 1972,
      "ature": 1973,
      "aptain": 1974,
      "Ġ7": 1975,
      "ories": 1976,
      "ardigan": 1977,
      "Ġsugg": 1978,
      "ĠJack": 1979,
      "ching": 1980,
      "Ġeng": 1981,
      "ĠOr": 1982,
      "Ġtruth": 1983,
      "Ġpossible": 1984,
      "ask": 1985,
      "Ġheavy": 1986,
      "eor": 1987,
      "Ġprot": 1988,
      "Ġcountry": 1989,
      ".'": 1990,
      "ert": 1991,
      "ored": 1992,
      "teen": 1993,
      "fraid": 1994,
      "cha": 1995,
      "ze": 1996,
      "Ġground": 1997,
      "Ġmagazine": 1998,
      "Ġstay": 1999,
      "vent": 2000,
      "ecessary": 2001,
      "ĠFREE": 2002,
      "ously": 2003,
      "Ġpretty": 2004,
      "cher": 2005,
      "Ġsmiled": 2006,
      "Ġhotel": 2007,
      "zz": 2008,
      "ruct": 2009,
      "Ġgrin": 2010,
      "Ġwrit": 2011,
      "look": 2012,
      "ander": 2013,
      "Ġbecame": 2014,
      "away": 2015,
      "Ġgas": 2016,
      "Detective": 2017,
      "orted": 2018,
      "bert": 2019,
      "Ġeverything": 2020,
      "Ġtalking": 2021,
      "Ġele": 2022,
      "harp": 2023,
      "ales": 2024,
      "Ġvi": 2025,
      "Ġeight": 2026,
      "Ġcomplete": 2027,
      "ailed": 2028,
      "Ġpresent": 2029,
      "Ġdraw": 2030,
      "Ġexcept": 2031,
      "two": 2032,
      "Ġinvestig": 2033,
      "Ġval": 2034,
      "though": 2035,
      "ett": 2036,
      "ĠCan": 2037,
      "Ġfear": 2038,
      "Ġspot": 2039,
      "anger": 2040,
      "cer": 2041,
      "Ġband": 2042,
      "Ġmother": 2043,
      "Ġnumber": 2044,
      "ste": 2045,
      "Ġdoubt": 2046,
      "Ġhum": 2047,
      "vers": 2048,
      "Ġill": 2049,
      "Ġbott": 2050,
      "iding": 2051,
      "ĠSh": 2052,
      "Ġnews": 2053,
      "iece": 2054,
      "ĠEx": 2055,
      "Ġbring": 2056,
      "Ġwonder": 2057,
      "Ġescap": 2058,
      "aret": 2059,
      "ints": 2060,
      "Mrs": 2061,
      "door": 2062,
      "Ġtoday": 2063,
      "Ġline": 2064,
      "Ġbox": 2065,
      "Ġ8": 2066,
      "sey": 2067,
      "hod": 2068,
      "ĠTom": 2069,
      "Ġask": 2070,
      "ager": 2071,
      "Ġled": 2072,
      "umped": 2073,
      "Ġstanding": 2074,
      "Ġbuilding": 2075,
      "ĠJust": 2076,
      "Ġshoot": 2077,
      "Ġpulled": 2078,
      "Ġcent": 2079,
      "empt": 2080,
      "quarters": 2081,
      "HE": 2082,
      "Ġduring": 2083,
      "aybe": 2084,
      "Ġtrial": 2085,
      "iful": 2086,
      "ortun": 2087,
      "entle": 2088,
      "Ġblue": 2089,
      "aimed": 2090,
      "come": 2091,
      "ĠWhy": 2092,
      "Ġfall": 2093,
      "Ġpaid": 2094,
      "obile": 2095,
      "Ġappeared": 2096,
      "Cl": 2097,
      "Ġcross": 2098,
      "orm": 2099,
      "ĠRo": 2100,
      "after": 2101,
      "ches": 2102,
      "iar": 2103,
      "ĠDon": 2104,
      "Ġdecided": 2105,
      "Ġbreak": 2106,
      "Ġpartic": 2107,
      "Ġsleep": 2108,
      "Ġfat": 2109,
      "Ġsteps": 2110,
      "Ġcost": 2111,
      "Ġtrouble": 2112,
      "Ġtaking": 2113,
      "Ġ192": 2114,
      "Ġexcl": 2115,
      "AT": 2116,
      "OW": 2117,
      "cted": 2118,
      "ative": 2119,
      "Ġentire": 2120,
      "Ġreally": 2121,
      "ression": 2122,
      "By": 2123,
      "Ġpicked": 2124,
      "udge": 2125,
      "urder": 2126,
      "Ġsmile": 2127,
      "eter": 2128,
      "Ġwhose": 2129,
      "aughter": 2130,
      "Ġsy": 2131,
      "iced": 2132,
      "roat": 2133,
      "ills": 2134,
      "Ġwhom": 2135,
      "Ġemploy": 2136,
      "Ġlearned": 2137,
      "stairs": 2138,
      "cked": 2139,
      "ĠSm": 2140,
      "Ġalready": 2141,
      "Ġprobably": 2142,
      "Ġpen": 2143,
      "Ġhadn": 2144,
      "ĠBur": 2145,
      "meric": 2146,
      "Ġsuspic": 2147,
      "ances": 2148,
      "ker": 2149,
      "Ġcond": 2150,
      "arr": 2151,
      "rave": 2152,
      "Ġable": 2153,
      "Ġgray": 2154,
      "Ġcouple": 2155,
      "10": 2156,
      "Ġshowed": 2157,
      "Ġarms": 2158,
      "pper": 2159,
      "Ġsatisf": 2160,
      "oud": 2161,
      "Ġready": 2162,
      "Ġahead": 2163,
      "Ġtop": 2164,
      "got": 2165,
      "isto": 2166,
      "II": 2167,
      "Ġcroo": 2168,
      "ilt": 2169,
      "Ġdiffere": 2170,
      "VE": 2171,
      "iling": 2172,
      "ages": 2173,
      "Ġsuccess": 2174,
      "mediately": 2175,
      "Ġlo": 2176,
      "under": 2177,
      "Ġslight": 2178,
      "OO": 2179,
      "Ġjo": 2180,
      "Ġart": 2181,
      "Ġet": 2182,
      "Ġty": 2183,
      "Ġwit": 2184,
      "ising": 2185,
      "ases": 2186,
      "Ġstop": 2187,
      "Ġminute": 2188,
      "Ġmachine": 2189,
      "Le": 2190,
      "Ġnewsp": 2191,
      "Ġstrong": 2192,
      "Ġ_": 2193,
      "arm": 2194,
      "AY": 2195,
      "rict": 2196,
      "IT": 2197,
      "Ġchief": 2198,
      "ĠSend": 2199,
      "Ġ!\"": 2200,
      "alm": 2201,
      "Ġconsid": 2202,
      "fect": 2203,
      "Ġcash": 2204,
      "spector": 2205,
      "erman": 2206,
      "ution": 2207,
      "ĠAny": 2208,
      "ĠRe": 2209,
      "ictim": 2210,
      "Where": 2211,
      "ility": 2212,
      "sing": 2213,
      "Ġdeal": 2214,
      "AS": 2215,
      "Ġgang": 2216,
      "adio": 2217,
      "Ġrobber": 2218,
      "cis": 2219,
      "ĠPh": 2220,
      "Ġoffer": 2221,
      "Ġdescri": 2222,
      "Ġcourt": 2223,
      "Ġlaughed": 2224,
      "Ġafraid": 2225,
      "Ġbell": 2226,
      "ara": 2227,
      "ĠIs": 2228,
      "Ġrevol": 2229,
      "Ġarri": 2230,
      "geant": 2231,
      "face": 2232,
      "set": 2233,
      "ices": 2234,
      "Ġwrong": 2235,
      "ĠÂ": 2236,
      "ĠAvenue": 2237,
      "ĠTo": 2238,
      "eman": 2239,
      "ĠOakley": 2240,
      "car": 2241,
      "Ġfre": 2242,
      "Ġpower": 2243,
      "Ġimport": 2244,
      "Ġcoupon": 2245,
      "ai": 2246,
      "bs": 2247,
      "Ġcontinued": 2248,
      "uthor": 2249,
      "Ġmethod": 2250,
      "Just": 2251,
      "min": 2252,
      "itch": 2253,
      "Ġfast": 2254,
      "ceed": 2255,
      "rawn": 2256,
      "Ġcell": 2257,
      "ls": 2258,
      "Ġexact": 2259,
      "ashing": 2260,
      "irt": 2261,
      "ists": 2262,
      "Ġnote": 2263,
      "Ġhope": 2264,
      "Ġring": 2265,
      "bling": 2266,
      "...": 2267,
      "Ġfollowing": 2268,
      "Ġdied": 2269,
      "Ġyell": 2270,
      "ĠAfter": 2271,
      "Ġknows": 2272,
      "eng": 2273,
      "Ġappear": 2274,
      "bers": 2275,
      "ĠChar": 2276,
      "Ch": 2277,
      "Ġperhaps": 2278,
      "Ġtest": 2279,
      "inn": 2280,
      "oose": 2281,
      "Ġcarried": 2282,
      "Ġattention": 2283,
      "aff": 2284,
      "ino": 2285,
      "Ġdev": 2286,
      "rivate": 2287,
      "ray": 2288,
      "use": 2289,
      "Ġsharp": 2290,
      "itten": 2291,
      "Ġphot": 2292,
      "Ġthirty": 2293,
      "ces": 2294,
      "Ġlearn": 2295,
      "ĠBlack": 2296,
      "Ġstation": 2297,
      "key": 2298,
      "ox": 2299,
      "ues": 2300,
      "ĠCor": 2301,
      "ĠWest": 2302,
      "ĠGod": 2303,
      "clo": 2304,
      "Ġform": 2305,
      "Ġprep": 2306,
      "Ġsays": 2307,
      "Ġblock": 2308,
      "Ġmess": 2309,
      "rap": 2310,
      "awn": 2311,
      "yn": 2312,
      "mon": 2313,
      "oner": 2314,
      "Ġgri": 2315,
      "Ġsuppose": 2316,
      "An": 2317,
      "Ġsit": 2318,
      "Ġround": 2319,
      "ogn": 2320,
      "ancy": 2321,
      "zen": 2322,
      "Ġguy": 2323,
      "tained": 2324,
      "Did": 2325,
      "RI": 2326,
      "Ġoper": 2327,
      "Ġpicture": 2328,
      "Ġthin": 2329,
      "aded": 2330,
      "Ġhowever": 2331,
      "Ġwide": 2332,
      "Ġisn": 2333,
      "Ġletters": 2334,
      "itc": 2335,
      "Ġhor": 2336,
      "Ġton": 2337,
      "Ġ9": 2338,
      "Ġcab": 2339,
      "Ġyes": 2340,
      "Ġthr": 2341,
      "ĠCol": 2342,
      "quest": 2343,
      "made": 2344,
      "uty": 2345,
      "Ġreceived": 2346,
      "Ġshoulder": 2347,
      "ips": 2348,
      "ii": 2349,
      "Ġgold": 2350,
      "Ġlif": 2351,
      "Ġrear": 2352,
      "bing": 2353,
      "Ġwear": 2354,
      "Ġlost": 2355,
      "ĠPer": 2356,
      "Ġroll": 2357,
      "po": 2358,
      "while": 2359,
      "ĠPro": 2360,
      "azing": 2361,
      "Br": 2362,
      "Ġbag": 2363,
      "icate": 2364,
      "their": 2365,
      "ational": 2366,
      "Ġgener": 2367,
      "worth": 2368,
      "eorge": 2369,
      "rank": 2370,
      "nce": 2371,
      "ror": 2372,
      "Ġexplained": 2373,
      "Ġcirc": 2374,
      "Ġstrange": 2375,
      "Ġfool": 2376,
      "arant": 2377,
      "ĠLou": 2378,
      "ĠSu": 2379,
      "une": 2380,
      "Ġremember": 2381,
      "ĠWell": 2382,
      "pos": 2383,
      "Ġwin": 2384,
      "Ġworked": 2385,
      "ĠZ": 2386,
      "Ġdrew": 2387,
      "ĠMary": 2388,
      "Ġâĸł": 2389,
      "Ġhang": 2390,
      "ĠSl": 2391,
      "rible": 2392,
      "Ġmist": 2393,
      "unch": 2394,
      "Be": 2395,
      "even": 2396,
      "inger": 2397,
      "Ġcharge": 2398,
      "found": 2399,
      "miss": 2400,
      "Ġglad": 2401,
      "Ġfinally": 2402,
      "After": 2403,
      "cour": 2404,
      "fer": 2405,
      "sit": 2406,
      "Ġmeant": 2407,
      "Ġplaced": 2408,
      "ency": 2409,
      "Ġbreath": 2410,
      "action": 2411,
      "Ġdemanded": 2412,
      "Ġsitting": 2413,
      "itor": 2414,
      "step": 2415,
      "Ġstuff": 2416,
      "ffic": 2417,
      "Ġappro": 2418,
      "Ġdam": 2419,
      "roll": 2420,
      "Ġwhether": 2421,
      "AM": 2422,
      "Ġstairs": 2423,
      "Ġmeans": 2424,
      "udd": 2425,
      "Ġfun": 2426,
      "Ġhell": 2427,
      "ĠCaptain": 2428,
      "Ġann": 2429,
      "Ġcried": 2430,
      "Ġworth": 2431,
      "Ġpage": 2432,
      "Ġvictim": 2433,
      "hys": 2434,
      "Ġfight": 2435,
      "Ġresp": 2436,
      "ĠOh": 2437,
      "umbled": 2438,
      "Ġthick": 2439,
      "Ġkid": 2440,
      "lectric": 2441,
      "Ġfamily": 2442,
      "came": 2443,
      "Ġthroat": 2444,
      "ees": 2445,
      "Ġbrown": 2446,
      "Ġrunning": 2447,
      "rol": 2448,
      "ĠMarty": 2449,
      "Ġ12": 2450,
      "ocked": 2451,
      "clud": 2452,
      "Ġcigaret": 2453,
      "ges": 2454,
      "Ġcover": 2455,
      "Ġdrove": 2456,
      "eal": 2457,
      "Ġmark": 2458,
      "Ġguard": 2459,
      "Ġclothes": 2460,
      "Ġest": 2461,
      "Ġobl": 2462,
      "only": 2463,
      "aker": 2464,
      "Ġsilence": 2465,
      "Ġcriminal": 2466,
      "One": 2467,
      "sl": 2468,
      "Ġpack": 2469,
      "Ġneck": 2470,
      "Ġreport": 2471,
      "Ġpublic": 2472,
      "Ġsing": 2473,
      "atement": 2474,
      "alled": 2475,
      "na": 2476,
      "Ġpapers": 2477,
      "irm": 2478,
      "fit": 2479,
      "Ġdanger": 2480,
      "hard": 2481,
      "Ġlate": 2482,
      "Ġstruck": 2483,
      "Ġknife": 2484,
      "Ġplain": 2485,
      "before": 2486,
      "eyes": 2487,
      "mp": 2488,
      "Ġmill": 2489,
      "Ġpick": 2490,
      "has": 2491,
      "asked": 2492,
      "idly": 2493,
      "Ġmurderer": 2494,
      "bor": 2495,
      "acing": 2496,
      "don": 2497,
      "AG": 2498,
      "aining": 2499,
      "Ġherself": 2500,
      "Ġpract": 2501,
      "uh": 2502,
      "selves": 2503,
      "Ġoften": 2504,
      "pered": 2505,
      "ify": 2506,
      "Ġdecl": 2507,
      "Ġresult": 2508,
      "cons": 2509,
      "work": 2510,
      "Ġshall": 2511,
      "Ġposition": 2512,
      "Ġtrue": 2513,
      "Ġinches": 2514,
      "Ġeffort": 2515,
      "ĠAmeric": 2516,
      "ĠWrite": 2517,
      "ĠYour": 2518,
      "Ġimmediately": 2519,
      "To": 2520,
      "oon": 2521,
      "arrow": 2522,
      "Ġinqu": 2523,
      "ĠCal": 2524,
      "Ġtelling": 2525,
      "30": 2526,
      "Ġtran": 2527,
      "Ġdress": 2528,
      "aby": 2529,
      "Ġcrow": 2530,
      "avor": 2531,
      "Ġfurn": 2532,
      "Ġbelow": 2533,
      "Ġmod": 2534,
      "Ġfine": 2535,
      "ledge": 2536,
      "sha": 2537,
      "Ġseat": 2538,
      "Ġconn": 2539,
      "Ġsaying": 2540,
      "iddle": 2541,
      "asy": 2542,
      "Ġhaven": 2543,
      "Ġbegin": 2544,
      "vert": 2545,
      "Ġbecome": 2546,
      "Ġraised": 2547,
      "orat": 2548,
      "Ġtight": 2549,
      "Ġlive": 2550,
      "ĠGu": 2551,
      "Ġbroke": 2552,
      "Ġsearch": 2553,
      "ann": 2554,
      "ĠSome": 2555,
      "ume": 2556,
      "rang": 2557,
      "ords": 2558,
      "every": 2559,
      "Ġ&": 2560,
      "Ġlaugh": 2561,
      "Ġautomobile": 2562,
      "Let": 2563,
      "ption": 2564,
      "bled": 2565,
      "gun": 2566,
      "reg": 2567,
      "Ġswung": 2568,
      "Ġfurther": 2569,
      "Ġlie": 2570,
      "Ġthreat": 2571,
      "ky": 2572,
      "Ġson": 2573,
      "Ġfair": 2574,
      "ustom": 2575,
      "ptly": 2576,
      "ST": 2577,
      "yond": 2578,
      "known": 2579,
      "orrow": 2580,
      "ĠEd": 2581,
      "asc": 2582,
      "bur": 2583,
      "uttered": 2584,
      "Ġ18": 2585,
      "Ġworking": 2586,
      "ĠPat": 2587,
      "Ġlived": 2588,
      "gain": 2589,
      "Ġgentle": 2590,
      "ĠFrank": 2591,
      "arently": 2592,
      "fr": 2593,
      "ially": 2594,
      "Ġswe": 2595,
      "Ġbri": 2596,
      "should": 2597,
      "Ġflash": 2598,
      "yer": 2599,
      "idge": 2600,
      "Ġstick": 2601,
      "Ġleaving": 2602,
      "Ġdiam": 2603,
      "Ġskin": 2604,
      "ole": 2605,
      "Ġpleas": 2606,
      "OM": 2607,
      "thought": 2608,
      "Here": 2609,
      "ote": 2610,
      "Ġang": 2611,
      "rance": 2612,
      "Ġwood": 2613,
      "Ġagreed": 2614,
      "ograph": 2615,
      "Ġpisto": 2616,
      "utter": 2617,
      "Ġquestions": 2618,
      "Ġwitness": 2619,
      "pose": 2620,
      "place": 2621,
      "....": 2622,
      "olute": 2623,
      "Ġshoulders": 2624,
      "THE": 2625,
      "erm": 2626,
      "Ġnerv": 2627,
      "Ġweeks": 2628,
      "Ġinn": 2629,
      "ĠTr": 2630,
      "Ġrecogn": 2631,
      "Ġwaited": 2632,
      "Ġtre": 2633,
      "Ġcre": 2634,
      "Ġmurdered": 2635,
      "Ġland": 2636,
      "Ġstri": 2637,
      "Ġpolic": 2638,
      "fact": 2639,
      "Ġphys": 2640,
      "Ġgame": 2641,
      "Ġbeat": 2642,
      "ĠBig": 2643,
      "ounty": 2644,
      "ixed": 2645,
      "Ġhung": 2646,
      "see": 2647,
      "Ġstared": 2648,
      "Al": 2649,
      "Ġmaybe": 2650,
      "chan": 2651,
      "mm": 2652,
      "Ġprivate": 2653,
      "ality": 2654,
      "Ġthinking": 2655,
      "Ġrevolver": 2656,
      "than": 2657,
      "ĠCr": 2658,
      "ĠEvery": 2659,
      "Ġgrow": 2660,
      "world": 2661,
      "Ġpain": 2662,
      "Ġlying": 2663,
      "Ġglance": 2664,
      "Ġexclaimed": 2665,
      "Wh": 2666,
      "Ġgar": 2667,
      "ĠWilliam": 2668,
      "Ġeffect": 2669,
      "ught": 2670,
      "Ġbene": 2671,
      "Ġopportun": 2672,
      "pany": 2673,
      "AP": 2674,
      "Ġdoesn": 2675,
      "Get": 2676,
      "bit": 2677,
      "Ġmention": 2678,
      "Ġhesit": 2679,
      "ĠBu": 2680,
      "lond": 2681,
      "gged": 2682,
      "Ġarrived": 2683,
      "lish": 2684,
      "vo": 2685,
      "ilty": 2686,
      "ewel": 2687,
      "Ġjail": 2688,
      "Ġtonight": 2689,
      "Ġthird": 2690,
      "acks": 2691,
      "Ġclean": 2692,
      "Bl": 2693,
      "dis": 2694,
      "iny": 2695,
      "Ġsheriff": 2696,
      "seem": 2697,
      "ĠPl": 2698,
      "Ġscream": 2699,
      "Ġcarefully": 2700,
      "Ġspeak": 2701,
      "Ġmystery": 2702,
      "Is": 2703,
      "inct": 2704,
      "Ġscene": 2705,
      "19": 2706,
      "Dept": 2707,
      "cy": 2708,
      "new": 2709,
      "ĠDr": 2710,
      "Ġaccom": 2711,
      "Ġempt": 2712,
      "Ġdiscovered": 2713,
      "Ġfifty": 2714,
      "Ġwa": 2715,
      "ĠBy": 2716,
      "Ġmanner": 2717,
      "ĠNor": 2718,
      "Ġinstant": 2719,
      "Ġphone": 2720,
      "ĠFrancis": 2721,
      "idden": 2722,
      "Ġbullet": 2723,
      "Ġsens": 2724,
      "Ġamong": 2725,
      "money": 2726,
      "Ġadmitted": 2727,
      "overn": 2728,
      "ĠQu": 2729,
      "Ġnecessary": 2730,
      "ĠSe": 2731,
      "Ġrepe": 2732,
      "Ġsave": 2733,
      "raft": 2734,
      "Ġ?": 2735,
      "ishing": 2736,
      "Ġsell": 2737,
      "Ġaccount": 2738,
      "rench": 2739,
      "Ġmed": 2740,
      "Ġmere": 2741,
      "igned": 2742,
      "ĠFree": 2743,
      "Ġanybody": 2744,
      "ĠVan": 2745,
      "Ġcoun": 2746,
      "20": 2747,
      "ault": 2748,
      "val": 2749,
      "Ġmine": 2750,
      "Ġpushed": 2751,
      "ĠPolice": 2752,
      "Ġgrim": 2753,
      "ship": 2754,
      "Ġrobbery": 2755,
      "Ġexactly": 2756,
      "Ġoblig": 2757,
      "Miss": 2758,
      "ineer": 2759,
      "âģł--\"": 2760,
      "ecause": 2761,
      "Ġprice": 2762,
      "ude": 2763,
      "ĠChief": 2764,
      "Ġwatched": 2765,
      "Ġetc": 2766,
      "went": 2767,
      "reng": 2768,
      "Ġanx": 2769,
      "iety": 2770,
      "Ġfeeling": 2771,
      "wom": 2772,
      "Ġtalked": 2773,
      "Ġconst": 2774,
      "inary": 2775,
      "Ġfired": 2776,
      "Ġstatement": 2777,
      "ounds": 2778,
      "spital": 2779,
      "Ġflat": 2780,
      "Ġlights": 2781,
      "John": 2782,
      "Ġsal": 2783,
      "rel": 2784,
      "Ġprove": 2785,
      "Ġparticular": 2786,
      "Send": 2787,
      "looked": 2788,
      "Ã©": 2789,
      "Ġden": 2790,
      "ays": 2791,
      "rodu": 2792,
      "rix": 2793,
      "Ġleg": 2794,
      "Ġnose": 2795,
      "Ġspecial": 2796,
      "ĠColl": 2797,
      "Ġearly": 2798,
      "Ġcolor": 2799,
      "AD": 2800,
      "Ġnatur": 2801,
      "Ġdetails": 2802,
      "turned": 2803,
      "Ġbeyond": 2804,
      "Ġholding": 2805,
      "Ġregard": 2806,
      "Ġwish": 2807,
      "Ġdarkness": 2808,
      "Will": 2809,
      "Ġtill": 2810,
      "ental": 2811,
      "ĠSam": 2812,
      "ĠEl": 2813,
      "Ġboys": 2814,
      "Ġdriver": 2815,
      "Ġplease": 2816,
      "Ġhurried": 2817,
      "iber": 2818,
      "ĠX": 2819,
      "Ġbroken": 2820,
      "ED": 2821,
      "rep": 2822,
      "Ġrap": 2823,
      "azed": 2824,
      "renville": 2825,
      "Ġcompan": 2826,
      "Ġhon": 2827,
      "ĠJones": 2828,
      "ĠLouis": 2829,
      "ĠAd": 2830,
      "Ġeasily": 2831,
      "Ġimportant": 2832,
      "bet": 2833,
      "torney": 2834,
      "Ġwire": 2835,
      "ĠBroad": 2836,
      "Ġdifferent": 2837,
      "Su": 2838,
      "ract": 2839,
      "ĠCardigan": 2840,
      "ngel": 2841,
      "Ġcigarette": 2842,
      "kin": 2843,
      "Ġfaint": 2844,
      "abbed": 2845,
      "Ġclim": 2846,
      "Ġordered": 2847,
      "Ġpistol": 2848,
      "AC": 2849,
      "ram": 2850,
      "Ġperfect": 2851,
      "Ġexpect": 2852,
      "Ġfinished": 2853,
      "ibly": 2854,
      "ĠCole": 2855,
      "hood": 2856,
      "Ġtax": 2857,
      "Ġhit": 2858,
      "Ġglanced": 2859,
      "Ġdrink": 2860,
      "Ġrose": 2861,
      "Ġsnapped": 2862,
      "Ġbeautiful": 2863,
      "New": 2864,
      "itions": 2865,
      "Ġreve": 2866,
      "essed": 2867,
      "eless": 2868,
      "ction": 2869,
      "Ġproper": 2870,
      "Ġmarried": 2871,
      "Ġgro": 2872,
      "idently": 2873,
      "Mc": 2874,
      "Ġwild": 2875,
      "Ġstock": 2876,
      "ĠSc": 2877,
      "Ġtrail": 2878,
      "Ġtouch": 2879,
      "Come": 2880,
      "part": 2881,
      "asion": 2882,
      "Ġthrew": 2883,
      "Ġseven": 2884,
      "ĠFrom": 2885,
      "Ġsuit": 2886,
      "ddress": 2887,
      "ontinued": 2888,
      "Ġsuspect": 2889,
      "bro": 2890,
      "ium": 2891,
      "chool": 2892,
      "Ġnearly": 2893,
      "Ġdeclared": 2894,
      "Ġmakes": 2895,
      "olog": 2896,
      "ĠGeorge": 2897,
      "Ġadded": 2898,
      "inner": 2899,
      "keep": 2900,
      "Ġdoorway": 2901,
      "Ġlocked": 2902,
      "rif": 2903,
      "que": 2904,
      "Ġgiving": 2905,
      "Ġoccup": 2906,
      "Ġsimple": 2907,
      "ĠFrancisco": 2908,
      "ĠFl": 2909,
      "Ġ25": 2910,
      "Ġpoor": 2911,
      "never": 2912,
      "Sh": 2913,
      "Ġought": 2914,
      "urd": 2915,
      "Ġleaned": 2916,
      "Ġpointed": 2917,
      "Ġwritten": 2918,
      "agged": 2919,
      "ford": 2920,
      "ĠSmith": 2921,
      "Ġpiece": 2922,
      "ioned": 2923,
      "ounced": 2924,
      "af": 2925,
      "aj": 2926,
      "ania": 2927,
      "Ġtrick": 2928,
      "Ġprisoner": 2929,
      "Ġwhispered": 2930,
      "ĠLet": 2931,
      "Ġvisit": 2932,
      "Ġtem": 2933,
      "Ġage": 2934,
      "orough": 2935,
      "long": 2936,
      "Ġ^": 2937,
      "Ġcat": 2938,
      "stood": 2939,
      "Ġdozen": 2940,
      "rug": 2941,
      "Ġcomfort": 2942,
      "Ġlonger": 2943,
      "Ġinnoc": 2944,
      "hered": 2945,
      "Ġsister": 2946,
      "Ġfright": 2947,
      "ician": 2948,
      "Ġshut": 2949,
      "formed": 2950,
      "ented": 2951,
      "Ġequ": 2952,
      "ĠPark": 2953,
      "Ġattempt": 2954,
      "Ġwatching": 2955,
      "een": 2956,
      "orry": 2957,
      "Ġluck": 2958,
      "cles": 2959,
      "itchen": 2960,
      "oratio": 2961,
      "ev": 2962,
      "ision": 2963,
      "uten": 2964,
      "Ġcomes": 2965,
      "otten": 2966,
      "Some": 2967,
      "Your": 2968,
      "aven": 2969,
      "bout": 2970,
      "ston": 2971,
      "Ġteeth": 2972,
      "Ġescape": 2973,
      "Ġrub": 2974,
      "olly": 2975,
      "Ġcompany": 2976,
      "Ġinterested": 2977,
      "velop": 2978,
      "Ġwriting": 2979,
      "bel": 2980,
      "friend": 2981,
      "zy": 2982,
      "ĠMad": 2983,
      "Ġfacts": 2984,
      "Ġsingle": 2985,
      "Please": 2986,
      "host": 2987,
      "Ġauthor": 2988,
      "isk": 2989,
      "ĠHen": 2990,
      "ĠDep": 2991,
      "uss": 2992,
      "Ġjury": 2993,
      "ĠGet": 2994,
      "aped": 2995,
      "ials": 2996,
      "Ġattorney": 2997,
      "Ġswift": 2998,
      "Ġyellow": 2999,
      "might": 3000,
      "around": 3001,
      "stem": 3002,
      "Ġgrinned": 3003,
      "Ġhuman": 3004,
      "ument": 3005,
      "Ġbrief": 3006,
      "Ġdaughter": 3007,
      "ics": 3008,
      "umst": 3009,
      "olutely": 3010,
      "Ġtrem": 3011,
      "rect": 3012,
      "ĠChe": 3013,
      "ĠRed": 3014,
      "Ġsold": 3015,
      "Ġoffered": 3016,
      "Ġsuggested": 3017,
      "jo": 3018,
      "oes": 3019,
      "Ġcry": 3020,
      "Ġlock": 3021,
      "ĠInd": 3022,
      "ĠPe": 3023,
      "Ġacqu": 3024,
      "ĠLeander": 3025,
      "Ġsimply": 3026,
      "Dime": 3027,
      "par": 3028,
      "Ġpair": 3029,
      "tw": 3030,
      "wood": 3031,
      "Ġmaster": 3032,
      "ety": 3033,
      "ĠBook": 3034,
      "Ġnewspaper": 3035,
      "little": 3036,
      "Ġner": 3037,
      "Ġnarrow": 3038,
      "lin": 3039,
      "heard": 3040,
      "Ġwindows": 3041,
      "vious": 3042,
      "Ġpri": 3043,
      "ĠGold": 3044,
      "against": 3045,
      "ĠCour": 3046,
      "Ġnoticed": 3047,
      "Ġconvict": 3048,
      "reci": 3049,
      "looking": 3050,
      "ĠBroadway": 3051,
      "15": 3052,
      "Ġru": 3053,
      "emb": 3054,
      "ĠOld": 3055,
      "Ġanyone": 3056,
      "urning": 3057,
      "Ġofficers": 3058,
      "Ġfit": 3059,
      "rength": 3060,
      "ron": 3061,
      "three": 3062,
      "ounded": 3063,
      "Ġindic": 3064,
      "ossible": 3065,
      "town": 3066,
      "usiness": 3067,
      "Ġsett": 3068,
      "*.": 3069,
      "?'": 3070,
      "Ġce": 3071,
      "Ġstories": 3072,
      "Ġitself": 3073,
      "Ġ15": 3074,
      "ooth": 3075,
      "Ġcovered": 3076,
      "Ġglo": 3077,
      "Ġknowledge": 3078,
      "Ġguilty": 3079,
      "Sure": 3080,
      "ming": 3081,
      "ustr": 3082,
      "ĠInst": 3083,
      "Ġpersons": 3084,
      "Ġdepartment": 3085,
      "Ġcertainly": 3086,
      "hall": 3087,
      "enu": 3088,
      "itive": 3089,
      "Ġhun": 3090,
      "icul": 3091,
      "Ġbelieved": 3092,
      "Ġdirection": 3093,
      "Ġfavor": 3094,
      "ĠHere": 3095,
      "ĠPa": 3096,
      "versation": 3097,
      "rixey": 3098,
      "lt": 3099,
      "Ġpaused": 3100,
      "Ġnone": 3101,
      "Ġsuper": 3102,
      "ending": 3103,
      "Ġedge": 3104,
      "Ġdisappeared": 3105,
      "Good": 3106,
      "hold": 3107,
      "ĠDan": 3108,
      "Ġslipped": 3109,
      "IL": 3110,
      "aching": 3111,
      "ĠCounty": 3112,
      "chief": 3113,
      "Ġstudy": 3114,
      "ior": 3115,
      "Ġforty": 3116,
      "Ġquar": 3117,
      "Ġscar": 3118,
      "Ġbuy": 3119,
      "Ġservice": 3120,
      "Ġdear": 3121,
      "ĠMay": 3122,
      "Ġsomewhere": 3123,
      "four": 3124,
      "Ġsense": 3125,
      "Ġmid": 3126,
      "Ġfilled": 3127,
      "ĠAttorney": 3128,
      "utenant": 3129,
      "aked": 3130,
      "uge": 3131,
      "Ġmiles": 3132,
      "lyde": 3133,
      "iforn": 3134,
      "inson": 3135,
      "Ġbright": 3136,
      "Ġgreen": 3137,
      "ĠTwo": 3138,
      "ĠEast": 3139,
      "Ġofficer": 3140,
      "RO": 3141,
      "iot": 3142,
      "Ġpers": 3143,
      "ĠMont": 3144,
      "Ġjumped": 3145,
      "Ġcommitted": 3146,
      "Ġimag": 3147,
      "oward": 3148,
      "ĠMur": 3149,
      "agg": 3150,
      "Ġsomeone": 3151,
      "Ġempty": 3152,
      "cious": 3153,
      "case": 3154,
      "Ġcases": 3155,
      "arked": 3156,
      "Ġnine": 3157,
      "ĠAngel": 3158,
      "Ġspare": 3159,
      "attle": 3160,
      "coat": 3161,
      "Ġbroad": 3162,
      "Ġcrossed": 3163,
      "ov": 3164,
      "tell": 3165,
      "aze": 3166,
      "Ġdesper": 3167,
      "velope": 3168,
      "12": 3169,
      "Any": 3170,
      "Ġneigh": 3171,
      "Ġdeterm": 3172,
      "Ġautomatic": 3173,
      "Ġviol": 3174,
      "Ġcra": 3175,
      "otel": 3176,
      "ĠNe": 3177,
      "Ġspent": 3178,
      "!'": 3179,
      "lar": 3180,
      "lson": 3181,
      "Ġsun": 3182,
      "rove": 3183,
      "Ġforce": 3184,
      "Ġcrowd": 3185,
      "think": 3186,
      "tains": 3187,
      "fin": 3188,
      "pec": 3189,
      "elve": 3190,
      "Ġseems": 3191,
      "Ġaction": 3192,
      "Ġnamed": 3193,
      "enth": 3194,
      "Ġremained": 3195,
      "ifornia": 3196,
      "Of": 3197,
      "law": 3198,
      "irger": 3199,
      "Ġsuff": 3200,
      "Ar": 3201,
      "Her": 3202,
      "home": 3203,
      "Ġlady": 3204,
      "Ġrang": 3205,
      "ĠPres": 3206,
      "Ġsomebody": 3207,
      "Ġdrive": 3208,
      "ĠOf": 3209,
      "Ġheadquarters": 3210,
      "Ġexperience": 3211,
      "den": 3212,
      "good": 3213,
      "acter": 3214,
      "ĠWho": 3215,
      "elle": 3216,
      "Ġlifted": 3217,
      "Ġbeneath": 3218,
      "years": 3219,
      "ots": 3220,
      "Ġweak": 3221,
      "Ġprodu": 3222,
      "orrid": 3223,
      "Doctor": 3224,
      "100": 3225,
      "doll": 3226,
      "something": 3227,
      "left": 3228,
      "Ġentrance": 3229,
      "Ġexpression": 3230,
      "ENT": 3231,
      "Ġnervous": 3232,
      "Tt": 3233,
      "eer": 3234,
      "eff": 3235,
      "iter": 3236,
      "Ġsoc": 3237,
      "Ġfollow": 3238,
      "Ġassist": 3239,
      "ergeant": 3240,
      "Ġcalm": 3241,
      "ache": 3242,
      "Ġkitchen": 3243,
      "Ġrail": 3244,
      "ĠFrench": 3245,
      "Ġvar": 3246,
      "Ġapparently": 3247,
      "Ġchin": 3248,
      "ometimes": 3249,
      "seemed": 3250,
      "ping": 3251,
      "ĠÂ»": 3252,
      "erked": 3253,
      "ĠIN": 3254,
      "cell": 3255,
      "Ġclerk": 3256,
      "Ġneeded": 3257,
      "Ġwonderful": 3258,
      "Ġver": 3259,
      "urs": 3260,
      "Ġiss": 3261,
      "Ġvan": 3262,
      "ples": 3263,
      "Ġlooks": 3264,
      "Ġexpected": 3265,
      "Ġsquare": 3266,
      "Ġfifteen": 3267,
      "Ġconsider": 3268,
      "Ġopportunity": 3269,
      "low": 3270,
      "Ġforget": 3271,
      "told": 3272,
      "upon": 3273,
      "Ġhappen": 3274,
      "Ġentirely": 3275,
      "Ġrepeated": 3276,
      "cent": 3277,
      "Ġbent": 3278,
      "orch": 3279,
      "Ġloose": 3280,
      "Ġund": 3281,
      "ddenly": 3282,
      "first": 3283,
      "Ġmad": 3284,
      "Ġdie": 3285,
      "Ġstate": 3286,
      "ĠBar": 3287,
      "Ġweap": 3288,
      "Ġtrust": 3289,
      "ength": 3290,
      "Continued": 3291,
      "pan": 3292,
      "echan": 3293,
      "Ġrooms": 3294,
      "Ġchest": 3295,
      "Ġsilent": 3296,
      "Ġspeed": 3297,
      "Ġsurprise": 3298,
      "joy": 3299,
      "tion": 3300,
      "Ġmis": 3301,
      "ĠMac": 3302,
      "ries": 3303,
      "ĠYOU": 3304,
      "Ġtraining": 3305,
      "wind": 3306,
      "Ġmain": 3307,
      "alley": 3308,
      "Ġchange": 3309,
      "umberton": 3310,
      "Ġquietly": 3311,
      "Ġer": 3312,
      "happ": 3313,
      "enced": 3314,
      "Ġee": 3315,
      "ivid": 3316,
      "Ġearn": 3317,
      "Ye": 3318,
      "Ġyouth": 3319,
      "arden": 3320,
      "lessly": 3321,
      "oul": 3322,
      "ĠOff": 3323,
      "istrict": 3324,
      "Ġremoved": 3325,
      "Ġlawyer": 3326,
      "Ġexcit": 3327,
      "Ġcatch": 3328,
      "Ġthorough": 3329,
      "Ġdoors": 3330,
      "oci": 3331,
      "attered": 3332,
      "Ġdistance": 3333,
      "Ġorders": 3334,
      "ma": 3335,
      "hast": 3336,
      "Ġlower": 3337,
      "ils": 3338,
      "Ġunless": 3339,
      "Ġbottle": 3340,
      "enuine": 3341,
      "Ġve": 3342,
      "enny": 3343,
      "Ġhy": 3344,
      "Ġlad": 3345,
      "iller": 3346,
      "Ġshop": 3347,
      "Ġlegs": 3348,
      "Ġrealized": 3349,
      "NE": 3350,
      "^^": 3351,
      "gi": 3352,
      "ĠâĢ¢": 3353,
      "Ġself": 3354,
      "Ġmissing": 3355,
      "Ġcircumst": 3356,
      "ĠJoe": 3357,
      "Ġparty": 3358,
      "Ġinterru": 3359,
      "ĠEngineer": 3360,
      "ĠOhio": 3361,
      "make": 3362,
      "resp": 3363,
      "eral": 3364,
      "Ġdream": 3365,
      "Ġformer": 3366,
      "knew": 3367,
      "Ġsuspicion": 3368,
      "boy": 3369,
      "Ġbird": 3370,
      "atives": 3371,
      "Ġsum": 3372,
      "Ġconce": 3373,
      "Ġconcer": 3374,
      "himself": 3375,
      "25": 3376,
      "Every": 3377,
      "bu": 3378,
      "pri": 3379,
      "Ġpuzz": 3380,
      "Ġiron": 3381,
      "woman": 3382,
      "Mar": 3383,
      "ĠMon": 3384,
      "Ġsteel": 3385,
      "ILL": 3386,
      "rid": 3387,
      "ĠÂ«": 3388,
      "ats": 3389,
      "Ġstaring": 3390,
      "ĠWal": 3391,
      "olen": 3392,
      "play": 3393,
      "Ġcannot": 3394,
      ".-": 3395,
      "Bill": 3396,
      "uation": 3397,
      "Ġes": 3398,
      "Ġbul": 3399,
      "urred": 3400,
      "Ġlikely": 3401,
      "Ġarrested": 3402,
      "too": 3403,
      "Ġmiddle": 3404,
      "Ġfield": 3405,
      "Ġdiv": 3406,
      "ĠIll": 3407,
      "urant": 3408,
      "Ġrequ": 3409,
      "Ġkilling": 3410,
      "Ġfailed": 3411,
      "Ġfirm": 3412,
      "ora": 3413,
      "ĠLee": 3414,
      "Ġthemselves": 3415,
      "Ġboard": 3416,
      "Ġcigar": 3417,
      "eur": 3418,
      "lton": 3419,
      "Ġhide": 3420,
      "Ġturning": 3421,
      "Ġprofession": 3422,
      "rist": 3423,
      "Ġstrugg": 3424,
      "Ġknowing": 3425,
      "Ġusual": 3426,
      "Ġfrown": 3427,
      "Ġsupposed": 3428,
      "going": 3429,
      "ascin": 3430,
      "60": 3431,
      "LY": 3432,
      "lan": 3433,
      "much": 3434,
      "Ġstiff": 3435,
      "ĠInspector": 3436,
      "without": 3437,
      "Ġbuild": 3438,
      "Ġelev": 3439,
      "Ġtrans": 3440,
      "kes": 3441,
      "Ġlaid": 3442,
      "ĠMax": 3443,
      "iring": 3444,
      "ĠAm": 3445,
      "Ġguns": 3446,
      "Ġsuggest": 3447,
      "SS": 3448,
      "Ġrid": 3449,
      "ope": 3450,
      "Ġappreci": 3451,
      "Ġchanged": 3452,
      "Ġwalking": 3453,
      "rent": 3454,
      "adley": 3455,
      "didn": 3456,
      "Ġshooting": 3457,
      "certain": 3458,
      "Ġpun": 3459,
      "Ġpale": 3460,
      "Ġenvelope": 3461,
      "Ġ\\": 3462,
      "ĠDE": 3463,
      "olt": 3464,
      "Ġyours": 3465,
      "ĠKell": 3466,
      "exp": 3467,
      "Ġappearance": 3468,
      "Ġmessage": 3469,
      "Name": 3470,
      "must": 3471,
      "arily": 3472,
      "Ġlab": 3473,
      "otion": 3474,
      "ĠLos": 3475,
      "Ġ11": 3476,
      "Look": 3477,
      "book": 3478,
      "Ġsick": 3479,
      "Ġbill": 3480,
      "Ġnice": 3481,
      "Ġterrible": 3482,
      "ĠSchool": 3483,
      "ean": 3484,
      "hel": 3485,
      "Ġthrow": 3486,
      "ĠMoney": 3487,
      "ĠDick": 3488,
      "Ġclub": 3489,
      "embered": 3490,
      "cur": 3491,
      "Ġune": 3492,
      "alls": 3493,
      "Ġconversation": 3494,
      "nothing": 3495,
      "Ġdirectly": 3496,
      "Ġview": 3497,
      "Ġsatisfied": 3498,
      "mission": 3499,
      "Jerry": 3500,
      "Ġdrawn": 3501,
      "uliar": 3502,
      "Ġblow": 3503,
      "Ġremark": 3504,
      "ĠAngeles": 3505,
      "Ġschool": 3506,
      "ises": 3507,
      "asure": 3508,
      "ands": 3509,
      "ague": 3510,
      "Ġknees": 3511,
      "Ġrecord": 3512,
      "office": 3513,
      "Maybe": 3514,
      "ae": 3515,
      "imer": 3516,
      "ĠST": 3517,
      "ĠHoratio": 3518,
      "Ġfort": 3519,
      "Ġblank": 3520,
      "Ġtrip": 3521,
      "Ġcapt": 3522,
      "Per": 3523,
      "aly": 3524,
      "bell": 3525,
      "leep": 3526,
      "ĠCle": 3527,
      "ĠPlease": 3528,
      "Ġinstead": 3529,
      "Ġmoving": 3530,
      "Can": 3531,
      "count": 3532,
      "fle": 3533,
      "Ġinclud": 3534,
      "ĠPeter": 3535,
      "ĠGrenville": 3536,
      "Ġmillion": 3537,
      "fast": 3538,
      "Ġmat": 3539,
      "icide": 3540,
      "ĠTell": 3541,
      "osite": 3542,
      "Ġinstruct": 3543,
      "INE": 3544,
      "ĠClark": 3545,
      "ĠThom": 3546,
      "Ġthousands": 3547,
      "Ġchildren": 3548,
      "Ġinvestigation": 3549,
      "ashington": 3550,
      "aranteed": 3551,
      "CE": 3552,
      "des": 3553,
      "dark": 3554,
      "Ġsne": 3555,
      "aylor": 3556,
      "ĠTHE": 3557,
      "Ġscr": 3558,
      "Ġcareful": 3559,
      "morrow": 3560,
      "Ġears": 3561,
      "ĠOnly": 3562,
      "Ġburgl": 3563,
      "Ġanxious": 3564,
      "take": 3565,
      "erted": 3566,
      "Ġpress": 3567,
      "Ġmerely": 3568,
      "Ġtip": 3569,
      "ism": 3570,
      "inging": 3571,
      "Ġaside": 3572,
      "Ġcars": 3573,
      "orror": 3574,
      "board": 3575,
      "hour": 3576,
      "sn": 3577,
      "writ": 3578,
      "Ġmaid": 3579,
      "Ġfol": 3580,
      "agn": 3581,
      "phy": 3582,
      "Ġbelong": 3583,
      "plex": 3584,
      "Ġmotor": 3585,
      "ceeded": 3586,
      "pass": 3587,
      "police": 3588,
      "real": 3589,
      "Ġeh": 3590,
      "Ġregular": 3591,
      "TION": 3592,
      "Ġaffair": 3593,
      "Ġcopy": 3594,
      "worthy": 3595,
      "position": 3596,
      "Ex": 3597,
      "faced": 3598,
      "itude": 3599,
      "Ġcustom": 3600,
      "Ġknocked": 3601,
      "Ġamazing": 3602,
      "Ġcommun": 3603,
      "Ġextra": 3604,
      "ĠPhil": 3605,
      "ĠCalifornia": 3606,
      "ĠHenry": 3607,
      "ĠSec": 3608,
      "ĠPal": 3609,
      "ipe": 3610,
      "Ġwants": 3611,
      "Ġobser": 3612,
      "por": 3613,
      "Ġforced": 3614,
      "ech": 3615,
      "Ġjerked": 3616,
      "Ġwore": 3617,
      "rey": 3618,
      "Ġgrew": 3619,
      "ayler": 3620,
      "urch": 3621,
      "urance": 3622,
      "rial": 3623,
      "Ġhardly": 3624,
      "Ġfamous": 3625,
      "Ġpurpose": 3626,
      "Ġbeginning": 3627,
      "Ġsim": 3628,
      "enough": 3629,
      "rop": 3630,
      "ĠAve": 3631,
      "Ġknock": 3632,
      "Ġalthough": 3633,
      "Ġpop": 3634,
      "Ġintrodu": 3635,
      "Ġsubject": 3636,
      "Ġsoftly": 3637,
      "Cardigan": 3638,
      "Have": 3639,
      "last": 3640,
      "Ġcontin": 3641,
      "orridor": 3642,
      "oint": 3643,
      "outed": 3644,
      "Ġpath": 3645,
      "locked": 3646,
      "Ġpoison": 3647,
      "Ġunderworld": 3648,
      "Ġ20": 3649,
      "Ġactually": 3650,
      "Ġterror": 3651,
      "Ġleading": 3652,
      "ele": 3653,
      "Ġdinner": 3654,
      "Ġreach": 3655,
      "ĠMark": 3656,
      "Ġasking": 3657,
      "ĠWas": 3658,
      "Ġdog": 3659,
      "ĠGl": 3660,
      "Ġnobody": 3661,
      "young": 3662,
      "Ġobligation": 3663,
      "girl": 3664,
      "Ġcaut": 3665,
      "Ġdest": 3666,
      "ĠRadio": 3667,
      "uffeur": 3668,
      "Ġhospital": 3669,
      "Ġestab": 3670,
      "pet": 3671,
      "inion": 3672,
      "Ġdim": 3673,
      "Ġpal": 3674,
      "Ġnotice": 3675,
      "quick": 3676,
      "ĠFred": 3677,
      "Ġwheel": 3678,
      "Ġ14": 3679,
      "Ġproved": 3680,
      "Ġcarry": 3681,
      "Ġpromised": 3682,
      "Ġhealth": 3683,
      "Ġcompanion": 3684,
      "OL": 3685,
      "UR": 3686,
      "half": 3687,
      "ĠBirger": 3688,
      "Ġqueer": 3689,
      "Ġchuck": 3690,
      "ucky": 3691,
      "rugged": 3692,
      "City": 3693,
      "From": 3694,
      "IE": 3695,
      "line": 3696,
      "saw": 3697,
      "Ġpec": 3698,
      "Ġlim": 3699,
      "idew": 3700,
      "Ġelectric": 3701,
      "ĠTex": 3702,
      "ĠBox": 3703,
      "terday": 3704,
      "usual": 3705,
      "Ġneare": 3706,
      "Ġbusy": 3707,
      "Ġsystem": 3708,
      "Ġtype": 3709,
      "Ġnatural": 3710,
      "ugg": 3711,
      "Ġble": 3712,
      "Ġbare": 3713,
      "Ġnames": 3714,
      "ĠThese": 3715,
      "Ġjewel": 3716,
      "Ġalley": 3717,
      "ĠOF": 3718,
      "Ġalive": 3719,
      "range": 3720,
      "Ġcriminals": 3721,
      "Ġshadow": 3722,
      "Ġphotograph": 3723,
      "care": 3724,
      "ye": 3725,
      "Ġdi": 3726,
      "atest": 3727,
      "urse": 3728,
      "ĠCha": 3729,
      "augh": 3730,
      "Ġbedroom": 3731,
      "resent": 3732,
      "view": 3733,
      "Ġabsolutely": 3734,
      "lie": 3735,
      "lyn": 3736,
      "ĠDel": 3737,
      "Ġspl": 3738,
      "Ġplaying": 3739,
      "Ġexplain": 3740,
      "Ġslightly": 3741,
      "Ġ<": 3742,
      "Ġmatch": 3743,
      "order": 3744,
      "lying": 3745,
      "Ġeager": 3746,
      "aine": 3747,
      "unted": 3748,
      "unning": 3749,
      "Ġship": 3750,
      "Ġclever": 3751,
      "char": 3752,
      "iant": 3753,
      "say": 3754,
      "Ġsize": 3755,
      "Ġmer": 3756,
      "ĠTO": 3757,
      "ĠTham": 3758,
      "ada": 3759,
      "ĠOut": 3760,
      "Ġspread": 3761,
      "Ġboat": 3762,
      "Ġ30": 3763,
      "Ġordinary": 3764,
      "Ġrecognized": 3765,
      "aves": 3766,
      "year": 3767,
      "Ġbonds": 3768,
      "Ġupstairs": 3769,
      "Ġhandle": 3770,
      "Ġsounded": 3771,
      "Ġsurprised": 3772,
      "Ġcrook": 3773,
      "Ġexcitement": 3774,
      "ati": 3775,
      "story": 3776,
      "acy": 3777,
      "ĠMail": 3778,
      "ĠBrixey": 3779,
      "Ġbooks": 3780,
      "ĠJackson": 3781,
      "Ġcenter": 3782,
      "mie": 3783,
      "murder": 3784,
      "wait": 3785,
      "Ġtruck": 3786,
      "Ġdressed": 3787,
      "rose": 3788,
      "ĠSte": 3789,
      "Ġneither": 3790,
      "Ġcrack": 3791,
      "Ġpersonal": 3792,
      "Ġmysterious": 3793,
      "Ġgeneral": 3794,
      "mind": 3795,
      "six": 3796,
      "Ġbills": 3797,
      "Ġmuttered": 3798,
      "ĠSy": 3799,
      "ĠWhere": 3800,
      "ĠDay": 3801,
      "Ġgoes": 3802,
      "Ġgrand": 3803,
      "Ġopening": 3804,
      "Ġsentence": 3805,
      "Ġdouble": 3806,
      "name": 3807,
      "uct": 3808,
      "wr": 3809,
      "Ġfut": 3810,
      "Ġtwisted": 3811,
      "Ġcharacter": 3812,
      "Ġpeculiar": 3813,
      "Ġport": 3814,
      "Ġstret": 3815,
      "ĠDor": 3816,
      "ording": 3817,
      "Ġrefused": 3818,
      "inois": 3819,
      "Com": 3820,
      "lv": 3821,
      "mo": 3822,
      "illing": 3823,
      "usion": 3824,
      "umed": 3825,
      "shot": 3826,
      "Ġforehead": 3827,
      "Ġvalue": 3828,
      "Ġhesitated": 3829,
      "Was": 3830,
      "eb": 3831,
      "pock": 3832,
      "Ġtreat": 3833,
      "itz": 3834,
      "itched": 3835,
      "ammed": 3836,
      "ĠBerman": 3837,
      "Ġrock": 3838,
      "ĠStates": 3839,
      "Qu": 3840,
      "SE": 3841,
      "gest": 3842,
      "obby": 3843,
      "Ġamount": 3844,
      "Ġtells": 3845,
      "ĠVee": 3846,
      "Ġincre": 3847,
      "Ġoccasion": 3848,
      "ĠAmerican": 3849,
      "Hell": 3850,
      "Ġgrou": 3851,
      "Ġlistened": 3852,
      "Ġhorse": 3853,
      "put": 3854,
      "port": 3855,
      "Ġpin": 3856,
      "Ġstolen": 3857,
      "ackworthy": 3858,
      "urns": 3859,
      "Ġplenty": 3860,
      "ĠSheriff": 3861,
      "Ġadm": 3862,
      "Ġgirls": 3863,
      "Ġsuspected": 3864,
      "Ġtyp": 3865,
      "Ġgarage": 3866,
      "OT": 3867,
      "cely": 3868,
      "ureau": 3869,
      "pert": 3870,
      "Ġsmoke": 3871,
      "taining": 3872,
      "ences": 3873,
      "kerchief": 3874,
      "course": 3875,
      "Con": 3876,
      "Than": 3877,
      "yed": 3878,
      "Ġfixed": 3879,
      "Ġcard": 3880,
      "atures": 3881,
      "Ġnature": 3882,
      "Ġjaw": 3883,
      "Ġweight": 3884,
      "oseph": 3885,
      "Ġdistrict": 3886,
      "Ġdescription": 3887,
      "Ġpoliceman": 3888,
      "Ġweapon": 3889,
      "Car": 3890,
      "ND": 3891,
      "cut": 3892,
      "fam": 3893,
      "oupon": 3894,
      "Ġla": 3895,
      "ĠPar": 3896,
      "onder": 3897,
      "Ġadvert": 3898,
      "ONE": 3899,
      "Ġbeauty": 3900,
      "Ġgasped": 3901,
      "Ġtone": 3902,
      "inced": 3903,
      "Ġhuge": 3904,
      "Ġghost": 3905,
      "icult": 3906,
      "Ġthrill": 3907,
      "iliar": 3908,
      "open": 3909,
      "Ġwhatever": 3910,
      "Ġbrain": 3911,
      "Nothing": 3912,
      "Ġmembers": 3913,
      "Yeah": 3914,
      "floor": 3915,
      "gree": 3916,
      "mail": 3917,
      "Ġfail": 3918,
      "aning": 3919,
      "ĠHo": 3920,
      "ewis": 3921,
      "Ġsuc": 3922,
      "Ġremembered": 3923,
      "ext": 3924,
      "covery": 3925,
      "ding": 3926,
      "field": 3927,
      "took": 3928,
      "Ġ/": 3929,
      "ators": 3930,
      "still": 3931,
      "Ġstam": 3932,
      "Ġconsc": 3933,
      "ruptly": 3934,
      "âĢĬ": 3935,
      "rival": 3936,
      "aus": 3937,
      "col": 3938,
      "voice": 3939,
      "Ġaid": 3940,
      "ina": 3941,
      "Ġloud": 3942,
      "alt": 3943,
      "ĠSouth": 3944,
      "ĠClyde": 3945,
      "Ġjudge": 3946,
      "ĠRice": 3947,
      "Ġconfession": 3948,
      "TEC": 3949,
      "sat": 3950,
      "heart": 3951,
      "Ġstrength": 3952,
      "obody": 3953,
      "Ġhole": 3954,
      "want": 3955,
      "Ġstir": 3956,
      "olved": 3957,
      "izing": 3958,
      "gram": 3959,
      "Ġhurt": 3960,
      "Ġdiamonds": 3961,
      "Ġhonest": 3962,
      "IG": 3963,
      "Two": 3964,
      "cont": 3965,
      "Ġbre": 3966,
      "itiz": 3967,
      "asped": 3968,
      "ĠDid": 3969,
      "ighed": 3970,
      "ĠJames": 3971,
      "isten": 3972,
      "Ġanyway": 3973,
      "Ġkeeping": 3974,
      "ĠConn": 3975,
      "mond": 3976,
      "sion": 3977,
      "Ġlength": 3978,
      "ĠBel": 3979,
      "ĠKid": 3980,
      "Ġwrist": 3981,
      "TIVE": 3982,
      "Ġdamned": 3983,
      "Ġinnocent": 3984,
      "Ġsorry": 3985,
      "Ġgrave": 3986,
      "ĠMaybe": 3987,
      "iltern": 3988,
      "ĠGro": 3989,
      "Ġplans": 3990,
      "Ġplaces": 3991,
      "Ġworry": 3992,
      "Ġappl": 3993,
      "ervice": 3994,
      "Ġreading": 3995,
      "afe": 3996,
      "Ġcents": 3997,
      "ĠFin": 3998,
      "ĠRam": 3999,
      "orty": 4000,
      "vis": 4001,
      "arse": 4002,
      "acket": 4003,
      "Ġgets": 4004,
      "Ġblind": 4005,
      "death": 4006,
      "Ġinterrupted": 4007,
      "DE": 4008,
      "Oakley": 4009,
      "ĠHall": 4010,
      "ilk": 4011,
      "Ġtwice": 4012,
      "ensive": 4013,
      "until": 4014,
      "Ġwondered": 4015,
      "flu": 4016,
      "Ġtouched": 4017,
      "US": 4018,
      "Ġcoff": 4019,
      "Ġpan": 4020,
      "ĠTaylor": 4021,
      "ĠHood": 4022,
      "ĠMen": 4023,
      "ĠWashington": 4024,
      "oles": 4025,
      "ĠGovern": 4026,
      "Ġvac": 4027,
      "Ġlighted": 4028,
      "Ġdrop": 4029,
      "Ġquestioned": 4030,
      "Go": 4031,
      "gy": 4032,
      "give": 4033,
      "ground": 4034,
      "may": 4035,
      "tt": 4036,
      "Ġhidden": 4037,
      "seen": 4038,
      "rob": 4039,
      "top": 4040,
      "ieutenant": 4041,
      "Ġsmo": 4042,
      "Ġenjoy": 4043,
      "Ġaccident": 4044,
      "Street": 4045,
      "Ġwalls": 4046,
      "respond": 4047,
      "cing": 4048,
      "eight": 4049,
      "gar": 4050,
      "great": 4051,
      "orter": 4052,
      "ĠMill": 4053,
      "Ġrain": 4054,
      "Ġ...": 4055,
      "Ġevidently": 4056,
      "eckoner": 4057,
      "Ġplayed": 4058,
      "orris": 4059,
      "Ġbitter": 4060,
      "moment": 4061,
      "zed": 4062,
      "Ġblond": 4063,
      "arry": 4064,
      "Ġdull": 4065,
      "Ġlines": 4066,
      "Ġgate": 4067,
      "Ġhanded": 4068,
      "Ġgrate": 4069,
      "ĠYes": 4070,
      "Ġhelped": 4071,
      "Ġmarked": 4072,
      "Ġpictures": 4073,
      "Ġopposite": 4074,
      "stein": 4075,
      "APTER": 4076,
      "ascinating": 4077,
      "18": 4078,
      "eep": 4079,
      "rical": 4080,
      "Ġforth": 4081,
      "erence": 4082,
      "ĠBarn": 4083,
      "Ġorgan": 4084,
      "Ġvol": 4085,
      "plete": 4086,
      "Ġsmooth": 4087,
      "Ġactual": 4088,
      "Ġpresence": 4089,
      "Ġlisten": 4090,
      "Ġsweet": 4091,
      "necessary": 4092,
      "uable": 4093,
      "Ġsidew": 4094,
      "acted": 4095,
      "ĠDistrict": 4096,
      "uniot": 4097,
      "Ġshown": 4098,
      "ouses": 4099,
      "ondon": 4100,
      "ires": 4101,
      "Ġfinding": 4102,
      "Ġexcited": 4103,
      "rant": 4104,
      "yan": 4105,
      "Ġtoss": 4106,
      "Ġgenuine": 4107,
      "Ġstated": 4108,
      "ĠMart": 4109,
      "Ġusually": 4110,
      "Ġcrimes": 4111,
      "Ġchauffeur": 4112,
      "Ġenter": 4113,
      "ĠCompany": 4114,
      "viation": 4115,
      "Brown": 4116,
      "Ġneighbor": 4117,
      "big": 4118,
      "ses": 4119,
      "Ġmor": 4120,
      "agger": 4121,
      "earing": 4122,
      "ĠNayler": 4123,
      "Ġ''": 4124,
      "wise": 4125,
      "ppose": 4126,
      "Ġmotive": 4127,
      "cross": 4128,
      "Ġcaused": 4129,
      "Ġcorridor": 4130,
      "alog": 4131,
      "Ġspir": 4132,
      "Ġdevelop": 4133,
      "Ġtwelve": 4134,
      "Ġprints": 4135,
      "Ġslip": 4136,
      "black": 4137,
      "Ġreported": 4138,
      "hands": 4139,
      "Ġmotion": 4140,
      "Ġmusic": 4141,
      "Un": 4142,
      "Ġdrug": 4143,
      "omen": 4144,
      "ĠWork": 4145,
      "Ġlives": 4146,
      "airo": 4147,
      "dri": 4148,
      "Ġbound": 4149,
      "ĠHouse": 4150,
      "earn": 4151,
      "rapped": 4152,
      "oston": 4153,
      "Ġjobs": 4154,
      "ification": 4155,
      "ĠWhite": 4156,
      "covered": 4157,
      "Ġhiding": 4158,
      "Ġlatter": 4159,
      "Ġhast": 4160,
      "ĠTH": 4161,
      "ĠSergeant": 4162,
      "usted": 4163,
      "Ġspo": 4164,
      "Ġexplo": 4165,
      "prints": 4166,
      "ĠSchick": 4167,
      "ierson": 4168,
      "Ġstro": 4169,
      "Ġstone": 4170,
      "riage": 4171,
      "ĠJudge": 4172,
      "Ġreply": 4173,
      "Ġfresh": 4174,
      "Ġdevil": 4175,
      "tic": 4176,
      "Ġur": 4177,
      "herry": 4178,
      "Ġvic": 4179,
      "Ġnoise": 4180,
      "conscious": 4181,
      "Ġvarious": 4182,
      "''": 4183,
      "Are": 4184,
      "wa": 4185,
      "Ġfal": 4186,
      "----": 4187,
      "amb": 4188,
      "ĠCairo": 4189,
      "ĠWil": 4190,
      "ĠPay": 4191,
      "Ġshows": 4192,
      "white": 4193,
      "âĢŀ": 4194,
      "Ġbottom": 4195,
      "Address": 4196,
      "called": 4197,
      "Ġreward": 4198,
      "quently": 4199,
      "Ġhandkerchief": 4200,
      "âĸłâĸł": 4201,
      "Ġinteresting": 4202,
      "chair": 4203,
      "Ġrespons": 4204,
      "ais": 4205,
      "pre": 4206,
      "Ġ=": 4207,
      "aling": 4208,
      "ĠTw": 4209,
      "Ġrespect": 4210,
      "agan": 4211,
      "Ġshoes": 4212,
      "Ġshrugged": 4213,
      "ieve": 4214,
      "ranch": 4215,
      "Ġuncle": 4216,
      "Ġfarm": 4217,
      "Ġobject": 4218,
      "Ġissue": 4219,
      "wall": 4220,
      "Ġcause": 4221,
      "ĠMo": 4222,
      "ĠMurder": 4223,
      "ainted": 4224,
      "unn": 4225,
      "ĠPost": 4226,
      "ĠEven": 4227,
      "Ġcomb": 4228,
      "Ġwrote": 4229,
      "Ġmurm": 4230,
      "Ġintended": 4231,
      "Ġserious": 4232,
      "75": 4233,
      "Jim": 4234,
      "ĠCH": 4235,
      "bles": 4236,
      "iction": 4237,
      "Ġguest": 4238,
      "âĢ¦": 4239,
      "Ġstranger": 4240,
      "CHAPTER": 4241,
      "Ġcabin": 4242,
      "Ġcounter": 4243,
      "ividual": 4244,
      "TECTIVE": 4245,
      "foot": 4246,
      "pse": 4247,
      "Ġbought": 4248,
      "Ġdry": 4249,
      "Ġwilling": 4250,
      "Ġarg": 4251,
      "Ġadmit": 4252,
      "Ġbuilt": 4253,
      "Ġcompletely": 4254,
      "Ġthrust": 4255,
      "Ġtaxi": 4256,
      "Ġcircumstances": 4257,
      "14": 4258,
      "EW": 4259,
      "rd": 4260,
      "tering": 4261,
      "ĠJu": 4262,
      "Ġleaped": 4263,
      "brary": 4264,
      "Ġcaptain": 4265,
      "ounted": 4266,
      "Ġnewspapers": 4267,
      "Ġmistake": 4268,
      "ĠDepartment": 4269,
      "writing": 4270,
      "Tom": 4271,
      "life": 4272,
      "ral": 4273,
      "ĠHotel": 4274,
      "Ġrough": 4275,
      "antage": 4276,
      "âģłâĢ¦": 4277,
      "Ġdelight": 4278,
      "Ġartic": 4279,
      "Ġmentioned": 4280,
      "TR": 4281,
      "find": 4282,
      "gro": 4283,
      "gress": 4284,
      "Ġgam": 4285,
      "Ġeat": 4286,
      "Ġbutton": 4287,
      "Ġconc": 4288,
      "Ġpockets": 4289,
      "Ġhurry": 4290,
      "Ġmovement": 4291,
      "ĠUnited": 4292,
      "Ġwearing": 4293,
      "Ġrevealed": 4294,
      "Ġfrightened": 4295,
      "De": 4296,
      "toward": 4297,
      "Ġign": 4298,
      "andon": 4299,
      "Ġrushed": 4300,
      "Ġshock": 4301,
      "Ġ16": 4302,
      "Ġseeing": 4303,
      "Ġpartner": 4304,
      "Ġimpossible": 4305,
      "ancing": 4306,
      "Ġrelief": 4307,
      "Ġillustr": 4308,
      "Ġescaped": 4309,
      "Ġphysician": 4310,
      "IR": 4311,
      "Sha": 4312,
      "ipp": 4313,
      "mber": 4314,
      "sure": 4315,
      "viously": 4316,
      "yes": 4317,
      "Ġ>": 4318,
      "Ġban": 4319,
      "Ġbaby": 4320,
      "Ġcas": 4321,
      "Ġduty": 4322,
      "Ġemer": 4323,
      "Ġride": 4324,
      "ĠOur": 4325,
      "Ġroof": 4326,
      "Ġcarrying": 4327,
      "Ġdriving": 4328,
      "secut": 4329,
      "Ġprepared": 4330,
      "Ġsituation": 4331,
      "Ġyesterday": 4332,
      "Ġclimbed": 4333,
      "Ġelevator": 4334,
      "Ġodd": 4335,
      "agement": 4336,
      "ulated": 4337,
      "Ġgrad": 4338,
      "Ġframe": 4339,
      "Ġexpert": 4340,
      "Ġrolled": 4341,
      "VER": 4342,
      "Ġtiny": 4343,
      "esh": 4344,
      "Ġpressed": 4345,
      "imate": 4346,
      "ĠMic": 4347,
      "ĠWhe": 4348,
      "Ġ13": 4349,
      "Ġresults": 4350,
      "FREE": 4351,
      "Ġtired": 4352,
      "Ġsales": 4353,
      "----\"": 4354,
      "ifty": 4355,
      "ĠWay": 4356,
      "Ġproble": 4357,
      "Ġenem": 4358,
      "blood": 4359,
      "Ġdesp": 4360,
      "Ġmoments": 4361,
      "ibility": 4362,
      "Ġserved": 4363,
      "Ġinquired": 4364,
      "Ġswiftly": 4365,
      "such": 4366,
      "Ġtong": 4367,
      "ita": 4368,
      "Ġmass": 4369,
      "alf": 4370,
      "ĠTR": 4371,
      "cend": 4372,
      "those": 4373,
      "ewrit": 4374,
      "ivered": 4375,
      "antic": 4376,
      "ĠRiver": 4377,
      "dead": 4378,
      "Ġcounty": 4379,
      "ĠAlso": 4380,
      "Ġlistening": 4381,
      "iary": 4382,
      "ublic": 4383,
      "Ġwound": 4384,
      "Ġpow": 4385,
      "icted": 4386,
      "these": 4387,
      "ĠRic": 4388,
      "Ġsmiling": 4389,
      "things": 4390,
      "ĠClackworthy": 4391,
      "Ġmeeting": 4392,
      "ĠCharley": 4393,
      "GE": 4394,
      "Ġgle": 4395,
      "ranged": 4396,
      "why": 4397,
      "Ġconfidence": 4398,
      "ĠNothing": 4399,
      "pecially": 4400,
      "cast": 4401,
      "gotten": 4402,
      "edan": 4403,
      "oming": 4404,
      "ette": 4405,
      "ribut": 4406,
      "opsy": 4407,
      "Ġpackage": 4408,
      "Ġdetermined": 4409,
      "ĠIllinois": 4410,
      "Gu": 4411,
      "born": 4412,
      "Ġbas": 4413,
      "Ġmount": 4414,
      "Ġcru": 4415,
      "ading": 4416,
      "ushing": 4417,
      "Ġwealth": 4418,
      "Ġpassing": 4419,
      "Ġwarm": 4420,
      "chell": 4421,
      "Ġcondition": 4422,
      "steps": 4423,
      "Ġtrees": 4424,
      "Ġrapidly": 4425,
      "EAR": 4426,
      "dec": 4427,
      "rick": 4428,
      "Ġwid": 4429,
      "ĠSha": 4430,
      "ĠBob": 4431,
      "illips": 4432,
      "elph": 4433,
      "ĠFre": 4434,
      "ĠEv": 4435,
      "Ġputting": 4436,
      "conv": 4437,
      "ĠIndian": 4438,
      "Am": 4439,
      "because": 4440,
      "person": 4441,
      "susp": 4442,
      "ule": 4443,
      "Ġfle": 4444,
      "llen": 4445,
      "Ġinde": 4446,
      "Ġgat": 4447,
      "ĠSw": 4448,
      "vern": 4449,
      "ĠYet": 4450,
      "atten": 4451,
      "Ġannounced": 4452,
      "Ġcrazy": 4453,
      "once": 4454,
      "ĠMich": 4455,
      "Ġtrace": 4456,
      "Ġprevious": 4457,
      "Ġmuscles": 4458,
      "front": 4459,
      "**": 4460,
      "brought": 4461,
      "dr": 4462,
      "Ġsought": 4463,
      "ench": 4464,
      "itchell": 4465,
      "Ġporch": 4466,
      "Ġloot": 4467,
      "lected": 4468,
      "ĠSim": 4469,
      "ĠHumberton": 4470,
      "ĠMa": 4471,
      "ĠNOW": 4472,
      "ĠJoseph": 4473,
      "ĠGab": 4474,
      "Ġharm": 4475,
      "Ġinstr": 4476,
      "abouts": 4477,
      "Ġdetail": 4478,
      "ĠHarry": 4479,
      "Ġplanned": 4480,
      "Ġgentleman": 4481,
      "TU": 4482,
      "fell": 4483,
      "ias": 4484,
      "sk": 4485,
      "leased": 4486,
      "ĠWee": 4487,
      "Ġproof": 4488,
      "Ġafterward": 4489,
      "ĠInc": 4490,
      "ĠBradley": 4491,
      "Ġcurious": 4492,
      "Ġ50": 4493,
      "ĠPrice": 4494,
      "Ġbandits": 4495,
      "Ġconsidered": 4496,
      "Ġdangerous": 4497,
      "AZ": 4498,
      "aa": 4499,
      "Ġtheory": 4500,
      "Ġbath": 4501,
      "Ġlit": 4502,
      "Ġstar": 4503,
      "ĠBo": 4504,
      "ĠWor": 4505,
      "outon": 4506,
      "Ġrum": 4507,
      "Ġrich": 4508,
      "Ġradio": 4509,
      "Ġclass": 4510,
      "Ġflashed": 4511,
      "Ġkiller": 4512,
      "Ġassured": 4513,
      "ĠNorth": 4514,
      "elphia": 4515,
      "Ġsometimes": 4516,
      "answ": 4517,
      "Ġupper": 4518,
      "ables": 4519,
      "need": 4520,
      "Ġsteady": 4521,
      "apping": 4522,
      "Ġfactory": 4523,
      "Ġassoci": 4524,
      "Ġprisoners": 4525,
      "Ġwarning": 4526,
      "close": 4527,
      "ius": 4528,
      "ication": 4529,
      "Ġonto": 4530,
      "along": 4531,
      "rigin": 4532,
      "ĠDime": 4533,
      "Ġprevent": 4534,
      "Ġdiscovery": 4535,
      "Ġopinion": 4536,
      "Ġmoon": 4537,
      "aldy": 4538,
      "Ġinsisted": 4539,
      "Ġburst": 4540,
      "Ġperfectly": 4541,
      "pocket": 4542,
      "'.": 4543,
      "BER": 4544,
      "ners": 4545,
      "Â£": 4546,
      "Ġcitiz": 4547,
      "ĠHead": 4548,
      "Ġshouted": 4549,
      "clot": 4550,
      "Ġremarked": 4551,
      "Ġexpress": 4552,
      "Ġpostage": 4553,
      "ivers": 4554,
      "Ġprofit": 4555,
      "Ġwhisper": 4556,
      "Ġpowerful": 4557,
      "Or": 4558,
      "coll": 4559,
      "dro": 4560,
      "lay": 4561,
      "sur": 4562,
      "Ġbal": 4563,
      "Ġfully": 4564,
      "Ġdue": 4565,
      "eled": 4566,
      "ĠReckoner": 4567,
      "istered": 4568,
      "Ġconvinced": 4569,
      "Ġexamination": 4570,
      "SON": 4571,
      "hus": 4572,
      "Ġ0": 4573,
      "anley": 4574,
      "Ġinformed": 4575,
      "ĠTra": 4576,
      "ĠLewis": 4577,
      "Ġvault": 4578,
      "Ġslow": 4579,
      "ggs": 4580,
      "Ġremain": 4581,
      "ieces": 4582,
      "Take": 4583,
      "del": 4584,
      "len": 4585,
      "morning": 4586,
      "adelphia": 4587,
      "ĠMel": 4588,
      "thousand": 4589,
      "thirty": 4590,
      "ĠWare": 4591,
      "earance": 4592,
      "ĠLaw": 4593,
      "Ġlibrary": 4594,
      "Ġprov": 4595,
      "Ġusing": 4596,
      "ograp": 4597,
      "Ġhappy": 4598,
      "Ġdriven": 4599,
      "ĠMcG": 4600,
      "Ġfamiliar": 4601,
      "ajor": 4602,
      "Ġobserved": 4603,
      "Ġgroup": 4604,
      "dy": 4605,
      "nold": 4606,
      "pen": 4607,
      "Ġhorror": 4608,
      "Ġpounds": 4609,
      "ĠMex": 4610,
      "ĠAcc": 4611,
      "icks": 4612,
      "Ġslid": 4613,
      "Ġshots": 4614,
      "Ġtrap": 4615,
      "Ġdesperate": 4616,
      "rt": 4617,
      "same": 4618,
      "Ġâĸ¡": 4619,
      "Ġoil": 4620,
      "another": 4621,
      "esse": 4622,
      "acc": 4623,
      "Ġreck": 4624,
      "ĠBoston": 4625,
      "imply": 4626,
      "aird": 4627,
      "avy": 4628,
      "Ġfellows": 4629,
      "Ġdepos": 4630,
      "Ġpresently": 4631,
      "ĠBefore": 4632,
      "Ġmember": 4633,
      "Ġcrooks": 4634,
      "fume": 4635,
      "enger": 4636,
      "utes": 4637,
      "stead": 4638,
      "Ġstuck": 4639,
      "ĠBank": 4640,
      "illage": 4641,
      "andy": 4642,
      "agon": 4643,
      "These": 4644,
      "Ġshowing": 4645,
      "ĠLondon": 4646,
      "Ġvo": 4647,
      "pled": 4648,
      "Ġunusual": 4649,
      "ishment": 4650,
      "eyed": 4651,
      "month": 4652,
      "Ġfuture": 4653,
      "aith": 4654,
      "paid": 4655,
      "aming": 4656,
      "arded": 4657,
      "ĠNO": 4658,
      "ization": 4659,
      "Ġattract": 4660,
      "Ġthoughts": 4661,
      "Ġowner": 4662,
      "Ġglasses": 4663,
      "OOK": 4664,
      "ĠCharles": 4665,
      "Ġsharply": 4666,
      "ĠAmerica": 4667,
      "Ġfolks": 4668,
      "About": 4669,
      "taken": 4670,
      "watch": 4671,
      "Ġtree": 4672,
      "reme": 4673,
      "itute": 4674,
      "oted": 4675,
      "ĠSee": 4676,
      "ĠMor": 4677,
      "ilar": 4678,
      "Ġliked": 4679,
      "Ġspring": 4680,
      "Ġfeatures": 4681,
      "Ġkeen": 4682,
      "Ġcheek": 4683,
      "ibi": 4684,
      "ucked": 4685,
      "Ġjoined": 4686,
      "Ġdiamond": 4687,
      "Ġauthorities": 4688,
      "Sl": 4689,
      "ris": 4690,
      "Ġborn": 4691,
      "Ġloved": 4692,
      "ĠHome": 4693,
      "rib": 4694,
      "elled": 4695,
      "being": 4696,
      "feet": 4697,
      "Ġobtained": 4698,
      "ugust": 4699,
      "Ġdifficult": 4700,
      "ĠWhile": 4701,
      "Ġidentity": 4702,
      "Ġconnection": 4703,
      "Ġpleasant": 4704,
      "Ġoccupied": 4705,
      "500": 4706,
      "Tell": 4707,
      "ios": 4708,
      "ĠTony": 4709,
      "urb": 4710,
      "ural": 4711,
      "ĠLook": 4712,
      "Ġabruptly": 4713,
      "pson": 4714,
      "Ġways": 4715,
      "Ġshortly": 4716,
      "inese": 4717,
      "arantee": 4718,
      "dollar": 4719,
      "ĠSecret": 4720,
      "tory": 4721,
      "wanted": 4722,
      "Ġcool": 4723,
      "Ġtow": 4724,
      "Ġdate": 4725,
      "ams": 4726,
      "together": 4727,
      "Ġliqu": 4728,
      "gger": 4729,
      "ĠMcC": 4730,
      "Ġmurders": 4731,
      "Perhaps": 4732,
      "wild": 4733,
      "Ġgaze": 4734,
      "Ġstage": 4735,
      "illy": 4736,
      "ĠClay": 4737,
      "Ġofficial": 4738,
      "Ġspeaking": 4739,
      "Ġreceive": 4740,
      "Ġidentified": 4741,
      "ĠPerhaps": 4742,
      "Ġaccompl": 4743,
      ".)": 4744,
      "ID": 4745,
      "MP": 4746,
      "burn": 4747,
      "ege": 4748,
      "nes": 4749,
      "prom": 4750,
      "sent": 4751,
      "ufact": 4752,
      "Ġfaces": 4753,
      "Ġlose": 4754,
      "Ġlatest": 4755,
      "Ġgest": 4756,
      "Ġsaf": 4757,
      "ĠPenn": 4758,
      "hisper": 4759,
      "AND": 4760,
      "Ġpubl": 4761,
      "rook": 4762,
      "Ġexamined": 4763,
      "Ġphoto": 4764,
      "Ġcomfortable": 4765,
      "AU": 4766,
      "talk": 4767,
      "Ġutter": 4768,
      "inth": 4769,
      "Ġgives": 4770,
      "street": 4771,
      "ores": 4772,
      "Ġrope": 4773,
      "Ġfigured": 4774,
      "ansas": 4775,
      "Ġcommon": 4776,
      "Ġoccurred": 4777,
      "Ġcops": 4778,
      "Ġcellar": 4779,
      "Never": 4780,
      "aily": 4781,
      "Ġ~": 4782,
      "Ġtied": 4783,
      "isher": 4784,
      "asp": 4785,
      "Ġhom": 4786,
      "Ġyard": 4787,
      "Ġstair": 4788,
      "oop": 4789,
      "ĠCont": 4790,
      "olic": 4791,
      "ecting": 4792,
      "Ġvest": 4793,
      "Ġflight": 4794,
      "phoned": 4795,
      "ĠClara": 4796,
      "Only": 4797,
      "Ġeleven": 4798,
      "Ġflashlight": 4799,
      "Ġgrowled": 4800,
      "ipping": 4801,
      "Ġ[": 4802,
      "Ġtakes": 4803,
      "Ġaston": 4804,
      "Ġburning": 4805,
      "Ġfist": 4806,
      "asted": 4807,
      "ĠIr": 4808,
      "ids": 4809,
      "Ġsepar": 4810,
      "Ġoutfit": 4811,
      "ĠPaul": 4812,
      "ewriter": 4813,
      "40": 4814,
      "EE": 4815,
      "IV": 4816,
      "break": 4817,
      "near": 4818,
      "uzz": 4819,
      "Ġsam": 4820,
      "ona": 4821,
      "Ġmir": 4822,
      "Ġfaced": 4823,
      "sear": 4824,
      "Ġalarm": 4825,
      "hane": 4826,
      "ashion": 4827,
      "Ġreput": 4828,
      "Ġvaluable": 4829,
      "Ġthrown": 4830,
      "Ġnerves": 4831,
      "Ġpopular": 4832,
      "Write": 4833,
      "cto": 4834,
      "mar": 4835,
      "pay": 4836,
      "ti": 4837,
      "hal": 4838,
      "onan": 4839,
      "omach": 4840,
      "ĠSpr": 4841,
      "ĠApp": 4842,
      "Ġmanaged": 4843,
      "ĠFitz": 4844,
      "ĠLong": 4845,
      "ĠLieutenant": 4846,
      "ĠRu": 4847,
      "ĠJan": 4848,
      "Ġworried": 4849,
      "weet": 4850,
      "Ġflesh": 4851,
      "arson": 4852,
      "Ġgreatest": 4853,
      "Ġsurround": 4854,
      "Ġapart": 4855,
      "ĠMarsh": 4856,
      "Ġcorrect": 4857,
      "Ġfunny": 4858,
      "occ": 4859,
      "Ġones": 4860,
      "sem": 4861,
      "ĠTake": 4862,
      "Ġsob": 4863,
      "urely": 4864,
      "Ġclosely": 4865,
      "Ġsergeant": 4866,
      "Ġmethods": 4867,
      "Ġhanging": 4868,
      "ĠBuilding": 4869,
      "ux": 4870,
      "itent": 4871,
      "Ġthus": 4872,
      "agic": 4873,
      "ĠPet": 4874,
      "redit": 4875,
      "ĠNove": 4876,
      "others": 4877,
      "Ġelb": 4878,
      "Ġsnar": 4879,
      "Ġdelay": 4880,
      "Ġgrip": 4881,
      "ugh": 4882,
      "whe": 4883,
      "Ġorigin": 4884,
      "Ġcast": 4885,
      "Ġredu": 4886,
      "Ġreleased": 4887,
      "ĠBud": 4888,
      "ĠDes": 4889,
      "rake": 4890,
      "ĠGut": 4891,
      "Ġplant": 4892,
      "stery": 4893,
      "Ġrecently": 4894,
      "Ġbooklet": 4895,
      "Ġindividual": 4896,
      "Ġexplan": 4897,
      "Ġleader": 4898,
      "ethod": 4899,
      "Ġbandit": 4900,
      "Ġmurmured": 4901,
      "foll": 4902,
      "ivery": 4903,
      "vestig": 4904,
      "across": 4905,
      "ĠMass": 4906,
      "Ġanywhere": 4907,
      "Ġboss": 4908,
      "Ġcho": 4909,
      "Ġemb": 4910,
      "Ġseconds": 4911,
      "ĠEnglish": 4912,
      "Ġkeys": 4913,
      "Ġdifference": 4914,
      "Ġkidn": 4915,
      "ĠMartin": 4916,
      "Pr": 4917,
      "Right": 4918,
      "Ġtick": 4919,
      "reck": 4920,
      "ĠCome": 4921,
      "Ġbutler": 4922,
      "pless": 4923,
      "Ġscow": 4924,
      "Ġearth": 4925,
      "Ġdeliber": 4926,
      "conf": 4927,
      "While": 4928,
      "ĠRamsey": 4929,
      "gly": 4930,
      "Ġz": 4931,
      "inter": 4932,
      "Ġsouth": 4933,
      "Ġfence": 4934,
      "esides": 4935,
      "ĠHill": 4936,
      "ama": 4937,
      "Ġanim": 4938,
      "opened": 4939,
      "Ġsmart": 4940,
      "Ġslay": 4941,
      "Ġscient": 4942,
      "Ġstreets": 4943,
      "ĠLegg": 4944,
      "Ġeduc": 4945,
      "Ġblocks": 4946,
      "Ġapproached": 4947,
      "Ġfairly": 4948,
      "Ġproperty": 4949,
      "Ġconcerned": 4950,
      "Ġindeed": 4951,
      "Char": 4952,
      "Re": 4953,
      "rene": 4954,
      "ĠHun": 4955,
      "ĠCur": 4956,
      "ĠAg": 4957,
      "cepted": 4958,
      "cho": 4959,
      "usive": 4960,
      "ĠGood": 4961,
      "ickie": 4962,
      "Ġtrunk": 4963,
      "Ġprinc": 4964,
      "Ġflung": 4965,
      "Ġaddition": 4966,
      "Ġpurcha": 4967,
      "agedy": 4968,
      "11": 4969,
      "Ġid": 4970,
      "Ġfix": 4971,
      "Ġcal": 4972,
      "ĠHew": 4973,
      "eling": 4974,
      "Ġvig": 4975,
      "many": 4976,
      "ĠKn": 4977,
      "obs": 4978,
      "Ġgrabbed": 4979,
      "Ġdesire": 4980,
      "ĠChinese": 4981,
      "ĠDean": 4982,
      "ĠWithout": 4983,
      "Ġnorth": 4984,
      "Ġbullets": 4985,
      "Ġmidnight": 4986,
      "kins": 4987,
      "mal": 4988,
      "Ġmechan": 4989,
      "Ġdust": 4990,
      "atches": 4991,
      "ĠHouton": 4992,
      "Ġwhist": 4993,
      "ĠPo": 4994,
      "cks": 4995,
      "ieved": 4996,
      "Ġeverybody": 4997,
      "Ġquestioning": 4998,
      "Ġpromise": 4999
    },
    "merges": [
      [
        "Ġ",
        "t"
      ],
      [
        "h",
        "e"
      ],
      [
        "Ġ",
        "a"
      ],
      [
        "i",
        "n"
      ],
      [
        "Ġt",
        "he"
      ],
      [
        "Ġ",
        "w"
      ],
      [
        "Ġ",
        "s"
      ],
      [
        "r",
        "e"
      ],
      [
        "Ġ",
        "o"
      ],
      [
        "e",
        "d"
      ],
      [
        "o",
        "u"
      ],
      [
        "n",
        "d"
      ],
      [
        "e",
        "r"
      ],
      [
        "h",
        "a"
      ],
      [
        "Ġ",
        "b"
      ],
      [
        "e",
        "n"
      ],
      [
        "i",
        "s"
      ],
      [
        "o",
        "n"
      ],
      [
        "i",
        "t"
      ],
      [
        "Ġ",
        "m"
      ],
      [
        "Ġ",
        "f"
      ],
      [
        "Ġ",
        "c"
      ],
      [
        "in",
        "g"
      ],
      [
        "o",
        "r"
      ],
      [
        "Ġt",
        "o"
      ],
      [
        "l",
        "l"
      ],
      [
        "a",
        "n"
      ],
      [
        "a",
        "r"
      ],
      [
        "Ġ",
        "d"
      ],
      [
        "a",
        "s"
      ],
      [
        "Ġo",
        "f"
      ],
      [
        "Ġ",
        "h"
      ],
      [
        "e",
        "s"
      ],
      [
        "Ġa",
        "nd"
      ],
      [
        "Ġ",
        "p"
      ],
      [
        "Ġ",
        "in"
      ],
      [
        "Ġ",
        "he"
      ],
      [
        "a",
        "t"
      ],
      [
        "Ġ",
        "l"
      ],
      [
        "o",
        "m"
      ],
      [
        "Ġ",
        "I"
      ],
      [
        "Ġ",
        "ha"
      ],
      [
        "Ġ",
        "g"
      ],
      [
        "ha",
        "t"
      ],
      [
        "o",
        "w"
      ],
      [
        "i",
        "c"
      ],
      [
        "e",
        "t"
      ],
      [
        "Ġ",
        "n"
      ],
      [
        "o",
        "t"
      ],
      [
        "l",
        "e"
      ],
      [
        "u",
        "t"
      ],
      [
        "i",
        "d"
      ],
      [
        "i",
        "m"
      ],
      [
        "Ġ",
        "y"
      ],
      [
        "s",
        "t"
      ],
      [
        "v",
        "e"
      ],
      [
        "Ġw",
        "as"
      ],
      [
        "l",
        "y"
      ],
      [
        "g",
        "h"
      ],
      [
        "l",
        "d"
      ],
      [
        "Ġy",
        "ou"
      ],
      [
        "a",
        "c"
      ],
      [
        "en",
        "t"
      ],
      [
        "Ġb",
        "e"
      ],
      [
        "Ġ",
        "e"
      ],
      [
        "Ġo",
        "n"
      ],
      [
        "a",
        "l"
      ],
      [
        "Ġt",
        "hat"
      ],
      [
        "s",
        "e"
      ],
      [
        "a",
        "y"
      ],
      [
        "Ġt",
        "h"
      ],
      [
        "Ġ",
        "T"
      ],
      [
        "Ġ",
        "\""
      ],
      [
        "Ġh",
        "is"
      ],
      [
        "r",
        "o"
      ],
      [
        "Ġs",
        "t"
      ],
      [
        "a",
        "d"
      ],
      [
        "u",
        "r"
      ],
      [
        "Ġ",
        "S"
      ],
      [
        "Ġ",
        "it"
      ],
      [
        "Ġ",
        "u"
      ],
      [
        "i",
        "on"
      ],
      [
        "Ġ",
        "H"
      ],
      [
        "Ġ",
        "re"
      ],
      [
        "gh",
        "t"
      ],
      [
        "Ġ",
        "M"
      ],
      [
        "v",
        "er"
      ],
      [
        "it",
        "h"
      ],
      [
        "i",
        "r"
      ],
      [
        "-",
        "-"
      ],
      [
        "'",
        "s"
      ],
      [
        "Ġha",
        "d"
      ],
      [
        "r",
        "i"
      ],
      [
        "Ġf",
        "or"
      ],
      [
        "t",
        "he"
      ],
      [
        "a",
        "m"
      ],
      [
        "o",
        "o"
      ],
      [
        "Ġ",
        "C"
      ],
      [
        "e",
        "c"
      ],
      [
        "e",
        "re"
      ],
      [
        "Ġw",
        "ith"
      ],
      [
        "Ġa",
        "n"
      ],
      [
        "Ġa",
        "s"
      ],
      [
        "Ġ",
        "B"
      ],
      [
        ".",
        "\""
      ],
      [
        "i",
        "ll"
      ],
      [
        "a",
        "nd"
      ],
      [
        "Ġ",
        "A"
      ],
      [
        "Ġa",
        "t"
      ],
      [
        "k",
        "e"
      ],
      [
        "Ġh",
        "im"
      ],
      [
        "Ġw",
        "h"
      ],
      [
        "t",
        "er"
      ],
      [
        "c",
        "e"
      ],
      [
        "a",
        "in"
      ],
      [
        "ou",
        "ld"
      ],
      [
        "i",
        "l"
      ],
      [
        "i",
        "f"
      ],
      [
        "'",
        "t"
      ],
      [
        "t",
        "h"
      ],
      [
        "Ġm",
        "e"
      ],
      [
        "ĠT",
        "he"
      ],
      [
        "Ġ",
        "W"
      ],
      [
        "p",
        "p"
      ],
      [
        "Ġ",
        "k"
      ],
      [
        "t",
        "o"
      ],
      [
        "i",
        "ght"
      ],
      [
        "a",
        "ll"
      ],
      [
        "Ġs",
        "a"
      ],
      [
        "Ġ",
        "D"
      ],
      [
        "r",
        "om"
      ],
      [
        ",",
        "\""
      ],
      [
        "a",
        "g"
      ],
      [
        "Ġd",
        "o"
      ],
      [
        "u",
        "n"
      ],
      [
        "Ġhe",
        "r"
      ],
      [
        "Ġn",
        "ot"
      ],
      [
        "es",
        "s"
      ],
      [
        "c",
        "h"
      ],
      [
        "k",
        "ed"
      ],
      [
        "Ġs",
        "e"
      ],
      [
        "ĠH",
        "e"
      ],
      [
        "t",
        "ed"
      ],
      [
        "om",
        "e"
      ],
      [
        "Ġ",
        "is"
      ],
      [
        "e",
        "ll"
      ],
      [
        "o",
        "re"
      ],
      [
        "u",
        "s"
      ],
      [
        "ou",
        "t"
      ],
      [
        "e",
        "w"
      ],
      [
        "Ġ",
        "r"
      ],
      [
        "ar",
        "d"
      ],
      [
        "ac",
        "k"
      ],
      [
        "T",
        "he"
      ],
      [
        "i",
        "ve"
      ],
      [
        "e",
        "l"
      ],
      [
        "he",
        "r"
      ],
      [
        "Ġ",
        "P"
      ],
      [
        "Ġo",
        "ut"
      ],
      [
        "?",
        "\""
      ],
      [
        "Ġu",
        "p"
      ],
      [
        "on",
        "e"
      ],
      [
        "o",
        "l"
      ],
      [
        "Ġs",
        "h"
      ],
      [
        "q",
        "u"
      ],
      [
        "Ġf",
        "rom"
      ],
      [
        "e",
        "m"
      ],
      [
        "an",
        "t"
      ],
      [
        "Ġk",
        "n"
      ],
      [
        "re",
        "d"
      ],
      [
        "i",
        "g"
      ],
      [
        "er",
        "s"
      ],
      [
        "Ġm",
        "y"
      ],
      [
        "a",
        "b"
      ],
      [
        "Ġm",
        "an"
      ],
      [
        "Ġ",
        "F"
      ],
      [
        "ow",
        "n"
      ],
      [
        "l",
        "o"
      ],
      [
        "e",
        "ar"
      ],
      [
        "u",
        "st"
      ],
      [
        "r",
        "ou"
      ],
      [
        "Ġsa",
        "id"
      ],
      [
        "ic",
        "e"
      ],
      [
        "Ġha",
        "ve"
      ],
      [
        "Ġs",
        "he"
      ],
      [
        "Ġth",
        "is"
      ],
      [
        "am",
        "e"
      ],
      [
        "ec",
        "t"
      ],
      [
        "u",
        "l"
      ],
      [
        "c",
        "k"
      ],
      [
        "in",
        "d"
      ],
      [
        "es",
        "t"
      ],
      [
        "s",
        "s"
      ],
      [
        "Ġ",
        "N"
      ],
      [
        "Ġ",
        "j"
      ],
      [
        "Ġo",
        "r"
      ],
      [
        "Ġw",
        "he"
      ],
      [
        "Ġs",
        "u"
      ],
      [
        "r",
        "a"
      ],
      [
        "at",
        "ion"
      ],
      [
        "Ġ",
        "L"
      ],
      [
        "e",
        "p"
      ],
      [
        "ou",
        "s"
      ],
      [
        "ou",
        "r"
      ],
      [
        "Ġa",
        "b"
      ],
      [
        "Ġw",
        "ere"
      ],
      [
        "Ġon",
        "e"
      ],
      [
        "ar",
        "t"
      ],
      [
        "o",
        "f"
      ],
      [
        "Ġb",
        "ut"
      ],
      [
        "Ġb",
        "y"
      ],
      [
        "u",
        "m"
      ],
      [
        "Ġ",
        "R"
      ],
      [
        "Ġe",
        "x"
      ],
      [
        "Ġw",
        "e"
      ],
      [
        "i",
        "e"
      ],
      [
        "Ġ",
        "J"
      ],
      [
        "Ġ",
        "G"
      ],
      [
        "o",
        "d"
      ],
      [
        "c",
        "t"
      ],
      [
        "r",
        "y"
      ],
      [
        "Ġbe",
        "en"
      ],
      [
        "oo",
        "d"
      ],
      [
        "Ġc",
        "on"
      ],
      [
        "he",
        "d"
      ],
      [
        "Ġa",
        "ll"
      ],
      [
        "Ġ",
        "O"
      ],
      [
        "Ġ",
        "v"
      ],
      [
        "at",
        "e"
      ],
      [
        "id",
        "e"
      ],
      [
        "a",
        "k"
      ],
      [
        "im",
        "e"
      ],
      [
        "Ġ",
        "ro"
      ],
      [
        "Ġwh",
        "o"
      ],
      [
        "a",
        "p"
      ],
      [
        "Y",
        "ou"
      ],
      [
        "Ġl",
        "i"
      ],
      [
        "in",
        "e"
      ],
      [
        "Ġl",
        "e"
      ],
      [
        "ac",
        "e"
      ],
      [
        "Ġyou",
        "r"
      ],
      [
        "Ġs",
        "o"
      ],
      [
        "is",
        "t"
      ],
      [
        "oo",
        "k"
      ],
      [
        "Ġa",
        "l"
      ],
      [
        "Ġ",
        "E"
      ],
      [
        "w",
        "ay"
      ],
      [
        "g",
        "e"
      ],
      [
        "ha",
        "n"
      ],
      [
        "l",
        "f"
      ],
      [
        "on",
        "g"
      ],
      [
        "a",
        "re"
      ],
      [
        "as",
        "t"
      ],
      [
        "ic",
        "h"
      ],
      [
        "ere",
        "d"
      ],
      [
        "Ġan",
        "y"
      ],
      [
        "Ġw",
        "ould"
      ],
      [
        "Ġd",
        "id"
      ],
      [
        "ur",
        "n"
      ],
      [
        "v",
        "en"
      ],
      [
        "or",
        "t"
      ],
      [
        "ou",
        "nd"
      ],
      [
        "n",
        "t"
      ],
      [
        "Ġn",
        "o"
      ],
      [
        "Ġthe",
        "re"
      ],
      [
        "ic",
        "k"
      ],
      [
        "h",
        "ing"
      ],
      [
        "!",
        "\""
      ],
      [
        "Ġp",
        "o"
      ],
      [
        "Ġs",
        "p"
      ],
      [
        "ver",
        "y"
      ],
      [
        "Ġp",
        "l"
      ],
      [
        "Ġin",
        "to"
      ],
      [
        "u",
        "re"
      ],
      [
        "Ġ",
        "--"
      ],
      [
        "Ġw",
        "or"
      ],
      [
        "a",
        "ke"
      ],
      [
        "Ġab",
        "out"
      ],
      [
        "Ġd",
        "e"
      ],
      [
        "Ġg",
        "o"
      ],
      [
        "Ġa",
        "g"
      ],
      [
        "f",
        "f"
      ],
      [
        "Ġkn",
        "ow"
      ],
      [
        "Ġthe",
        "y"
      ],
      [
        "p",
        "l"
      ],
      [
        "r",
        "u"
      ],
      [
        "Ġha",
        "nd"
      ],
      [
        "Ġt",
        "w"
      ],
      [
        "Ġof",
        "f"
      ],
      [
        "Ġthe",
        "m"
      ],
      [
        "o",
        "p"
      ],
      [
        "the",
        "r"
      ],
      [
        "o",
        "st"
      ],
      [
        "Ġ",
        "1"
      ],
      [
        "Ġc",
        "om"
      ],
      [
        "o",
        "nd"
      ],
      [
        "ĠS",
        "t"
      ],
      [
        "Ġg",
        "et"
      ],
      [
        "a",
        "u"
      ],
      [
        "it",
        "t"
      ],
      [
        "e",
        "nd"
      ],
      [
        "Ġ",
        "qu"
      ],
      [
        "Ġw",
        "ill"
      ],
      [
        "Ġwhe",
        "n"
      ],
      [
        "Ġc",
        "an"
      ],
      [
        "Ġc",
        "ould"
      ],
      [
        "Ġo",
        "ver"
      ],
      [
        "u",
        "ll"
      ],
      [
        "h",
        "is"
      ],
      [
        "f",
        "ter"
      ],
      [
        "v",
        "ed"
      ],
      [
        "Ġb",
        "ack"
      ],
      [
        "ĠI",
        "t"
      ],
      [
        "Ġa",
        "re"
      ],
      [
        "Ġ",
        "if"
      ],
      [
        "n",
        "e"
      ],
      [
        "m",
        "ent"
      ],
      [
        "it",
        "y"
      ],
      [
        "Ġn",
        "e"
      ],
      [
        "H",
        "e"
      ],
      [
        "it",
        "e"
      ],
      [
        "Ġw",
        "hat"
      ],
      [
        "b",
        "er"
      ],
      [
        "m",
        "an"
      ],
      [
        "Ġwh",
        "ich"
      ],
      [
        "ĠM",
        "r"
      ],
      [
        "ad",
        "e"
      ],
      [
        "l",
        "ed"
      ],
      [
        "Â",
        "¬"
      ],
      [
        "Ġd",
        "own"
      ],
      [
        "r",
        "an"
      ],
      [
        "se",
        "lf"
      ],
      [
        "Ġb",
        "l"
      ],
      [
        "in",
        "k"
      ],
      [
        "Ġt",
        "ime"
      ],
      [
        "i",
        "es"
      ],
      [
        "re",
        "e"
      ],
      [
        "b",
        "e"
      ],
      [
        "f",
        "or"
      ],
      [
        "Ġp",
        "ro"
      ],
      [
        "i",
        "le"
      ],
      [
        "Ġ",
        "."
      ],
      [
        "ri",
        "ght"
      ],
      [
        "p",
        "t"
      ],
      [
        "'",
        "ll"
      ],
      [
        "pp",
        "ed"
      ],
      [
        "all",
        "y"
      ],
      [
        "Ġs",
        "ome"
      ],
      [
        "Ġdo",
        "or"
      ],
      [
        "Ġto",
        "o"
      ],
      [
        "a",
        "il"
      ],
      [
        "f",
        "ore"
      ],
      [
        "i",
        "re"
      ],
      [
        "Ġg",
        "ot"
      ],
      [
        "Ġu",
        "s"
      ],
      [
        "et",
        "ect"
      ],
      [
        "Ġa",
        "r"
      ],
      [
        "p",
        "er"
      ],
      [
        "Ġe",
        "y"
      ],
      [
        "ou",
        "gh"
      ],
      [
        "ac",
        "t"
      ],
      [
        "d",
        "d"
      ],
      [
        "o",
        "ll"
      ],
      [
        "s",
        "p"
      ],
      [
        "â",
        "ģ"
      ],
      [
        "âģ",
        "ł"
      ],
      [
        "Ġu",
        "n"
      ],
      [
        "re",
        "ss"
      ],
      [
        "Ġli",
        "ke"
      ],
      [
        "c",
        "c"
      ],
      [
        "t",
        "y"
      ],
      [
        "ar",
        "k"
      ],
      [
        "ot",
        "her"
      ],
      [
        "i",
        "ed"
      ],
      [
        "Ġo",
        "ther"
      ],
      [
        "as",
        "s"
      ],
      [
        "ab",
        "le"
      ],
      [
        "Ġag",
        "ain"
      ],
      [
        "en",
        "ce"
      ],
      [
        "f",
        "t"
      ],
      [
        "Ġ",
        "K"
      ],
      [
        "o",
        "ld"
      ],
      [
        "Ġthe",
        "n"
      ],
      [
        "Ġn",
        "ow"
      ],
      [
        "at",
        "ed"
      ],
      [
        "b",
        "le"
      ],
      [
        "nd",
        "er"
      ],
      [
        "or",
        "n"
      ],
      [
        "v",
        "ing"
      ],
      [
        "âģł",
        "--"
      ],
      [
        "Ġtw",
        "o"
      ],
      [
        "Ġw",
        "ent"
      ],
      [
        "ĠS",
        "he"
      ],
      [
        "Ġa",
        "fter"
      ],
      [
        "od",
        "y"
      ],
      [
        "o",
        "b"
      ],
      [
        "0",
        "0"
      ],
      [
        "i",
        "ous"
      ],
      [
        "ag",
        "e"
      ],
      [
        "Ġc",
        "ame"
      ],
      [
        "Ġs",
        "m"
      ],
      [
        "Ġc",
        "l"
      ],
      [
        "Ġ",
        "en"
      ],
      [
        "o",
        "ve"
      ],
      [
        "Ġse",
        "e"
      ],
      [
        "t",
        "hat"
      ],
      [
        "n",
        "g"
      ],
      [
        "Ġ",
        "'"
      ],
      [
        "rou",
        "gh"
      ],
      [
        "w",
        "as"
      ],
      [
        "Ġt",
        "r"
      ],
      [
        "en",
        "ed"
      ],
      [
        "Ġg",
        "r"
      ],
      [
        "itt",
        "le"
      ],
      [
        "Ġm",
        "ore"
      ],
      [
        "ou",
        "se"
      ],
      [
        "Ġp",
        "re"
      ],
      [
        "o",
        "se"
      ],
      [
        "w",
        "n"
      ],
      [
        "an",
        "ce"
      ],
      [
        "t",
        "ain"
      ],
      [
        "or",
        "y"
      ],
      [
        "Ġc",
        "ar"
      ],
      [
        "as",
        "e"
      ],
      [
        "Ġro",
        "om"
      ],
      [
        "d",
        "er"
      ],
      [
        "re",
        "at"
      ],
      [
        "Ġp",
        "r"
      ],
      [
        "Ġey",
        "es"
      ],
      [
        "w",
        "ard"
      ],
      [
        "Ġs",
        "l"
      ],
      [
        "urn",
        "ed"
      ],
      [
        "Ġj",
        "ust"
      ],
      [
        "Ġd",
        "is"
      ],
      [
        "etect",
        "ive"
      ],
      [
        "if",
        "e"
      ],
      [
        "u",
        "d"
      ],
      [
        "u",
        "e"
      ],
      [
        "p",
        "s"
      ],
      [
        "Ġs",
        "c"
      ],
      [
        "Ġbe",
        "fore"
      ],
      [
        "a",
        "z"
      ],
      [
        "Ġc",
        "r"
      ],
      [
        "o",
        "s"
      ],
      [
        "he",
        "n"
      ],
      [
        "ha",
        "r"
      ],
      [
        "Ġ",
        "Y"
      ],
      [
        "Ġ",
        "You"
      ],
      [
        "v",
        "es"
      ],
      [
        "Ġthe",
        "ir"
      ],
      [
        "ar",
        "y"
      ],
      [
        "Ġhe",
        "re"
      ],
      [
        "Ġl",
        "ittle"
      ],
      [
        "Ġd",
        "ay"
      ],
      [
        "in",
        "t"
      ],
      [
        "Ġf",
        "ace"
      ],
      [
        "ĠI",
        "n"
      ],
      [
        "ĠB",
        "ut"
      ],
      [
        "im",
        "p"
      ],
      [
        "th",
        "ing"
      ],
      [
        "s",
        "h"
      ],
      [
        "Ġb",
        "r"
      ],
      [
        "Ġon",
        "ly"
      ],
      [
        "Ġhe",
        "ad"
      ],
      [
        "Ġd",
        "on"
      ],
      [
        "rou",
        "nd"
      ],
      [
        "Ġ",
        "right"
      ],
      [
        "Ġw",
        "ay"
      ],
      [
        "a",
        "ve"
      ],
      [
        "ac",
        "h"
      ],
      [
        "ou",
        "ght"
      ],
      [
        "ri",
        "ed"
      ],
      [
        "Ġwhe",
        "re"
      ],
      [
        "ha",
        "d"
      ],
      [
        "w",
        "e"
      ],
      [
        "Ġa",
        "m"
      ],
      [
        "y",
        "ou"
      ],
      [
        "ĠA",
        "nd"
      ],
      [
        "Ġm",
        "ade"
      ],
      [
        "i",
        "z"
      ],
      [
        "is",
        "s"
      ],
      [
        "Ġto",
        "ld"
      ],
      [
        "b",
        "l"
      ],
      [
        "Ġm",
        "en"
      ],
      [
        "one",
        "y"
      ],
      [
        "ic",
        "t"
      ],
      [
        "a",
        "ir"
      ],
      [
        "ir",
        "st"
      ],
      [
        "at",
        "h"
      ],
      [
        "re",
        "et"
      ],
      [
        "a",
        "red"
      ],
      [
        "ir",
        "l"
      ],
      [
        "Ġth",
        "rough"
      ],
      [
        "Ġf",
        "e"
      ],
      [
        "Ġa",
        "pp"
      ],
      [
        "g",
        "g"
      ],
      [
        "on",
        "t"
      ],
      [
        "Ġu",
        "nder"
      ],
      [
        "Ġb",
        "o"
      ],
      [
        "Ġo",
        "p"
      ],
      [
        "Ġf",
        "l"
      ],
      [
        ".",
        "."
      ],
      [
        "Ġt",
        "han"
      ],
      [
        "'",
        "m"
      ],
      [
        "i",
        "p"
      ],
      [
        "oo",
        "ked"
      ],
      [
        "Ġt",
        "ell"
      ],
      [
        "w",
        "h"
      ],
      [
        "Ġy",
        "ear"
      ],
      [
        "Ġha",
        "s"
      ],
      [
        "e",
        "e"
      ],
      [
        "ou",
        "nt"
      ],
      [
        "Ġf",
        "ound"
      ],
      [
        "Ġth",
        "ink"
      ],
      [
        "I",
        "t"
      ],
      [
        "Ġl",
        "ook"
      ],
      [
        "Ġdid",
        "n"
      ],
      [
        "Ġl",
        "et"
      ],
      [
        "al",
        "k"
      ],
      [
        "Ġ",
        "ke"
      ],
      [
        "ion",
        "s"
      ],
      [
        "a",
        "w"
      ],
      [
        "n",
        "ess"
      ],
      [
        "ing",
        "s"
      ],
      [
        "Ġh",
        "ow"
      ],
      [
        "i",
        "ld"
      ],
      [
        "Ġc",
        "h"
      ],
      [
        "Ġg",
        "u"
      ],
      [
        "Ġg",
        "l"
      ],
      [
        "Ġas",
        "ked"
      ],
      [
        "Ġs",
        "ay"
      ],
      [
        "t",
        "on"
      ],
      [
        "o",
        "c"
      ],
      [
        "Ġh",
        "ouse"
      ],
      [
        "Ġle",
        "ft"
      ],
      [
        "Ġ",
        "V"
      ],
      [
        "Ġo",
        "ld"
      ],
      [
        "f",
        "ul"
      ],
      [
        "p",
        "h"
      ],
      [
        "at",
        "er"
      ],
      [
        "c",
        "l"
      ],
      [
        "Ġw",
        "r"
      ],
      [
        "'",
        "ve"
      ],
      [
        "Ġa",
        "way"
      ],
      [
        "ol",
        "ice"
      ],
      [
        "i",
        "ly"
      ],
      [
        "he",
        "re"
      ],
      [
        "w",
        "ith"
      ],
      [
        "Ġ",
        "$"
      ],
      [
        "Ġm",
        "ur"
      ],
      [
        "n",
        "ed"
      ],
      [
        "om",
        "et"
      ],
      [
        "Ġa",
        "d"
      ],
      [
        "Ġg",
        "irl"
      ],
      [
        "Ġn",
        "ight"
      ],
      [
        "'",
        "d"
      ],
      [
        "an",
        "g"
      ],
      [
        "is",
        "h"
      ],
      [
        "t",
        "e"
      ],
      [
        "Ġd",
        "es"
      ],
      [
        "u",
        "p"
      ],
      [
        "Ġb",
        "et"
      ],
      [
        "Ġw",
        "om"
      ],
      [
        "st",
        "er"
      ],
      [
        "Ġf",
        "irst"
      ],
      [
        "Ġc",
        "all"
      ],
      [
        "c",
        "ed"
      ],
      [
        "ar",
        "s"
      ],
      [
        "a",
        "id"
      ],
      [
        "u",
        "ch"
      ],
      [
        "Ġn",
        "ew"
      ],
      [
        "ĠW",
        "e"
      ],
      [
        "Ġg",
        "ood"
      ],
      [
        "Ġe",
        "very"
      ],
      [
        "Ġm",
        "ake"
      ],
      [
        "Ġw",
        "ant"
      ],
      [
        "Ġgo",
        "ing"
      ],
      [
        "'",
        "re"
      ],
      [
        "Ġc",
        "ome"
      ],
      [
        "Ġre",
        "m"
      ],
      [
        "i",
        "al"
      ],
      [
        "Ġl",
        "ooked"
      ],
      [
        "k",
        "s"
      ],
      [
        "o",
        "g"
      ],
      [
        "he",
        "s"
      ],
      [
        "E",
        "R"
      ],
      [
        "Ġl",
        "ong"
      ],
      [
        "Ġ",
        "very"
      ],
      [
        "c",
        "hed"
      ],
      [
        "e",
        "y"
      ],
      [
        "o",
        "ot"
      ],
      [
        "Ġp",
        "art"
      ],
      [
        "ĠH",
        "is"
      ],
      [
        "t",
        "ing"
      ],
      [
        "l",
        "ess"
      ],
      [
        "p",
        "e"
      ],
      [
        "Ġf",
        "r"
      ],
      [
        "Ġin",
        "t"
      ],
      [
        "Ġe",
        "ven"
      ],
      [
        "at",
        "her"
      ],
      [
        "Ġc",
        "lo"
      ],
      [
        "Ġat",
        "t"
      ],
      [
        "Ġbe",
        "c"
      ],
      [
        "Ġsa",
        "w"
      ],
      [
        "Ġp",
        "ut"
      ],
      [
        "ĠMr",
        "s"
      ],
      [
        "Ġm",
        "oney"
      ],
      [
        "Ġwor",
        "k"
      ],
      [
        "Ġkn",
        "ew"
      ],
      [
        "s",
        "on"
      ],
      [
        "Ġtoo",
        "k"
      ],
      [
        "Ġse",
        "em"
      ],
      [
        "Ġs",
        "w"
      ],
      [
        "at",
        "ch"
      ],
      [
        "Ġl",
        "ight"
      ],
      [
        "omet",
        "hing"
      ],
      [
        "i",
        "x"
      ],
      [
        "or",
        "k"
      ],
      [
        "ct",
        "or"
      ],
      [
        "or",
        "d"
      ],
      [
        "ow",
        "ed"
      ],
      [
        "ĠC",
        "h"
      ],
      [
        "Ġl",
        "ast"
      ],
      [
        "a",
        "it"
      ],
      [
        "le",
        "y"
      ],
      [
        "i",
        "a"
      ],
      [
        "Ġsh",
        "ould"
      ],
      [
        "Ġo",
        "ur"
      ],
      [
        "Ġk",
        "ill"
      ],
      [
        "s",
        "w"
      ],
      [
        "B",
        "ut"
      ],
      [
        "Ġyear",
        "s"
      ],
      [
        "Ġc",
        "ha"
      ],
      [
        "p",
        "ed"
      ],
      [
        "o",
        "ck"
      ],
      [
        "an",
        "k"
      ],
      [
        "ers",
        "on"
      ],
      [
        "a",
        "v"
      ],
      [
        "Ġp",
        "er"
      ],
      [
        "ro",
        "ss"
      ],
      [
        "Ġt",
        "urned"
      ],
      [
        "Ġh",
        "ome"
      ],
      [
        "Ġa",
        "round"
      ],
      [
        "Ġth",
        "ought"
      ],
      [
        "h",
        "y"
      ],
      [
        "Ġhim",
        "self"
      ],
      [
        "W",
        "hat"
      ],
      [
        "s",
        "ide"
      ],
      [
        "Ġ",
        "ent"
      ],
      [
        "g",
        "et"
      ],
      [
        "Ġs",
        "ec"
      ],
      [
        "Ġc",
        "our"
      ],
      [
        "n",
        "ing"
      ],
      [
        "is",
        "on"
      ],
      [
        "o",
        "ver"
      ],
      [
        "id",
        "ent"
      ],
      [
        "o",
        "ice"
      ],
      [
        "A",
        "nd"
      ],
      [
        "l",
        "i"
      ],
      [
        "s",
        "o"
      ],
      [
        "Ġm",
        "ight"
      ],
      [
        "ĠN",
        "ew"
      ],
      [
        "is",
        "e"
      ],
      [
        "Ġa",
        "c"
      ],
      [
        "e",
        "x"
      ],
      [
        "b",
        "y"
      ],
      [
        "m",
        "ed"
      ],
      [
        "u",
        "nd"
      ],
      [
        "Ġbe",
        "l"
      ],
      [
        "as",
        "h"
      ],
      [
        "Ġhe",
        "ard"
      ],
      [
        "d",
        "e"
      ],
      [
        "l",
        "ing"
      ],
      [
        "Ġg",
        "un"
      ],
      [
        "Ġp",
        "olice"
      ],
      [
        "om",
        "ent"
      ],
      [
        "re",
        "t"
      ],
      [
        "ad",
        "y"
      ],
      [
        "ĠThe",
        "re"
      ],
      [
        "n",
        "y"
      ],
      [
        "Ġf",
        "ew"
      ],
      [
        "ak",
        "ing"
      ],
      [
        "ri",
        "end"
      ],
      [
        "Ġf",
        "ind"
      ],
      [
        "Ġc",
        "he"
      ],
      [
        "ĠThe",
        "y"
      ],
      [
        "au",
        "se"
      ],
      [
        "in",
        "ess"
      ],
      [
        "â",
        "ĸ"
      ],
      [
        "Ġt",
        "ake"
      ],
      [
        "n",
        "ot"
      ],
      [
        "Ġre",
        "t"
      ],
      [
        "Ġ",
        "U"
      ],
      [
        "n",
        "er"
      ],
      [
        "Ġwh",
        "ile"
      ],
      [
        "ter",
        "s"
      ],
      [
        "i",
        "gh"
      ],
      [
        "Ġo",
        "wn"
      ],
      [
        "m",
        "er"
      ],
      [
        "g",
        "ed"
      ],
      [
        "Ġwom",
        "an"
      ],
      [
        "ow",
        "s"
      ],
      [
        "Ġm",
        "ust"
      ],
      [
        "g",
        "an"
      ],
      [
        "Ġm",
        "in"
      ],
      [
        "Ġ",
        "2"
      ],
      [
        "Ġm",
        "uch"
      ],
      [
        "Ġne",
        "ver"
      ],
      [
        "d",
        "ay"
      ],
      [
        "ot",
        "h"
      ],
      [
        "T",
        "hat"
      ],
      [
        "Ġc",
        "are"
      ],
      [
        "en",
        "s"
      ],
      [
        "ĠThe",
        "n"
      ],
      [
        "e",
        "ver"
      ],
      [
        "Ġit",
        "s"
      ],
      [
        "Ġnot",
        "hing"
      ],
      [
        "h",
        "im"
      ],
      [
        "Ġb",
        "ig"
      ],
      [
        "m",
        "e"
      ],
      [
        "Ġ",
        "imp"
      ],
      [
        "Ġt",
        "e"
      ],
      [
        "Ġhand",
        "s"
      ],
      [
        "Ġex",
        "p"
      ],
      [
        "ag",
        "az"
      ],
      [
        "Ġst",
        "ill"
      ],
      [
        "Ġre",
        "c"
      ],
      [
        "u",
        "b"
      ],
      [
        "Ġm",
        "oment"
      ],
      [
        "ĠD",
        "etective"
      ],
      [
        "Ġa",
        "cc"
      ],
      [
        "ĠT",
        "hat"
      ],
      [
        "Ġ",
        "-"
      ],
      [
        "p",
        "r"
      ],
      [
        "N",
        "o"
      ],
      [
        "Ġm",
        "ay"
      ],
      [
        "Ġth",
        "ree"
      ],
      [
        "f",
        "e"
      ],
      [
        "ie",
        "f"
      ],
      [
        "Ġb",
        "ody"
      ],
      [
        "Ġw",
        "ell"
      ],
      [
        "Ġs",
        "omething"
      ],
      [
        "re",
        "w"
      ],
      [
        "ig",
        "n"
      ],
      [
        "ĠB",
        "r"
      ],
      [
        "lo",
        "or"
      ],
      [
        "oo",
        "l"
      ],
      [
        "ĠN",
        "o"
      ],
      [
        "Ġany",
        "thing"
      ],
      [
        "agaz",
        "ine"
      ],
      [
        "R",
        "E"
      ],
      [
        "p",
        "le"
      ],
      [
        "Ġu",
        "nt"
      ],
      [
        "W",
        "e"
      ],
      [
        "Ġb",
        "us"
      ],
      [
        "Ġv",
        "oice"
      ],
      [
        "b",
        "ut"
      ],
      [
        "Ġha",
        "r"
      ],
      [
        "Ġpl",
        "ace"
      ],
      [
        "S",
        "he"
      ],
      [
        "i",
        "ble"
      ],
      [
        "Ġcon",
        "t"
      ],
      [
        "Ġb",
        "u"
      ],
      [
        "Ġup",
        "on"
      ],
      [
        "it",
        "ion"
      ],
      [
        "ic",
        "al"
      ],
      [
        "ĠI",
        "f"
      ],
      [
        "Ġop",
        "en"
      ],
      [
        "Ġin",
        "st"
      ],
      [
        "g",
        "er"
      ],
      [
        "Ġs",
        "at"
      ],
      [
        "i",
        "an"
      ],
      [
        "h",
        "ind"
      ],
      [
        "Ġc",
        "le"
      ],
      [
        "o",
        "y"
      ],
      [
        "re",
        "n"
      ],
      [
        "m",
        "ost"
      ],
      [
        "Ġw",
        "ind"
      ],
      [
        "Ġan",
        "other"
      ],
      [
        "er",
        "v"
      ],
      [
        "Ġwith",
        "out"
      ],
      [
        "I",
        "N"
      ],
      [
        "ull",
        "y"
      ],
      [
        "Ġd",
        "ec"
      ],
      [
        "on",
        "s"
      ],
      [
        "un",
        "g"
      ],
      [
        "em",
        "ent"
      ],
      [
        "b",
        "ody"
      ],
      [
        "b",
        "ed"
      ],
      [
        "s",
        "ed"
      ],
      [
        "ain",
        "ed"
      ],
      [
        ".",
        ","
      ],
      [
        "Ġre",
        "p"
      ],
      [
        "n",
        "ow"
      ],
      [
        "an",
        "y"
      ],
      [
        "Ġd",
        "ark"
      ],
      [
        "Ġmin",
        "ut"
      ],
      [
        "o",
        "h"
      ],
      [
        "Ġt",
        "alk"
      ],
      [
        "Ġst",
        "e"
      ],
      [
        "Ġs",
        "ide"
      ],
      [
        "Ġc",
        "han"
      ],
      [
        "u",
        "ff"
      ],
      [
        "Ġunt",
        "il"
      ],
      [
        "l",
        "es"
      ],
      [
        "Ġf",
        "riend"
      ],
      [
        "Ġc",
        "ou"
      ],
      [
        "Ġf",
        "oll"
      ],
      [
        "ĠC",
        "l"
      ],
      [
        "if",
        "f"
      ],
      [
        "Ġagain",
        "st"
      ],
      [
        "i",
        "o"
      ],
      [
        "ent",
        "ly"
      ],
      [
        "Ġh",
        "our"
      ],
      [
        "i",
        "red"
      ],
      [
        "ent",
        "y"
      ],
      [
        "Ġwor",
        "d"
      ],
      [
        "an",
        "c"
      ],
      [
        "Ġn",
        "ame"
      ],
      [
        "Ġhe",
        "l"
      ],
      [
        "Ġs",
        "ha"
      ],
      [
        "Ġm",
        "o"
      ],
      [
        "Ġc",
        "ase"
      ],
      [
        "at",
        "ter"
      ],
      [
        "at",
        "t"
      ],
      [
        "m",
        "it"
      ],
      [
        "r",
        "ow"
      ],
      [
        "Ġar",
        "m"
      ],
      [
        "u",
        "ck"
      ],
      [
        "Ġg",
        "ive"
      ],
      [
        "I",
        "n"
      ],
      [
        "Ġf",
        "ar"
      ],
      [
        "Ġw",
        "ait"
      ],
      [
        "Ġa",
        "dd"
      ],
      [
        "Ġg",
        "reat"
      ],
      [
        "is",
        "hed"
      ],
      [
        "a",
        "pp"
      ],
      [
        "Ġha",
        "lf"
      ],
      [
        "ĠM",
        "y"
      ],
      [
        "O",
        "N"
      ],
      [
        "Ġa",
        "ct"
      ],
      [
        "A",
        "N"
      ],
      [
        "Ġth",
        "ing"
      ],
      [
        "he",
        "ad"
      ],
      [
        "i",
        "ves"
      ],
      [
        "i",
        "v"
      ],
      [
        "Ġe",
        "nd"
      ],
      [
        "for",
        "m"
      ],
      [
        "Ġha",
        "pp"
      ],
      [
        "Ġl",
        "ife"
      ],
      [
        "Ġf",
        "ell"
      ],
      [
        "Ġe",
        "m"
      ],
      [
        "Ġse",
        "en"
      ],
      [
        "The",
        "re"
      ],
      [
        "lo",
        "ck"
      ],
      [
        "Ġde",
        "ad"
      ],
      [
        "au",
        "ght"
      ],
      [
        "Ġseem",
        "ed"
      ],
      [
        "ul",
        "t"
      ],
      [
        "Ġan",
        "sw"
      ],
      [
        "ut",
        "h"
      ],
      [
        "Ġen",
        "ough"
      ],
      [
        "n",
        "o"
      ],
      [
        "Ġf",
        "loor"
      ],
      [
        "Ġm",
        "ost"
      ],
      [
        "Ġp",
        "e"
      ],
      [
        "at",
        "ing"
      ],
      [
        "ep",
        "t"
      ],
      [
        "Ġto",
        "ward"
      ],
      [
        "ar",
        "ted"
      ],
      [
        "ĠT",
        "h"
      ],
      [
        "Ġoff",
        "ice"
      ],
      [
        "Ġthe",
        "se"
      ],
      [
        "Ġc",
        "ur"
      ],
      [
        "Ġs",
        "ent"
      ],
      [
        "Ġbe",
        "ing"
      ],
      [
        "Ġp",
        "ass"
      ],
      [
        "er",
        "tain"
      ],
      [
        "â",
        "Ģ"
      ],
      [
        "orn",
        "ing"
      ],
      [
        "dd",
        "en"
      ],
      [
        "--",
        "\""
      ],
      [
        "Ġfe",
        "et"
      ],
      [
        "Ġme",
        "an"
      ],
      [
        "al",
        "ked"
      ],
      [
        "ne",
        "y"
      ],
      [
        "Ġbe",
        "hind"
      ],
      [
        "Ġf",
        "in"
      ],
      [
        "Ġqu",
        "est"
      ],
      [
        "Ġf",
        "act"
      ],
      [
        "oh",
        "n"
      ],
      [
        "art",
        "ment"
      ],
      [
        "ak",
        "en"
      ],
      [
        "Ġp",
        "ay"
      ],
      [
        "M",
        "r"
      ],
      [
        "or",
        "s"
      ],
      [
        "an",
        "ted"
      ],
      [
        "m",
        "y"
      ],
      [
        "Ġon",
        "ce"
      ],
      [
        "i",
        "et"
      ],
      [
        "Ġmur",
        "der"
      ],
      [
        "Ġ",
        "3"
      ],
      [
        "ĠT",
        "his"
      ],
      [
        "Ġs",
        "et"
      ],
      [
        "c",
        "o"
      ],
      [
        "ou",
        "th"
      ],
      [
        "Ġyou",
        "ng"
      ],
      [
        "Ġas",
        "s"
      ],
      [
        "is",
        "ed"
      ],
      [
        "Ġst",
        "ood"
      ],
      [
        "Ġt",
        "ry"
      ],
      [
        "s",
        "c"
      ],
      [
        "i",
        "b"
      ],
      [
        "Ġcon",
        "f"
      ],
      [
        "a",
        "ut"
      ],
      [
        "Ġth",
        "ose"
      ],
      [
        "ot",
        "t"
      ],
      [
        "f",
        "rom"
      ],
      [
        "Ġt",
        "ri"
      ],
      [
        "Ġd",
        "ro"
      ],
      [
        "Ġ",
        "("
      ],
      [
        "Ġg",
        "ave"
      ],
      [
        "ous",
        "and"
      ],
      [
        "d",
        "o"
      ],
      [
        "Ġe",
        "v"
      ],
      [
        "Ġsu",
        "re"
      ],
      [
        "u",
        "red"
      ],
      [
        "ĠS",
        "p"
      ],
      [
        "Ġm",
        "on"
      ],
      [
        "âĸ",
        "ł"
      ],
      [
        "Ġn",
        "ear"
      ],
      [
        "im",
        "es"
      ],
      [
        "u",
        "al"
      ],
      [
        "Ġbl",
        "ack"
      ],
      [
        "us",
        "p"
      ],
      [
        "ac",
        "ed"
      ],
      [
        "Ġm",
        "et"
      ],
      [
        "ro",
        "om"
      ],
      [
        "Ġsh",
        "ot"
      ],
      [
        "Ġm",
        "ind"
      ],
      [
        "Ġcour",
        "se"
      ],
      [
        "ĠY",
        "ork"
      ],
      [
        "we",
        "en"
      ],
      [
        "Ġke",
        "ep"
      ],
      [
        "Ġday",
        "s"
      ],
      [
        "Ġc",
        "o"
      ],
      [
        "Ġs",
        "ame"
      ],
      [
        "Ġ",
        "im"
      ],
      [
        "Ġb",
        "ook"
      ],
      [
        "us",
        "ed"
      ],
      [
        "Ġde",
        "ath"
      ],
      [
        "h",
        "o"
      ],
      [
        "Ġfr",
        "ont"
      ],
      [
        "S",
        "t"
      ],
      [
        "Ġp",
        "erson"
      ],
      [
        "ec",
        "ted"
      ],
      [
        "c",
        "om"
      ],
      [
        "Ġe",
        "ver"
      ],
      [
        "way",
        "s"
      ],
      [
        "Ġbo",
        "y"
      ],
      [
        "Ġcall",
        "ed"
      ],
      [
        "Ġin",
        "v"
      ],
      [
        "Ġse",
        "nd"
      ],
      [
        "it",
        "s"
      ],
      [
        "Ġqu",
        "ick"
      ],
      [
        "an",
        "e"
      ],
      [
        "ĠD",
        "o"
      ],
      [
        "Ġsm",
        "all"
      ],
      [
        "d",
        "ed"
      ],
      [
        "w",
        "here"
      ],
      [
        "en",
        "se"
      ],
      [
        "Ġe",
        "l"
      ],
      [
        "Ġo",
        "b"
      ],
      [
        "ĠA",
        "t"
      ],
      [
        "Ġsu",
        "ch"
      ],
      [
        "f",
        "ully"
      ],
      [
        "A",
        "R"
      ],
      [
        "Ġst",
        "and"
      ],
      [
        "e",
        "k"
      ],
      [
        "Ġcom",
        "p"
      ],
      [
        "a",
        "x"
      ],
      [
        "Ġre",
        "s"
      ],
      [
        "ac",
        "hed"
      ],
      [
        "of",
        "f"
      ],
      [
        "Ġs",
        "ur"
      ],
      [
        "Ġre",
        "ad"
      ],
      [
        "Ġl",
        "ater"
      ],
      [
        "Ġst",
        "ory"
      ],
      [
        "Ġd",
        "ri"
      ],
      [
        "Ġf",
        "ing"
      ],
      [
        "Y",
        "es"
      ],
      [
        "Ġst",
        "reet"
      ],
      [
        "x",
        "t"
      ],
      [
        "Ġe",
        "as"
      ],
      [
        "o",
        "ke"
      ],
      [
        "el",
        "t"
      ],
      [
        "in",
        "ed"
      ],
      [
        "Ġe",
        "ar"
      ],
      [
        "ap",
        "er"
      ],
      [
        "Ġal",
        "ong"
      ],
      [
        "ĠSt",
        "reet"
      ],
      [
        "Ġm",
        "orning"
      ],
      [
        "und",
        "red"
      ],
      [
        "Ġhar",
        "d"
      ],
      [
        "Ġbus",
        "iness"
      ],
      [
        "ru",
        "e"
      ],
      [
        "Ġsu",
        "pp"
      ],
      [
        "Ġr",
        "un"
      ],
      [
        "E",
        "N"
      ],
      [
        "b",
        "r"
      ],
      [
        "rou",
        "ght"
      ],
      [
        "Ġre",
        "al"
      ],
      [
        "Ġcha",
        "ir"
      ],
      [
        "Ġc",
        "har"
      ],
      [
        "Ġs",
        "il"
      ],
      [
        "Ġd",
        "ep"
      ],
      [
        "Ġin",
        "d"
      ],
      [
        "ent",
        "ion"
      ],
      [
        "Ġh",
        "old"
      ],
      [
        "u",
        "ed"
      ],
      [
        "Ġg",
        "one"
      ],
      [
        "Ġj",
        "ob"
      ],
      [
        "ĠC",
        "o"
      ],
      [
        "Ġhel",
        "p"
      ],
      [
        "ul",
        "ar"
      ],
      [
        "Ġman",
        "y"
      ],
      [
        "Ġth",
        "ings"
      ],
      [
        "ow",
        "ing"
      ],
      [
        "ent",
        "s"
      ],
      [
        "iz",
        "ed"
      ],
      [
        "Ġpre",
        "s"
      ],
      [
        "Ġbec",
        "ause"
      ],
      [
        "ow",
        "er"
      ],
      [
        "ĠM",
        "iss"
      ],
      [
        "Ġb",
        "ro"
      ],
      [
        "Ġpo",
        "ss"
      ],
      [
        "m",
        "en"
      ],
      [
        "it",
        "her"
      ],
      [
        "en",
        "e"
      ],
      [
        "ab",
        "ly"
      ],
      [
        "id",
        "ence"
      ],
      [
        "ere",
        "st"
      ],
      [
        "air",
        "s"
      ],
      [
        "i",
        "am"
      ],
      [
        "Ġdis",
        "c"
      ],
      [
        "Ġm",
        "ar"
      ],
      [
        "Ġb",
        "ed"
      ],
      [
        "Ġal",
        "most"
      ],
      [
        "re",
        "s"
      ],
      [
        "Ġd",
        "ist"
      ],
      [
        "Ġne",
        "ed"
      ],
      [
        "Ġg",
        "i"
      ],
      [
        "Ġin",
        "c"
      ],
      [
        "in",
        "ce"
      ],
      [
        "Ġs",
        "usp"
      ],
      [
        "Ġd",
        "r"
      ],
      [
        "ck",
        "et"
      ],
      [
        "Ġbel",
        "ie"
      ],
      [
        "Ġac",
        "ross"
      ],
      [
        "Ġminut",
        "es"
      ],
      [
        "ha",
        "m"
      ],
      [
        "it",
        "ed"
      ],
      [
        "Ġdo",
        "ll"
      ],
      [
        "im",
        "in"
      ],
      [
        "Ġ",
        ";"
      ],
      [
        "um",
        "b"
      ],
      [
        "Ġha",
        "ir"
      ],
      [
        "um",
        "ber"
      ],
      [
        "Â",
        "«"
      ],
      [
        "Ġ",
        "i"
      ],
      [
        "Ġ1",
        "9"
      ],
      [
        "Ġw",
        "atch"
      ],
      [
        "Ġmon",
        "th"
      ],
      [
        "Ġbet",
        "ween"
      ],
      [
        "Ġs",
        "n"
      ],
      [
        "T",
        "his"
      ],
      [
        "l",
        "er"
      ],
      [
        "l",
        "et"
      ],
      [
        "ec",
        "k"
      ],
      [
        "Ġst",
        "r"
      ],
      [
        "Ġsu",
        "dden"
      ],
      [
        "er",
        "ing"
      ],
      [
        "ĠL",
        "e"
      ],
      [
        "Ġf",
        "ig"
      ],
      [
        "W",
        "ell"
      ],
      [
        "sp",
        "ect"
      ],
      [
        ".",
        "--"
      ],
      [
        "Ġl",
        "ear"
      ],
      [
        "ab",
        "out"
      ],
      [
        "il",
        "ed"
      ],
      [
        "ra",
        "w"
      ],
      [
        "ag",
        "o"
      ],
      [
        "Ġw",
        "ife"
      ],
      [
        "Ġp",
        "h"
      ],
      [
        "Ġpo",
        "cket"
      ],
      [
        "et",
        "e"
      ],
      [
        "ĠM",
        "agazine"
      ],
      [
        "ĠW",
        "hen"
      ],
      [
        "re",
        "am"
      ],
      [
        "ate",
        "ly"
      ],
      [
        "Ġd",
        "ire"
      ],
      [
        "Ġpl",
        "ay"
      ],
      [
        "The",
        "n"
      ],
      [
        "k",
        "ing"
      ],
      [
        "Â",
        "»"
      ],
      [
        "Ġf",
        "ive"
      ],
      [
        "l",
        "ight"
      ],
      [
        "Ġt",
        "er"
      ],
      [
        "w",
        "o"
      ],
      [
        "in",
        "s"
      ],
      [
        "o",
        "pped"
      ],
      [
        "t",
        "s"
      ],
      [
        "Ġt",
        "ra"
      ],
      [
        "Ġd",
        "one"
      ],
      [
        "Ġp",
        "le"
      ],
      [
        "ation",
        "s"
      ],
      [
        "Ġst",
        "ep"
      ],
      [
        "u",
        "g"
      ],
      [
        "Ġd",
        "etective"
      ],
      [
        "en",
        "c"
      ],
      [
        "op",
        "le"
      ],
      [
        "Ġpr",
        "ison"
      ],
      [
        "Ġth",
        "ousand"
      ],
      [
        "c",
        "le"
      ],
      [
        "Ġa",
        "p"
      ],
      [
        "The",
        "y"
      ],
      [
        "ha",
        "ve"
      ],
      [
        "ĠM",
        "c"
      ],
      [
        "ĠJ",
        "ohn"
      ],
      [
        "Ġt",
        "en"
      ],
      [
        "Ġre",
        "g"
      ],
      [
        "as",
        "on"
      ],
      [
        "re",
        "st"
      ],
      [
        "Ġc",
        "ount"
      ],
      [
        "Ġre",
        "st"
      ],
      [
        "a",
        "le"
      ],
      [
        "st",
        "and"
      ],
      [
        "form",
        "ation"
      ],
      [
        "H",
        "ow"
      ],
      [
        "Ġhe",
        "ar"
      ],
      [
        "ir",
        "d"
      ],
      [
        "l",
        "and"
      ],
      [
        "E",
        "S"
      ],
      [
        "w",
        "ere"
      ],
      [
        "ur",
        "ing"
      ],
      [
        "th",
        "is"
      ],
      [
        "Ġr",
        "an"
      ],
      [
        "Ġw",
        "anted"
      ],
      [
        "Ġkill",
        "ed"
      ],
      [
        "Ġf",
        "our"
      ],
      [
        "or",
        "r"
      ],
      [
        "Ġbe",
        "gan"
      ],
      [
        "Ġne",
        "xt"
      ],
      [
        "Ġ",
        "?\""
      ],
      [
        "Ġe",
        "ach"
      ],
      [
        "Ġsec",
        "ond"
      ],
      [
        "Ġs",
        "le"
      ],
      [
        "Ġhe",
        "ld"
      ],
      [
        "d",
        "u"
      ],
      [
        "er",
        "ry"
      ],
      [
        "Ġs",
        "ound"
      ],
      [
        "Ġd",
        "et"
      ],
      [
        "Ġt",
        "aken"
      ],
      [
        "Ġbet",
        "ter"
      ],
      [
        "Ġ",
        ":"
      ],
      [
        "am",
        "p"
      ],
      [
        "Ġwind",
        "ow"
      ],
      [
        "T",
        "H"
      ],
      [
        "y",
        "ing"
      ],
      [
        "Ġro",
        "ad"
      ],
      [
        "Ġte",
        "le"
      ],
      [
        "O",
        "R"
      ],
      [
        "w",
        "ould"
      ],
      [
        "id",
        "ed"
      ],
      [
        "Ġclo",
        "se"
      ],
      [
        "Ġoff",
        "ic"
      ],
      [
        "Ġa",
        "ut"
      ],
      [
        "ĠD",
        "e"
      ],
      [
        "u",
        "ally"
      ],
      [
        "Ġb",
        "oth"
      ],
      [
        "Ġh",
        "undred"
      ],
      [
        "Ġsh",
        "ort"
      ],
      [
        "Ġquest",
        "ion"
      ],
      [
        "s",
        "he"
      ],
      [
        "ce",
        "pt"
      ],
      [
        "w",
        "or"
      ],
      [
        "Ġal",
        "ways"
      ],
      [
        "in",
        "c"
      ],
      [
        "Ġf",
        "ree"
      ],
      [
        "al",
        "s"
      ],
      [
        "ĠB",
        "l"
      ],
      [
        "k",
        "n"
      ],
      [
        "ĠH",
        "er"
      ],
      [
        "Ġb",
        "rought"
      ],
      [
        "Ġt",
        "urn"
      ],
      [
        "in",
        "es"
      ],
      [
        "at",
        "es"
      ],
      [
        "ic",
        "ked"
      ],
      [
        "Ġwh",
        "y"
      ],
      [
        "ove",
        "red"
      ],
      [
        "e",
        "ared"
      ],
      [
        "Ġsp",
        "e"
      ],
      [
        "ĠW",
        "hat"
      ],
      [
        "Ġc",
        "orn"
      ],
      [
        "Ġmur",
        "d"
      ],
      [
        "Ġex",
        "pl"
      ],
      [
        "Ġop",
        "ened"
      ],
      [
        "Ġs",
        "er"
      ],
      [
        "I",
        "f"
      ],
      [
        "Ġwas",
        "n"
      ],
      [
        "le",
        "ct"
      ],
      [
        "Ġ",
        "4"
      ],
      [
        "Ġdo",
        "es"
      ],
      [
        "ha",
        "nd"
      ],
      [
        "Ġint",
        "erest"
      ],
      [
        "T",
        "I"
      ],
      [
        "Ġs",
        "k"
      ],
      [
        "Ġdoll",
        "ars"
      ],
      [
        "Ġc",
        "ap"
      ],
      [
        "is",
        "ter"
      ],
      [
        "Ġc",
        "ertain"
      ],
      [
        "Ġu",
        "se"
      ],
      [
        "Ġw",
        "all"
      ],
      [
        "Ġh",
        "igh"
      ],
      [
        "Ġl",
        "au"
      ],
      [
        "Ġin",
        "ter"
      ],
      [
        "ĠA",
        "l"
      ],
      [
        "Ġtr",
        "ain"
      ],
      [
        "g",
        "r"
      ],
      [
        "mit",
        "ted"
      ],
      [
        "Ġw",
        "on"
      ],
      [
        "Ġf",
        "ull"
      ],
      [
        "un",
        "t"
      ],
      [
        "W",
        "hen"
      ],
      [
        "i",
        "er"
      ],
      [
        "Ġd",
        "el"
      ],
      [
        "ĠW",
        "ill"
      ],
      [
        "ress",
        "ed"
      ],
      [
        "Ġb",
        "ank"
      ],
      [
        "an",
        "s"
      ],
      [
        "c",
        "on"
      ],
      [
        "get",
        "her"
      ],
      [
        "Ġal",
        "so"
      ],
      [
        "t",
        "r"
      ],
      [
        "Ġf",
        "elt"
      ],
      [
        "Ġst",
        "arted"
      ],
      [
        "ha",
        "ps"
      ],
      [
        "be",
        "en"
      ],
      [
        "Ġh",
        "ur"
      ],
      [
        "i",
        "ent"
      ],
      [
        "Ġh",
        "ot"
      ],
      [
        "Ġsu",
        "b"
      ],
      [
        "Ġcom",
        "m"
      ],
      [
        "Ġcom",
        "pl"
      ],
      [
        "em",
        "ber"
      ],
      [
        "ĠF",
        "ran"
      ],
      [
        "Ġm",
        "atter"
      ],
      [
        "Ġre",
        "l"
      ],
      [
        "Ġt",
        "able"
      ],
      [
        "Ġwh",
        "ite"
      ],
      [
        "Ġk",
        "ind"
      ],
      [
        "Ġw",
        "ond"
      ],
      [
        "Ġs",
        "ix"
      ],
      [
        "Ġd",
        "ou"
      ],
      [
        "id",
        "d"
      ],
      [
        "Ġn",
        "od"
      ],
      [
        "n",
        "ight"
      ],
      [
        "ĠM",
        "ar"
      ],
      [
        "ĠF",
        "or"
      ],
      [
        "ĠO",
        "n"
      ],
      [
        "Ġcr",
        "ime"
      ],
      [
        "ic",
        "ago"
      ],
      [
        "Ġl",
        "aw"
      ],
      [
        "Ġe",
        "ff"
      ],
      [
        "es",
        "c"
      ],
      [
        "Ġso",
        "on"
      ],
      [
        "Ġp",
        "rom"
      ],
      [
        "Ġf",
        "am"
      ],
      [
        "ou",
        "n"
      ],
      [
        "Ġh",
        "op"
      ],
      [
        "Ġth",
        "ough"
      ],
      [
        "ĠB",
        "ill"
      ],
      [
        "Ġpo",
        "s"
      ],
      [
        "ut",
        "e"
      ],
      [
        "Ġus",
        "ed"
      ],
      [
        "us",
        "hed"
      ],
      [
        "Ġt",
        "ried"
      ],
      [
        "it",
        "ies"
      ],
      [
        "ill",
        "e"
      ],
      [
        "Ġst",
        "opped"
      ],
      [
        "w",
        "hat"
      ],
      [
        "Ġtw",
        "enty"
      ],
      [
        "Ġp",
        "u"
      ],
      [
        "the",
        "re"
      ],
      [
        "Ġy",
        "et"
      ],
      [
        "Ġb",
        "it"
      ],
      [
        "Ġor",
        "d"
      ],
      [
        "a",
        "h"
      ],
      [
        "ious",
        "ly"
      ],
      [
        "Ġlook",
        "ing"
      ],
      [
        "Ġad",
        "v"
      ],
      [
        "ĠA",
        "r"
      ],
      [
        "Ġag",
        "o"
      ],
      [
        "Ġl",
        "ist"
      ],
      [
        "wh",
        "o"
      ],
      [
        "Ġre",
        "ce"
      ],
      [
        "o",
        "ss"
      ],
      [
        "Ġw",
        "alked"
      ],
      [
        "Ġcould",
        "n"
      ],
      [
        "Ġl",
        "ar"
      ],
      [
        "ĠA",
        "s"
      ],
      [
        "Ġfe",
        "el"
      ],
      [
        "Ġkn",
        "own"
      ],
      [
        "ir",
        "ty"
      ],
      [
        "ri",
        "v"
      ],
      [
        "ra",
        "ight"
      ],
      [
        "Ġst",
        "art"
      ],
      [
        "f",
        "l"
      ],
      [
        "Ġ",
        "5"
      ],
      [
        "Ġp",
        "ur"
      ],
      [
        "Ġmy",
        "self"
      ],
      [
        "ure",
        "s"
      ],
      [
        "Ġw",
        "ar"
      ],
      [
        "Ġl",
        "ay"
      ],
      [
        "wh",
        "ich"
      ],
      [
        "Ġre",
        "f"
      ],
      [
        "T",
        "h"
      ],
      [
        "00",
        "0"
      ],
      [
        "Ġpe",
        "ople"
      ],
      [
        "r",
        "it"
      ],
      [
        "Ġdire",
        "ct"
      ],
      [
        "g",
        "l"
      ],
      [
        "Ġl",
        "oc"
      ],
      [
        "Ġle",
        "ad"
      ],
      [
        "Ġin",
        "formation"
      ],
      [
        "e",
        "ad"
      ],
      [
        "ar",
        "ing"
      ],
      [
        "Ġbl",
        "ood"
      ],
      [
        "er",
        "n"
      ],
      [
        "h",
        "ow"
      ],
      [
        "Ġo",
        "cc"
      ],
      [
        "Ġpo",
        "st"
      ],
      [
        "N",
        "ot"
      ],
      [
        "Ġre",
        "pl"
      ],
      [
        "Ġpo",
        "int"
      ],
      [
        "ver",
        "al"
      ],
      [
        "ĠA",
        "n"
      ],
      [
        "of",
        "t"
      ],
      [
        "on",
        "es"
      ],
      [
        "ag",
        "ed"
      ],
      [
        "Ġret",
        "urned"
      ],
      [
        "ess",
        "ion"
      ],
      [
        "Ġc",
        "ity"
      ],
      [
        "er",
        "k"
      ],
      [
        "i",
        "ver"
      ],
      [
        "li",
        "ke"
      ],
      [
        "Ġchan",
        "ce"
      ],
      [
        "b",
        "and"
      ],
      [
        "ro",
        "o"
      ],
      [
        "Ġ",
        "ide"
      ],
      [
        "o",
        "e"
      ],
      [
        "in",
        "ued"
      ],
      [
        "T",
        "E"
      ],
      [
        "ro",
        "ad"
      ],
      [
        "re",
        "ad"
      ],
      [
        "if",
        "ic"
      ],
      [
        "ĠC",
        "ar"
      ],
      [
        "ie",
        "ld"
      ],
      [
        "i",
        "ence"
      ],
      [
        "Ġcon",
        "s"
      ],
      [
        "Ġd",
        "iff"
      ],
      [
        "y",
        "our"
      ],
      [
        "k",
        "en"
      ],
      [
        "Ġaut",
        "om"
      ],
      [
        "ig",
        "an"
      ],
      [
        "ru",
        "ck"
      ],
      [
        "re",
        "ak"
      ],
      [
        "the",
        "y"
      ],
      [
        "ild",
        "ing"
      ],
      [
        "Ġv",
        "is"
      ],
      [
        "Ġel",
        "se"
      ],
      [
        "ow",
        "ly"
      ],
      [
        "a",
        "ld"
      ],
      [
        "Ġh",
        "us"
      ],
      [
        "Ġp",
        "ull"
      ],
      [
        "Ġ",
        "!"
      ],
      [
        "ĠDo",
        "ctor"
      ],
      [
        "A",
        "s"
      ],
      [
        "s",
        "aid"
      ],
      [
        "ph",
        "one"
      ],
      [
        "Ġre",
        "ached"
      ],
      [
        "RE",
        "E"
      ],
      [
        "Ġword",
        "s"
      ],
      [
        "L",
        "L"
      ],
      [
        "Ġm",
        "outh"
      ],
      [
        "en",
        "er"
      ],
      [
        "as",
        "ter"
      ],
      [
        "Ġcorn",
        "er"
      ],
      [
        "re",
        "m"
      ],
      [
        "Ġro",
        "b"
      ],
      [
        "O",
        "U"
      ],
      [
        "u",
        "c"
      ],
      [
        "Ġst",
        "ran"
      ],
      [
        "Ġcon",
        "v"
      ],
      [
        "âĢ",
        "¢"
      ],
      [
        "Ġm",
        "ot"
      ],
      [
        "Ġl",
        "ow"
      ],
      [
        "p",
        "on"
      ],
      [
        "Ġp",
        "ast"
      ],
      [
        "Ġre",
        "d"
      ],
      [
        "ĠCh",
        "icago"
      ],
      [
        "w",
        "hen"
      ],
      [
        "W",
        "hy"
      ],
      [
        "p",
        "ro"
      ],
      [
        "etect",
        "ives"
      ],
      [
        "Ġpre",
        "t"
      ],
      [
        "Ġs",
        "qu"
      ],
      [
        "Ġb",
        "es"
      ],
      [
        "D",
        "o"
      ],
      [
        "ster",
        "ies"
      ],
      [
        "Ġd",
        "em"
      ],
      [
        "g",
        "in"
      ],
      [
        "Ġt",
        "rou"
      ],
      [
        "iz",
        "e"
      ],
      [
        "ĠSp",
        "ade"
      ],
      [
        "v",
        "ille"
      ],
      [
        "Ġli",
        "ps"
      ],
      [
        "Ġ",
        "*"
      ],
      [
        "Ġs",
        "ir"
      ],
      [
        "in",
        "ted"
      ],
      [
        "Ġsh",
        "ow"
      ],
      [
        "Ġbelie",
        "ve"
      ],
      [
        "Ġa",
        "ff"
      ],
      [
        "ve",
        "lo"
      ],
      [
        "Ġl",
        "ot"
      ],
      [
        "Ġhapp",
        "ened"
      ],
      [
        "Ġsudden",
        "ly"
      ],
      [
        "Ġnod",
        "ded"
      ],
      [
        "Ġre",
        "ason"
      ],
      [
        "Ġf",
        "ire"
      ],
      [
        "ain",
        "t"
      ],
      [
        "c",
        "he"
      ],
      [
        "ĠS",
        "o"
      ],
      [
        "Ġb",
        "ad"
      ],
      [
        "Ġhour",
        "s"
      ],
      [
        "Ġf",
        "oot"
      ],
      [
        "g",
        "o"
      ],
      [
        "el",
        "s"
      ],
      [
        "Ġwould",
        "n"
      ],
      [
        "Ġha",
        "ll"
      ],
      [
        "Ġlet",
        "ter"
      ],
      [
        "f",
        "ort"
      ],
      [
        "s",
        "u"
      ],
      [
        "c",
        "an"
      ],
      [
        "ic",
        "ally"
      ],
      [
        "re",
        "ed"
      ],
      [
        "Ġ",
        "ri"
      ],
      [
        "Ġhe",
        "av"
      ],
      [
        "ak",
        "es"
      ],
      [
        "Ġfoll",
        "owed"
      ],
      [
        "er",
        "y"
      ],
      [
        "ur",
        "y"
      ],
      [
        "Ġfor",
        "ward"
      ],
      [
        "us",
        "h"
      ],
      [
        "Ġex",
        "c"
      ],
      [
        "Ġf",
        "ather"
      ],
      [
        "Ġwor",
        "ld"
      ],
      [
        "c",
        "r"
      ],
      [
        "Ġb",
        "ar"
      ],
      [
        "Ġto",
        "gether"
      ],
      [
        "ect",
        "ion"
      ],
      [
        "D",
        "on"
      ],
      [
        "Ġto",
        "wn"
      ],
      [
        "i",
        "ec"
      ],
      [
        "itt",
        "ing"
      ],
      [
        "lo",
        "y"
      ],
      [
        "g",
        "u"
      ],
      [
        "Ġm",
        "ail"
      ],
      [
        "Ġf",
        "ore"
      ],
      [
        "Ġf",
        "if"
      ],
      [
        "ve",
        "l"
      ],
      [
        "as",
        "hed"
      ],
      [
        "and",
        "ed"
      ],
      [
        "Ġin",
        "s"
      ],
      [
        "s",
        "ome"
      ],
      [
        "Ġc",
        "or"
      ],
      [
        "Ġgi",
        "ven"
      ],
      [
        "ĠA",
        "ll"
      ],
      [
        "Ġse",
        "veral"
      ],
      [
        "c",
        "lock"
      ],
      [
        "en",
        "ing"
      ],
      [
        "Ġc",
        "ig"
      ],
      [
        "r",
        "ic"
      ],
      [
        "is",
        "f"
      ],
      [
        "on",
        "y"
      ],
      [
        "et",
        "h"
      ],
      [
        "ĠW",
        "ith"
      ],
      [
        "A",
        "t"
      ],
      [
        "a",
        "im"
      ],
      [
        "Ġb",
        "ur"
      ],
      [
        "ri",
        "ff"
      ],
      [
        "Ġs",
        "ign"
      ],
      [
        "Ġs",
        "ince"
      ],
      [
        "re",
        "c"
      ],
      [
        "Ġa",
        "w"
      ],
      [
        "Ġsa",
        "fe"
      ],
      [
        "est",
        "ig"
      ],
      [
        "N",
        "ow"
      ],
      [
        "the",
        "m"
      ],
      [
        "Ġex",
        "per"
      ],
      [
        "b",
        "ack"
      ],
      [
        "Ġst",
        "ud"
      ],
      [
        "Ġc",
        "ut"
      ],
      [
        "m",
        "s"
      ],
      [
        "ri",
        "ll"
      ],
      [
        "Ġeas",
        "y"
      ],
      [
        "Ġfig",
        "ure"
      ],
      [
        "O",
        "h"
      ],
      [
        "Ġquick",
        "ly"
      ],
      [
        "c",
        "ould"
      ],
      [
        "ĠS",
        "ch"
      ],
      [
        "Ġwe",
        "ek"
      ],
      [
        "ĠH",
        "ar"
      ],
      [
        "Ġother",
        "s"
      ],
      [
        "Ġor",
        "der"
      ],
      [
        "Ġret",
        "urn"
      ],
      [
        "Ġb",
        "est"
      ],
      [
        "w",
        "ell"
      ],
      [
        "Ġche",
        "ck"
      ],
      [
        "Ġtry",
        "ing"
      ],
      [
        "is",
        "ted"
      ],
      [
        "ec",
        "ess"
      ],
      [
        "O",
        "n"
      ],
      [
        "Ġdes",
        "k"
      ],
      [
        "Ġget",
        "ting"
      ],
      [
        "o",
        "ved"
      ],
      [
        "ap",
        "ers"
      ],
      [
        "Ġin",
        "side"
      ],
      [
        "ĠB",
        "e"
      ],
      [
        "ĠN",
        "ow"
      ],
      [
        "no",
        "on"
      ],
      [
        "M",
        "y"
      ],
      [
        "Ġp",
        "ict"
      ],
      [
        "Ġha",
        "t"
      ],
      [
        "Ġse",
        "ar"
      ],
      [
        "Ġcom",
        "ing"
      ],
      [
        "Ġgu",
        "ess"
      ],
      [
        "et",
        "s"
      ],
      [
        "Ġc",
        "aught"
      ],
      [
        "Ġrepl",
        "ied"
      ],
      [
        "Ġ",
        "ed"
      ],
      [
        "al",
        "th"
      ],
      [
        "Ġst",
        "raight"
      ],
      [
        "ear",
        "s"
      ],
      [
        "ĠMy",
        "steries"
      ],
      [
        "ĠSt",
        "ory"
      ],
      [
        "Ġr",
        "a"
      ],
      [
        "Ġcr",
        "imin"
      ],
      [
        "b",
        "t"
      ],
      [
        "d",
        "own"
      ],
      [
        "Ġc",
        "ol"
      ],
      [
        "i",
        "ved"
      ],
      [
        "or",
        "ney"
      ],
      [
        "ak",
        "ley"
      ],
      [
        "Ġide",
        "a"
      ],
      [
        "Ġqu",
        "iet"
      ],
      [
        "t",
        "ime"
      ],
      [
        "at",
        "ched"
      ],
      [
        "I",
        "C"
      ],
      [
        "ard",
        "s"
      ],
      [
        "i",
        "pped"
      ],
      [
        "m",
        "ore"
      ],
      [
        "Ġadd",
        "ress"
      ],
      [
        "A",
        "ll"
      ],
      [
        "F",
        "or"
      ],
      [
        "Ġh",
        "o"
      ],
      [
        "Ġke",
        "pt"
      ],
      [
        "re",
        "ady"
      ],
      [
        "am",
        "es"
      ],
      [
        "art",
        "y"
      ],
      [
        "v",
        "ol"
      ],
      [
        "if",
        "ied"
      ],
      [
        "L",
        "E"
      ],
      [
        "en",
        "n"
      ],
      [
        "Ġpro",
        "f"
      ],
      [
        "Ġpass",
        "ed"
      ],
      [
        "Ġl",
        "ove"
      ],
      [
        "Ġcle",
        "ar"
      ],
      [
        "e",
        "f"
      ],
      [
        "il",
        "es"
      ],
      [
        "Ġsec",
        "ret"
      ],
      [
        "ĠG",
        "r"
      ],
      [
        "Ġl",
        "ess"
      ],
      [
        "ĠP",
        "r"
      ],
      [
        "ĠE",
        "ng"
      ],
      [
        "b",
        "ably"
      ],
      [
        "Ġp",
        "ol"
      ],
      [
        "Ġmo",
        "ved"
      ],
      [
        "s",
        "er"
      ],
      [
        "Ġsh",
        "ook"
      ],
      [
        "Ġo",
        "pp"
      ],
      [
        "Ġal",
        "one"
      ],
      [
        "Ġwh",
        "is"
      ],
      [
        "ĠBr",
        "own"
      ],
      [
        "Ġp",
        "aper"
      ],
      [
        "ĠH",
        "ow"
      ],
      [
        "Ġansw",
        "er"
      ],
      [
        "Ġ",
        "|"
      ],
      [
        "are",
        "nt"
      ],
      [
        "ĠD",
        "ept"
      ],
      [
        "Ġfell",
        "ow"
      ],
      [
        "p",
        "loy"
      ],
      [
        "in",
        "to"
      ],
      [
        "Ġa",
        "in"
      ],
      [
        "a",
        "ving"
      ],
      [
        "ĠW",
        "h"
      ],
      [
        "at",
        "ur"
      ],
      [
        "Ġlar",
        "ge"
      ],
      [
        "Ġm",
        "aking"
      ],
      [
        "Ġs",
        "ort"
      ],
      [
        "Ġhe",
        "art"
      ],
      [
        "Ġco",
        "at"
      ],
      [
        "j",
        "ust"
      ],
      [
        "le",
        "ase"
      ],
      [
        "Ġm",
        "us"
      ],
      [
        "Ġde",
        "ep"
      ],
      [
        "Ġqu",
        "ite"
      ],
      [
        "Ġa",
        "ir"
      ],
      [
        "es",
        "ted"
      ],
      [
        "h",
        "ouse"
      ],
      [
        "end",
        "ed"
      ],
      [
        "esc",
        "ap"
      ],
      [
        "A",
        "L"
      ],
      [
        "ant",
        "s"
      ],
      [
        "j",
        "ect"
      ],
      [
        "r",
        "ite"
      ],
      [
        "Ġ",
        "Q"
      ],
      [
        "Ġf",
        "ur"
      ],
      [
        "Ġn",
        "or"
      ],
      [
        "Ġle",
        "ave"
      ],
      [
        "Ġm",
        "ove"
      ],
      [
        "Ġar",
        "rest"
      ],
      [
        "Ġfriend",
        "s"
      ],
      [
        "ar",
        "n"
      ],
      [
        "ag",
        "ain"
      ],
      [
        "S",
        "o"
      ],
      [
        "ive",
        "ly"
      ],
      [
        "ĠO",
        "ne"
      ],
      [
        "Ġsp",
        "oke"
      ],
      [
        "Ġpl",
        "an"
      ],
      [
        "Ġc",
        "op"
      ],
      [
        "ĠC",
        "om"
      ],
      [
        "cc",
        "ess"
      ],
      [
        "Ġhus",
        "band"
      ],
      [
        "in",
        "ation"
      ],
      [
        "Ġc",
        "oll"
      ],
      [
        "ment",
        "s"
      ],
      [
        "Ġs",
        "imp"
      ],
      [
        "Ġs",
        "oft"
      ],
      [
        "Ġc",
        "ir"
      ],
      [
        "H",
        "is"
      ],
      [
        "Ġwr",
        "ite"
      ],
      [
        "Ġ",
        "6"
      ],
      [
        "as",
        "ed"
      ],
      [
        "ond",
        "s"
      ],
      [
        "T",
        "rue"
      ],
      [
        "Ġs",
        "had"
      ],
      [
        "ru",
        "gg"
      ],
      [
        "ant",
        "ly"
      ],
      [
        "Ġde",
        "f"
      ],
      [
        "i",
        "ke"
      ],
      [
        "Ġbe",
        "aut"
      ],
      [
        "Ġme",
        "et"
      ],
      [
        "Ġex",
        "am"
      ],
      [
        "Ġch",
        "ild"
      ],
      [
        "Ġansw",
        "ered"
      ],
      [
        "T",
        "ER"
      ],
      [
        "Ġ1",
        "0"
      ],
      [
        "ill",
        "ed"
      ],
      [
        "Ġap",
        "artment"
      ],
      [
        ",",
        "'"
      ],
      [
        "s",
        "y"
      ],
      [
        "an",
        "ced"
      ],
      [
        "pp",
        "ing"
      ],
      [
        "k",
        "now"
      ],
      [
        "ad",
        "d"
      ],
      [
        "med",
        "i"
      ],
      [
        "g",
        "ing"
      ],
      [
        "Ġb",
        "ull"
      ],
      [
        "if",
        "t"
      ],
      [
        "Ġm",
        "ach"
      ],
      [
        "ar",
        "ters"
      ],
      [
        "IN",
        "G"
      ],
      [
        "Ġev",
        "idence"
      ],
      [
        "Ġt",
        "ou"
      ],
      [
        "ĠM",
        "an"
      ],
      [
        "at",
        "ic"
      ],
      [
        "Ġbes",
        "ide"
      ],
      [
        "e",
        "ks"
      ],
      [
        "t",
        "en"
      ],
      [
        "id",
        "es"
      ],
      [
        "Ġsl",
        "owly"
      ],
      [
        "at",
        "or"
      ],
      [
        "Ġste",
        "pped"
      ],
      [
        "s",
        "m"
      ],
      [
        "a",
        "pped"
      ],
      [
        "ĠN",
        "ot"
      ],
      [
        "r",
        "ing"
      ],
      [
        "Ġs",
        "ol"
      ],
      [
        "ĠC",
        "O"
      ],
      [
        "g",
        "s"
      ],
      [
        "Ġ",
        "ident"
      ],
      [
        "Ġey",
        "e"
      ],
      [
        "Ġha",
        "ving"
      ],
      [
        "Ġmy",
        "ster"
      ],
      [
        "Ġunder",
        "stand"
      ],
      [
        "Ġp",
        "at"
      ],
      [
        "t",
        "ered"
      ],
      [
        "Ġs",
        "erv"
      ],
      [
        "it",
        "al"
      ],
      [
        "am",
        "ed"
      ],
      [
        "p",
        "ted"
      ],
      [
        "Ġb",
        "reat"
      ],
      [
        "Ġdo",
        "ing"
      ],
      [
        "Ġm",
        "iss"
      ],
      [
        "re",
        "en"
      ],
      [
        "Ġc",
        "old"
      ],
      [
        "un",
        "k"
      ],
      [
        "Ġtele",
        "phone"
      ],
      [
        "ĠC",
        "on"
      ],
      [
        "v",
        "i"
      ],
      [
        "Ġdis",
        "app"
      ],
      [
        "Ġclo",
        "sed"
      ],
      [
        "Ġw",
        "alk"
      ],
      [
        "ĠC",
        "ity"
      ],
      [
        "um",
        "p"
      ],
      [
        "Ġle",
        "ast"
      ],
      [
        "Ġafter",
        "noon"
      ],
      [
        "Ġeven",
        "ing"
      ],
      [
        "Ġp",
        "ar"
      ],
      [
        "ail",
        "s"
      ],
      [
        "th",
        "rough"
      ],
      [
        "ven",
        "ue"
      ],
      [
        "Ġent",
        "ered"
      ],
      [
        "l",
        "or"
      ],
      [
        "w",
        "ill"
      ],
      [
        "ain",
        "s"
      ],
      [
        "Ġgl",
        "ass"
      ],
      [
        "Ġfing",
        "ers"
      ],
      [
        "bl",
        "ic"
      ],
      [
        "Ġfing",
        "er"
      ],
      [
        "an",
        "ed"
      ],
      [
        "Ġke",
        "y"
      ],
      [
        "Ġyour",
        "self"
      ],
      [
        "os",
        "ed"
      ],
      [
        "se",
        "l"
      ],
      [
        "Ġdo",
        "ctor"
      ],
      [
        "Ġwho",
        "le"
      ],
      [
        "W",
        "ith"
      ],
      [
        "Ġout",
        "side"
      ],
      [
        "Ġab",
        "ove"
      ],
      [
        "ac",
        "es"
      ],
      [
        "ter",
        "n"
      ],
      [
        "I",
        "S"
      ],
      [
        "ĠU",
        "n"
      ],
      [
        "ac",
        "ked"
      ],
      [
        "Ġwith",
        "in"
      ],
      [
        "Ġab",
        "s"
      ],
      [
        "Ġmonth",
        "s"
      ],
      [
        "Ġme",
        "m"
      ],
      [
        "ĠJ",
        "erry"
      ],
      [
        "Ġwait",
        "ing"
      ],
      [
        "c",
        "ri"
      ],
      [
        "d",
        "id"
      ],
      [
        "e",
        "ed"
      ],
      [
        "Ġw",
        "ater"
      ],
      [
        "Ġwom",
        "en"
      ],
      [
        "al",
        "ed"
      ],
      [
        "Ġst",
        "ore"
      ],
      [
        "ĠJ",
        "im"
      ],
      [
        "f",
        "ra"
      ],
      [
        "g",
        "hed"
      ],
      [
        "Ġt",
        "imes"
      ],
      [
        "ing",
        "ly"
      ],
      [
        "Ġbr",
        "other"
      ],
      [
        "b",
        "o"
      ],
      [
        "in",
        "ing"
      ],
      [
        "ĠS",
        "an"
      ],
      [
        "Ġr",
        "ather"
      ],
      [
        "Ġex",
        "t"
      ],
      [
        "âĸ",
        "¡"
      ],
      [
        "Ġ",
        "ir"
      ],
      [
        "Ġs",
        "ight"
      ],
      [
        "Ġcl",
        "ot"
      ],
      [
        "Ġd",
        "etectives"
      ],
      [
        "st",
        "r"
      ],
      [
        "Ġe",
        "ither"
      ],
      [
        "Ġt",
        "all"
      ],
      [
        "ra",
        "ph"
      ],
      [
        "Ġli",
        "ving"
      ],
      [
        "ĠSt",
        "ate"
      ],
      [
        "a",
        "used"
      ],
      [
        "C",
        "H"
      ],
      [
        "se",
        "c"
      ],
      [
        "Ġdro",
        "pped"
      ],
      [
        "on",
        "ed"
      ],
      [
        "f",
        "ive"
      ],
      [
        "Ġsp",
        "ec"
      ],
      [
        "the",
        "n"
      ],
      [
        "ry",
        "ing"
      ],
      [
        "Ġsur",
        "pr"
      ],
      [
        "5",
        "0"
      ],
      [
        "ere",
        "r"
      ],
      [
        "W",
        "ho"
      ],
      [
        "Ġ",
        ","
      ],
      [
        "at",
        "ure"
      ],
      [
        "ap",
        "tain"
      ],
      [
        "Ġ",
        "7"
      ],
      [
        "or",
        "ies"
      ],
      [
        "ard",
        "igan"
      ],
      [
        "Ġsu",
        "gg"
      ],
      [
        "ĠJ",
        "ack"
      ],
      [
        "ch",
        "ing"
      ],
      [
        "Ġen",
        "g"
      ],
      [
        "ĠO",
        "r"
      ],
      [
        "Ġtr",
        "uth"
      ],
      [
        "Ġposs",
        "ible"
      ],
      [
        "as",
        "k"
      ],
      [
        "Ġheav",
        "y"
      ],
      [
        "e",
        "or"
      ],
      [
        "Ġpr",
        "ot"
      ],
      [
        "Ġcount",
        "ry"
      ],
      [
        ".",
        "'"
      ],
      [
        "er",
        "t"
      ],
      [
        "ore",
        "d"
      ],
      [
        "te",
        "en"
      ],
      [
        "fra",
        "id"
      ],
      [
        "c",
        "ha"
      ],
      [
        "z",
        "e"
      ],
      [
        "Ġg",
        "round"
      ],
      [
        "Ġm",
        "agazine"
      ],
      [
        "Ġst",
        "ay"
      ],
      [
        "v",
        "ent"
      ],
      [
        "ecess",
        "ary"
      ],
      [
        "ĠF",
        "REE"
      ],
      [
        "ous",
        "ly"
      ],
      [
        "Ġpret",
        "ty"
      ],
      [
        "c",
        "her"
      ],
      [
        "Ġsm",
        "iled"
      ],
      [
        "Ġhot",
        "el"
      ],
      [
        "z",
        "z"
      ],
      [
        "ru",
        "ct"
      ],
      [
        "Ġgr",
        "in"
      ],
      [
        "Ġwr",
        "it"
      ],
      [
        "l",
        "ook"
      ],
      [
        "and",
        "er"
      ],
      [
        "Ġbec",
        "ame"
      ],
      [
        "a",
        "way"
      ],
      [
        "Ġg",
        "as"
      ],
      [
        "D",
        "etective"
      ],
      [
        "or",
        "ted"
      ],
      [
        "ber",
        "t"
      ],
      [
        "Ġevery",
        "thing"
      ],
      [
        "Ġtalk",
        "ing"
      ],
      [
        "Ġe",
        "le"
      ],
      [
        "har",
        "p"
      ],
      [
        "al",
        "es"
      ],
      [
        "Ġv",
        "i"
      ],
      [
        "Ġe",
        "ight"
      ],
      [
        "Ġcompl",
        "ete"
      ],
      [
        "ail",
        "ed"
      ],
      [
        "Ġpres",
        "ent"
      ],
      [
        "Ġd",
        "raw"
      ],
      [
        "Ġex",
        "cept"
      ],
      [
        "t",
        "wo"
      ],
      [
        "Ġinv",
        "estig"
      ],
      [
        "Ġv",
        "al"
      ],
      [
        "th",
        "ough"
      ],
      [
        "et",
        "t"
      ],
      [
        "ĠC",
        "an"
      ],
      [
        "Ġf",
        "ear"
      ],
      [
        "Ġsp",
        "ot"
      ],
      [
        "ang",
        "er"
      ],
      [
        "c",
        "er"
      ],
      [
        "Ġb",
        "and"
      ],
      [
        "Ġm",
        "other"
      ],
      [
        "Ġn",
        "umber"
      ],
      [
        "st",
        "e"
      ],
      [
        "Ġdou",
        "bt"
      ],
      [
        "Ġh",
        "um"
      ],
      [
        "ver",
        "s"
      ],
      [
        "Ġ",
        "ill"
      ],
      [
        "Ġb",
        "ott"
      ],
      [
        "id",
        "ing"
      ],
      [
        "ĠS",
        "h"
      ],
      [
        "Ġnew",
        "s"
      ],
      [
        "iec",
        "e"
      ],
      [
        "ĠE",
        "x"
      ],
      [
        "Ġbr",
        "ing"
      ],
      [
        "Ġwond",
        "er"
      ],
      [
        "Ġ",
        "escap"
      ],
      [
        "are",
        "t"
      ],
      [
        "int",
        "s"
      ],
      [
        "Mr",
        "s"
      ],
      [
        "do",
        "or"
      ],
      [
        "Ġto",
        "day"
      ],
      [
        "Ġl",
        "ine"
      ],
      [
        "Ġbo",
        "x"
      ],
      [
        "Ġ",
        "8"
      ],
      [
        "se",
        "y"
      ],
      [
        "h",
        "od"
      ],
      [
        "ĠT",
        "om"
      ],
      [
        "Ġas",
        "k"
      ],
      [
        "ag",
        "er"
      ],
      [
        "Ġl",
        "ed"
      ],
      [
        "um",
        "ped"
      ],
      [
        "Ġstand",
        "ing"
      ],
      [
        "Ġbu",
        "ilding"
      ],
      [
        "ĠJ",
        "ust"
      ],
      [
        "Ġsh",
        "oot"
      ],
      [
        "Ġpull",
        "ed"
      ],
      [
        "Ġc",
        "ent"
      ],
      [
        "em",
        "pt"
      ],
      [
        "qu",
        "arters"
      ],
      [
        "H",
        "E"
      ],
      [
        "Ġd",
        "uring"
      ],
      [
        "ay",
        "be"
      ],
      [
        "Ġtri",
        "al"
      ],
      [
        "if",
        "ul"
      ],
      [
        "ort",
        "un"
      ],
      [
        "ent",
        "le"
      ],
      [
        "Ġbl",
        "ue"
      ],
      [
        "aim",
        "ed"
      ],
      [
        "c",
        "ome"
      ],
      [
        "ĠW",
        "hy"
      ],
      [
        "Ġf",
        "all"
      ],
      [
        "Ġp",
        "aid"
      ],
      [
        "ob",
        "ile"
      ],
      [
        "Ġapp",
        "eared"
      ],
      [
        "C",
        "l"
      ],
      [
        "Ġc",
        "ross"
      ],
      [
        "or",
        "m"
      ],
      [
        "ĠR",
        "o"
      ],
      [
        "a",
        "fter"
      ],
      [
        "c",
        "hes"
      ],
      [
        "i",
        "ar"
      ],
      [
        "ĠD",
        "on"
      ],
      [
        "Ġdec",
        "ided"
      ],
      [
        "Ġb",
        "reak"
      ],
      [
        "Ġpart",
        "ic"
      ],
      [
        "Ġsle",
        "ep"
      ],
      [
        "Ġf",
        "at"
      ],
      [
        "Ġstep",
        "s"
      ],
      [
        "Ġc",
        "ost"
      ],
      [
        "Ġtrou",
        "ble"
      ],
      [
        "Ġt",
        "aking"
      ],
      [
        "Ġ19",
        "2"
      ],
      [
        "Ġex",
        "cl"
      ],
      [
        "A",
        "T"
      ],
      [
        "O",
        "W"
      ],
      [
        "c",
        "ted"
      ],
      [
        "at",
        "ive"
      ],
      [
        "Ġent",
        "ire"
      ],
      [
        "Ġre",
        "ally"
      ],
      [
        "ress",
        "ion"
      ],
      [
        "B",
        "y"
      ],
      [
        "Ġp",
        "icked"
      ],
      [
        "ud",
        "ge"
      ],
      [
        "ur",
        "der"
      ],
      [
        "Ġsm",
        "ile"
      ],
      [
        "et",
        "er"
      ],
      [
        "Ġwho",
        "se"
      ],
      [
        "aught",
        "er"
      ],
      [
        "Ġs",
        "y"
      ],
      [
        "ic",
        "ed"
      ],
      [
        "ro",
        "at"
      ],
      [
        "ill",
        "s"
      ],
      [
        "Ġwh",
        "om"
      ],
      [
        "Ġem",
        "ploy"
      ],
      [
        "Ġlear",
        "ned"
      ],
      [
        "st",
        "airs"
      ],
      [
        "c",
        "ked"
      ],
      [
        "ĠS",
        "m"
      ],
      [
        "Ġal",
        "ready"
      ],
      [
        "Ġpro",
        "bably"
      ],
      [
        "Ġp",
        "en"
      ],
      [
        "Ġhad",
        "n"
      ],
      [
        "ĠB",
        "ur"
      ],
      [
        "mer",
        "ic"
      ],
      [
        "Ġsusp",
        "ic"
      ],
      [
        "anc",
        "es"
      ],
      [
        "k",
        "er"
      ],
      [
        "Ġc",
        "ond"
      ],
      [
        "ar",
        "r"
      ],
      [
        "ra",
        "ve"
      ],
      [
        "Ġab",
        "le"
      ],
      [
        "Ġgr",
        "ay"
      ],
      [
        "Ġcou",
        "ple"
      ],
      [
        "1",
        "0"
      ],
      [
        "Ġsh",
        "owed"
      ],
      [
        "Ġarm",
        "s"
      ],
      [
        "pp",
        "er"
      ],
      [
        "Ġsat",
        "isf"
      ],
      [
        "ou",
        "d"
      ],
      [
        "Ġre",
        "ady"
      ],
      [
        "Ġa",
        "head"
      ],
      [
        "Ġto",
        "p"
      ],
      [
        "g",
        "ot"
      ],
      [
        "is",
        "to"
      ],
      [
        "I",
        "I"
      ],
      [
        "Ġc",
        "roo"
      ],
      [
        "il",
        "t"
      ],
      [
        "Ġdiff",
        "ere"
      ],
      [
        "V",
        "E"
      ],
      [
        "il",
        "ing"
      ],
      [
        "ag",
        "es"
      ],
      [
        "Ġsu",
        "ccess"
      ],
      [
        "medi",
        "ately"
      ],
      [
        "Ġl",
        "o"
      ],
      [
        "u",
        "nder"
      ],
      [
        "Ġsl",
        "ight"
      ],
      [
        "O",
        "O"
      ],
      [
        "Ġj",
        "o"
      ],
      [
        "Ġar",
        "t"
      ],
      [
        "Ġ",
        "et"
      ],
      [
        "Ġt",
        "y"
      ],
      [
        "Ġw",
        "it"
      ],
      [
        "is",
        "ing"
      ],
      [
        "as",
        "es"
      ],
      [
        "Ġst",
        "op"
      ],
      [
        "Ġminut",
        "e"
      ],
      [
        "Ġmach",
        "ine"
      ],
      [
        "L",
        "e"
      ],
      [
        "Ġnew",
        "sp"
      ],
      [
        "Ġstr",
        "ong"
      ],
      [
        "Ġ",
        "_"
      ],
      [
        "ar",
        "m"
      ],
      [
        "A",
        "Y"
      ],
      [
        "r",
        "ict"
      ],
      [
        "I",
        "T"
      ],
      [
        "Ġch",
        "ief"
      ],
      [
        "ĠS",
        "end"
      ],
      [
        "Ġ",
        "!\""
      ],
      [
        "al",
        "m"
      ],
      [
        "Ġcons",
        "id"
      ],
      [
        "f",
        "ect"
      ],
      [
        "Ġc",
        "ash"
      ],
      [
        "spect",
        "or"
      ],
      [
        "er",
        "man"
      ],
      [
        "ut",
        "ion"
      ],
      [
        "ĠA",
        "ny"
      ],
      [
        "ĠR",
        "e"
      ],
      [
        "ict",
        "im"
      ],
      [
        "W",
        "here"
      ],
      [
        "il",
        "ity"
      ],
      [
        "s",
        "ing"
      ],
      [
        "Ġde",
        "al"
      ],
      [
        "A",
        "S"
      ],
      [
        "Ġg",
        "ang"
      ],
      [
        "ad",
        "io"
      ],
      [
        "Ġrob",
        "ber"
      ],
      [
        "c",
        "is"
      ],
      [
        "ĠP",
        "h"
      ],
      [
        "Ġoff",
        "er"
      ],
      [
        "Ġdes",
        "cri"
      ],
      [
        "Ġcour",
        "t"
      ],
      [
        "Ġlau",
        "ghed"
      ],
      [
        "Ġa",
        "fraid"
      ],
      [
        "Ġbe",
        "ll"
      ],
      [
        "ar",
        "a"
      ],
      [
        "ĠI",
        "s"
      ],
      [
        "Ġre",
        "vol"
      ],
      [
        "Ġar",
        "ri"
      ],
      [
        "ge",
        "ant"
      ],
      [
        "f",
        "ace"
      ],
      [
        "s",
        "et"
      ],
      [
        "ic",
        "es"
      ],
      [
        "Ġwr",
        "ong"
      ],
      [
        "Ġ",
        "Â"
      ],
      [
        "ĠA",
        "venue"
      ],
      [
        "ĠT",
        "o"
      ],
      [
        "em",
        "an"
      ],
      [
        "ĠO",
        "akley"
      ],
      [
        "c",
        "ar"
      ],
      [
        "Ġf",
        "re"
      ],
      [
        "Ġp",
        "ower"
      ],
      [
        "Ġimp",
        "ort"
      ],
      [
        "Ġcou",
        "pon"
      ],
      [
        "a",
        "i"
      ],
      [
        "b",
        "s"
      ],
      [
        "Ġcont",
        "inued"
      ],
      [
        "uth",
        "or"
      ],
      [
        "Ġmet",
        "hod"
      ],
      [
        "J",
        "ust"
      ],
      [
        "m",
        "in"
      ],
      [
        "it",
        "ch"
      ],
      [
        "Ġf",
        "ast"
      ],
      [
        "ce",
        "ed"
      ],
      [
        "ra",
        "wn"
      ],
      [
        "Ġc",
        "ell"
      ],
      [
        "l",
        "s"
      ],
      [
        "Ġex",
        "act"
      ],
      [
        "as",
        "hing"
      ],
      [
        "ir",
        "t"
      ],
      [
        "ist",
        "s"
      ],
      [
        "Ġnot",
        "e"
      ],
      [
        "Ġhop",
        "e"
      ],
      [
        "Ġr",
        "ing"
      ],
      [
        "bl",
        "ing"
      ],
      [
        "..",
        "."
      ],
      [
        "Ġfoll",
        "owing"
      ],
      [
        "Ġd",
        "ied"
      ],
      [
        "Ġy",
        "ell"
      ],
      [
        "ĠA",
        "fter"
      ],
      [
        "Ġknow",
        "s"
      ],
      [
        "en",
        "g"
      ],
      [
        "Ġapp",
        "ear"
      ],
      [
        "b",
        "ers"
      ],
      [
        "ĠC",
        "har"
      ],
      [
        "C",
        "h"
      ],
      [
        "Ġper",
        "haps"
      ],
      [
        "Ġt",
        "est"
      ],
      [
        "in",
        "n"
      ],
      [
        "oo",
        "se"
      ],
      [
        "Ġcar",
        "ried"
      ],
      [
        "Ġatt",
        "ention"
      ],
      [
        "a",
        "ff"
      ],
      [
        "in",
        "o"
      ],
      [
        "Ġde",
        "v"
      ],
      [
        "riv",
        "ate"
      ],
      [
        "r",
        "ay"
      ],
      [
        "u",
        "se"
      ],
      [
        "Ġs",
        "harp"
      ],
      [
        "itt",
        "en"
      ],
      [
        "Ġph",
        "ot"
      ],
      [
        "Ġth",
        "irty"
      ],
      [
        "c",
        "es"
      ],
      [
        "Ġlear",
        "n"
      ],
      [
        "ĠBl",
        "ack"
      ],
      [
        "Ġst",
        "ation"
      ],
      [
        "ke",
        "y"
      ],
      [
        "o",
        "x"
      ],
      [
        "u",
        "es"
      ],
      [
        "ĠC",
        "or"
      ],
      [
        "ĠW",
        "est"
      ],
      [
        "ĠG",
        "od"
      ],
      [
        "c",
        "lo"
      ],
      [
        "Ġfor",
        "m"
      ],
      [
        "Ġpre",
        "p"
      ],
      [
        "Ġsay",
        "s"
      ],
      [
        "Ġb",
        "lock"
      ],
      [
        "Ġm",
        "ess"
      ],
      [
        "ra",
        "p"
      ],
      [
        "a",
        "wn"
      ],
      [
        "y",
        "n"
      ],
      [
        "m",
        "on"
      ],
      [
        "on",
        "er"
      ],
      [
        "Ġg",
        "ri"
      ],
      [
        "Ġsupp",
        "ose"
      ],
      [
        "A",
        "n"
      ],
      [
        "Ġs",
        "it"
      ],
      [
        "Ġr",
        "ound"
      ],
      [
        "og",
        "n"
      ],
      [
        "anc",
        "y"
      ],
      [
        "z",
        "en"
      ],
      [
        "Ġgu",
        "y"
      ],
      [
        "tain",
        "ed"
      ],
      [
        "D",
        "id"
      ],
      [
        "R",
        "I"
      ],
      [
        "Ġo",
        "per"
      ],
      [
        "Ġpict",
        "ure"
      ],
      [
        "Ġth",
        "in"
      ],
      [
        "ad",
        "ed"
      ],
      [
        "Ġhow",
        "ever"
      ],
      [
        "Ġw",
        "ide"
      ],
      [
        "Ġis",
        "n"
      ],
      [
        "Ġlet",
        "ters"
      ],
[...]
